{
  "version": "1.0",
  "truncation": null,
  "padding": {
    "strategy": "BatchLongest",
    "direction": "Right",
    "pad_to_multiple_of": null,
    "pad_id": 0,
    "pad_type_id": 0,
    "pad_token": "<|pad|>"
  },
  "added_tokens": [
    {
      "id": 0,
      "content": "<|pad|>",
      "single_word": false,
      "lstrip": false,
      "rstrip": false,
      "normalized": false,
      "special": true
    },
    {
      "id": 1,
      "content": "<|bos|>",
      "single_word": false,
      "lstrip": false,
      "rstrip": false,
      "normalized": false,
      "special": true
    },
    {
      "id": 2,
      "content": "<|eos|>",
      "single_word": false,
      "lstrip": false,
      "rstrip": false,
      "normalized": false,
      "special": true
    },
    {
      "id": 3,
      "content": "<|unk|>",
      "single_word": false,
      "lstrip": false,
      "rstrip": false,
      "normalized": false,
      "special": true
    },
    {
      "id": 4,
      "content": "<|user|>",
      "single_word": false,
      "lstrip": false,
      "rstrip": false,
      "normalized": false,
      "special": true
    },
    {
      "id": 5,
      "content": "<|nelson|>",
      "single_word": false,
      "lstrip": false,
      "rstrip": false,
      "normalized": false,
      "special": true
    },
    {
      "id": 6,
      "content": "<|system|>",
      "single_word": false,
      "lstrip": false,
      "rstrip": false,
      "normalized": false,
      "special": true
    },
    {
      "id": 7,
      "content": "<|lang_rw|>",
      "single_word": false,
      "lstrip": false,
      "rstrip": false,
      "normalized": false,
      "special": true
    },
    {
      "id": 8,
      "content": "<|lang_en|>",
      "single_word": false,
      "lstrip": false,
      "rstrip": false,
      "normalized": false,
      "special": true
    },
    {
      "id": 9,
      "content": "<|lang_fr|>",
      "single_word": false,
      "lstrip": false,
      "rstrip": false,
      "normalized": false,
      "special": true
    },
    {
      "id": 10,
      "content": "<|search|>",
      "single_word": false,
      "lstrip": false,
      "rstrip": false,
      "normalized": false,
      "special": true
    },
    {
      "id": 11,
      "content": "<|/search|>",
      "single_word": false,
      "lstrip": false,
      "rstrip": false,
      "normalized": false,
      "special": true
    },
    {
      "id": 12,
      "content": "<|wiki|>",
      "single_word": false,
      "lstrip": false,
      "rstrip": false,
      "normalized": false,
      "special": true
    },
    {
      "id": 13,
      "content": "<|/wiki|>",
      "single_word": false,
      "lstrip": false,
      "rstrip": false,
      "normalized": false,
      "special": true
    },
    {
      "id": 14,
      "content": "<|fetch|>",
      "single_word": false,
      "lstrip": false,
      "rstrip": false,
      "normalized": false,
      "special": true
    },
    {
      "id": 15,
      "content": "<|/fetch|>",
      "single_word": false,
      "lstrip": false,
      "rstrip": false,
      "normalized": false,
      "special": true
    },
    {
      "id": 16,
      "content": "<|result|>",
      "single_word": false,
      "lstrip": false,
      "rstrip": false,
      "normalized": false,
      "special": true
    },
    {
      "id": 17,
      "content": "<|/result|>",
      "single_word": false,
      "lstrip": false,
      "rstrip": false,
      "normalized": false,
      "special": true
    }
  ],
  "normalizer": null,
  "pre_tokenizer": {
    "type": "ByteLevel",
    "add_prefix_space": false,
    "trim_offsets": true,
    "use_regex": true
  },
  "post_processor": {
    "type": "TemplateProcessing",
    "single": [
      {
        "SpecialToken": {
          "id": "<|bos|>",
          "type_id": 0
        }
      },
      {
        "Sequence": {
          "id": "A",
          "type_id": 0
        }
      },
      {
        "SpecialToken": {
          "id": "<|eos|>",
          "type_id": 0
        }
      }
    ],
    "pair": [
      {
        "SpecialToken": {
          "id": "<|bos|>",
          "type_id": 0
        }
      },
      {
        "Sequence": {
          "id": "A",
          "type_id": 0
        }
      },
      {
        "SpecialToken": {
          "id": "<|eos|>",
          "type_id": 0
        }
      },
      {
        "Sequence": {
          "id": "B",
          "type_id": 1
        }
      },
      {
        "SpecialToken": {
          "id": "<|eos|>",
          "type_id": 1
        }
      }
    ],
    "special_tokens": {
      "<|bos|>": {
        "id": "<|bos|>",
        "ids": [
          1
        ],
        "tokens": [
          "<|bos|>"
        ]
      },
      "<|eos|>": {
        "id": "<|eos|>",
        "ids": [
          2
        ],
        "tokens": [
          "<|eos|>"
        ]
      }
    }
  },
  "decoder": {
    "type": "ByteLevel",
    "add_prefix_space": true,
    "trim_offsets": true,
    "use_regex": true
  },
  "model": {
    "type": "BPE",
    "dropout": null,
    "unk_token": "<|unk|>",
    "continuing_subword_prefix": null,
    "end_of_word_suffix": null,
    "fuse_unk": false,
    "byte_fallback": false,
    "ignore_merges": false,
    "vocab": {
      "<|pad|>": 0,
      "<|bos|>": 1,
      "<|eos|>": 2,
      "<|unk|>": 3,
      "<|user|>": 4,
      "<|nelson|>": 5,
      "<|system|>": 6,
      "<|lang_rw|>": 7,
      "<|lang_en|>": 8,
      "<|lang_fr|>": 9,
      "<|search|>": 10,
      "<|/search|>": 11,
      "<|wiki|>": 12,
      "<|/wiki|>": 13,
      "<|fetch|>": 14,
      "<|/fetch|>": 15,
      "<|result|>": 16,
      "<|/result|>": 17,
      "!": 18,
      "\"": 19,
      "#": 20,
      "$": 21,
      "%": 22,
      "&": 23,
      "'": 24,
      "(": 25,
      ")": 26,
      "*": 27,
      "+": 28,
      ",": 29,
      "-": 30,
      ".": 31,
      "/": 32,
      "0": 33,
      "1": 34,
      "2": 35,
      "3": 36,
      "4": 37,
      "5": 38,
      "6": 39,
      "7": 40,
      "8": 41,
      "9": 42,
      ":": 43,
      ";": 44,
      "<": 45,
      "=": 46,
      ">": 47,
      "?": 48,
      "@": 49,
      "A": 50,
      "B": 51,
      "C": 52,
      "D": 53,
      "E": 54,
      "F": 55,
      "G": 56,
      "H": 57,
      "I": 58,
      "J": 59,
      "K": 60,
      "L": 61,
      "M": 62,
      "N": 63,
      "O": 64,
      "P": 65,
      "Q": 66,
      "R": 67,
      "S": 68,
      "T": 69,
      "U": 70,
      "V": 71,
      "W": 72,
      "X": 73,
      "Y": 74,
      "Z": 75,
      "[": 76,
      "\\": 77,
      "]": 78,
      "^": 79,
      "_": 80,
      "`": 81,
      "a": 82,
      "b": 83,
      "c": 84,
      "d": 85,
      "e": 86,
      "f": 87,
      "g": 88,
      "h": 89,
      "i": 90,
      "j": 91,
      "k": 92,
      "l": 93,
      "m": 94,
      "n": 95,
      "o": 96,
      "p": 97,
      "q": 98,
      "r": 99,
      "s": 100,
      "t": 101,
      "u": 102,
      "v": 103,
      "w": 104,
      "x": 105,
      "y": 106,
      "z": 107,
      "{": 108,
      "|": 109,
      "}": 110,
      "~": 111,
      "¡": 112,
      "¢": 113,
      "£": 114,
      "¤": 115,
      "¥": 116,
      "¦": 117,
      "§": 118,
      "¨": 119,
      "©": 120,
      "ª": 121,
      "«": 122,
      "¬": 123,
      "®": 124,
      "¯": 125,
      "°": 126,
      "±": 127,
      "²": 128,
      "³": 129,
      "´": 130,
      "µ": 131,
      "¶": 132,
      "·": 133,
      "¸": 134,
      "¹": 135,
      "º": 136,
      "»": 137,
      "¼": 138,
      "½": 139,
      "¾": 140,
      "¿": 141,
      "À": 142,
      "Á": 143,
      "Â": 144,
      "Ã": 145,
      "Ä": 146,
      "Å": 147,
      "Æ": 148,
      "Ç": 149,
      "È": 150,
      "É": 151,
      "Ê": 152,
      "Ë": 153,
      "Ì": 154,
      "Í": 155,
      "Î": 156,
      "Ï": 157,
      "Ð": 158,
      "Ñ": 159,
      "Ò": 160,
      "Ó": 161,
      "Ô": 162,
      "Õ": 163,
      "Ö": 164,
      "×": 165,
      "Ø": 166,
      "Ù": 167,
      "Ú": 168,
      "Û": 169,
      "Ü": 170,
      "Ý": 171,
      "Þ": 172,
      "ß": 173,
      "à": 174,
      "á": 175,
      "â": 176,
      "ã": 177,
      "ä": 178,
      "å": 179,
      "æ": 180,
      "ç": 181,
      "è": 182,
      "é": 183,
      "ê": 184,
      "ë": 185,
      "ì": 186,
      "í": 187,
      "î": 188,
      "ï": 189,
      "ð": 190,
      "ñ": 191,
      "ò": 192,
      "ó": 193,
      "ô": 194,
      "õ": 195,
      "ö": 196,
      "÷": 197,
      "ø": 198,
      "ù": 199,
      "ú": 200,
      "û": 201,
      "ü": 202,
      "ý": 203,
      "þ": 204,
      "ÿ": 205,
      "Ā": 206,
      "ā": 207,
      "Ă": 208,
      "ă": 209,
      "Ą": 210,
      "ą": 211,
      "Ć": 212,
      "ć": 213,
      "Ĉ": 214,
      "ĉ": 215,
      "Ċ": 216,
      "ċ": 217,
      "Č": 218,
      "č": 219,
      "Ď": 220,
      "ď": 221,
      "Đ": 222,
      "đ": 223,
      "Ē": 224,
      "ē": 225,
      "Ĕ": 226,
      "ĕ": 227,
      "Ė": 228,
      "ė": 229,
      "Ę": 230,
      "ę": 231,
      "Ě": 232,
      "ě": 233,
      "Ĝ": 234,
      "ĝ": 235,
      "Ğ": 236,
      "ğ": 237,
      "Ġ": 238,
      "ġ": 239,
      "Ģ": 240,
      "ģ": 241,
      "Ĥ": 242,
      "ĥ": 243,
      "Ħ": 244,
      "ħ": 245,
      "Ĩ": 246,
      "ĩ": 247,
      "Ī": 248,
      "ī": 249,
      "Ĭ": 250,
      "ĭ": 251,
      "Į": 252,
      "į": 253,
      "İ": 254,
      "ı": 255,
      "Ĳ": 256,
      "ĳ": 257,
      "Ĵ": 258,
      "ĵ": 259,
      "Ķ": 260,
      "ķ": 261,
      "ĸ": 262,
      "Ĺ": 263,
      "ĺ": 264,
      "Ļ": 265,
      "ļ": 266,
      "Ľ": 267,
      "ľ": 268,
      "Ŀ": 269,
      "ŀ": 270,
      "Ł": 271,
      "ł": 272,
      "Ń": 273,
      "an": 274,
      "in": 275,
      "Ġt": 276,
      "er": 277,
      "he": 278,
      "Ġa": 279,
      "Ġm": 280,
      "Ġb": 281,
      "ur": 282,
      "on": 283,
      "en": 284,
      "ar": 285,
      "Ġn": 286,
      "ang": 287,
      "it": 288,
      "es": 289,
      "or": 290,
      "at": 291,
      "Ġw": 292,
      "Ġs": 293,
      "Ġc": 294,
      "Ġthe": 295,
      "Ġk": 296,
      "is": 297,
      "ir": 298,
      "ya": 299,
      "Ġd": 300,
      "and": 301,
      "ed": 302,
      "lang": 303,
      "<|": 304,
      "|>": 305,
      "čĊ": 306,
      "as": 307,
      "Ġr": 308,
      "Ġi": 309,
      "Ġp": 310,
      "am": 311,
      "Ġ,": 312,
      "Ġf": 313,
      "Ġu": 314,
      "Ġl": 315,
      "Ġo": 316,
      "Ġmu": 317,
      "Ġin": 318,
      "Ġh": 319,
      "al": 320,
      "Ġ.": 321,
      "ing": 322,
      "Ġg": 323,
      "âĢ": 324,
      "Ġy": 325,
      "om": 326,
      "wa": 327,
      "ut": 328,
      "im": 329,
      "ic": 330,
      "us": 331,
      "et": 332,
      "ik": 333,
      "âĢĻ": 334,
      "Ġand": 335,
      "ab": 336,
      "rw": 337,
      "ĠI": 338,
      "Ġto": 339,
      "ion": 340,
      "ye": 341,
      "un": 342,
      "Ġof": 343,
      "ĠA": 344,
      "il": 345,
      "we": 346,
      "Ã©": 347,
      "um": 348,
      "ag": 349,
      "ug": 350,
      "ub": 351,
      "ig": 352,
      "ĠM": 353,
      "ent": 354,
      "ĠT": 355,
      "ere": 356,
      "uri": 357,
      "uk": 358,
      "ĠS": 359,
      "el": 360,
      "ho": 361,
      "Ġya": 362,
      "Ġ1": 363,
      "ĠC": 364,
      "ĠB": 365,
      "em": 366,
      "ro": 367,
      "ak": 368,
      "ec": 369,
      "Ġ2": 370,
      "ib": 371,
      "re": 372,
      "za": 373,
      "id": 374,
      "Ġde": 375,
      "yo": 376,
      "ad": 377,
      "ĠK": 378,
      "zi": 379,
      "ac": 380,
      "ĠR": 381,
      "le": 382,
      "Ġ\"": 383,
      "ĠU": 384,
      "Ġth": 385,
      "ĠN": 386,
      "se": 387,
      "Ġ(": 388,
      "ol": 389,
      "Ġwas": 390,
      "Ġmuri": 391,
      "Ġku": 392,
      "iv": 393,
      "ot": 394,
      "Ġ20": 395,
      "qu": 396,
      "ira": 397,
      "ul": 398,
      "ĠL": 399,
      "ĠThe": 400,
      "ĠH": 401,
      "ation": 402,
      "ĠG": 403,
      "Ġby": 404,
      "ĠP": 405,
      "Ġum": 406,
      "Ġe": 407,
      "ze": 408,
      "ay": 409,
      "Ġcy": 410,
      "ant": 411,
      "Ġon": 412,
      "ter": 413,
      "Ġis": 414,
      "Ġim": 415,
      "ĠD": 416,
      "Ġna": 417,
      "os": 418,
      "ka": 419,
      "Ġfor": 420,
      "ari": 421,
      "Ġ@": 422,
      "Ġit": 423,
      "Ġib": 424,
      "Ġv": 425,
      "Ġz": 426,
      "era": 427,
      "ly": 428,
      "ĠF": 429,
      "Ġas": 430,
      "av": 431,
      "uc": 432,
      "Ġ'": 433,
      "ind": 434,
      "Ġ19": 435,
      "fr": 436,
      "eg": 437,
      "uru": 438,
      "Ġst": 439,
      "yi": 440,
      "Ġcon": 441,
      "est": 442,
      "ri": 443,
      "Ġub": 444,
      "ah": 445,
      "sh": 446,
      "ih": 447,
      "ish": 448,
      "ash": 449,
      "bo": 450,
      "ith": 451,
      "ce": 452,
      "ers": 453,
      "Ġam": 454,
      "wo": 455,
      "ĠO": 456,
      "ĠE": 457,
      "ĠW": 458,
      "ong": 459,
      "Ġhe": 460,
      "anda": 461,
      "je": 462,
      "ap": 463,
      "if": 464,
      "ow": 465,
      "Ġat": 466,
      "anga": 467,
      "Ġwa": 468,
      "st": 469,
      "-@": 470,
      "Ġ@-@": 471,
      "ite": 472,
      "Ġwith": 473,
      "Ġni": 474,
      "ung": 475,
      "ana": 476,
      "ver": 477,
      "Ġthat": 478,
      "ĠJ": 479,
      "iri": 480,
      "Ġyo": 481,
      "Ġla": 482,
      "end": 483,
      "ĠIn": 484,
      "Ġbe": 485,
      "th": 486,
      "ain": 487,
      "Ġab": 488,
      "uh": 489,
      "ect": 490,
      "Ġal": 491,
      "Ġle": 492,
      "ip": 493,
      "Ġno": 494,
      "ara": 495,
      "und": 496,
      "ush": 497,
      "our": 498,
      "op": 499,
      "Ġpro": 500,
      "ura": 501,
      "ud": 502,
      "00": 503,
      "Ġun": 504,
      "ko": 505,
      "Ġdes": 506,
      "Ġcom": 507,
      "ore": 508,
      "Ġre": 509,
      "andi": 510,
      "ess": 511,
      "ist": 512,
      "Ġan": 513,
      "Ġik": 514,
      "eng": 515,
      "oc": 516,
      "ika": 517,
      "od": 518,
      "Ġqu": 519,
      "Ġ201": 520,
      "ora": 521,
      "Ġ)": 522,
      "ane": 523,
      "iye": 524,
      "ch": 525,
      "Ġet": 526,
      "ate": 527,
      "Ġpl": 528,
      "ans": 529,
      "uz": 530,
      "ire": 531,
      "rom": 532,
      "Ġkub": 533,
      "bere": 534,
      "Ġcya": 535,
      "Ġwh": 536,
      "ĠÃ": 537,
      "iz": 538,
      "art": 539,
      "ĠY": 540,
      "ort": 541,
      "ba": 542,
      "Ġkug": 543,
      "wanda": 544,
      "ure": 545,
      "ill": 546,
      "Ġkandi": 547,
      "ie": 548,
      "Ġhis": 549,
      "Ġne": 550,
      "Ġbw": 551,
      "up": 552,
      "age": 553,
      "aba": 554,
      "ement": 555,
      "Ġse": 556,
      "ard": 557,
      "Ġpr": 558,
      "ihe": 559,
      "Ġig": 560,
      "anya": 561,
      "af": 562,
      "si": 563,
      "Ġ200": 564,
      "are": 565,
      "Ġar": 566,
      "Ġen": 567,
      "all": 568,
      "ina": 569,
      "anye": 570,
      "Ġex": 571,
      "ugu": 572,
      "ime": 573,
      "Ġfrom": 574,
      "ome": 575,
      "Ġles": 576,
      "Ġko": 577,
      "ob": 578,
      "zwe": 579,
      "igh": 580,
      "eri": 581,
      "ĠRwanda": 582,
      "aga": 583,
      "uma": 584,
      "ihugu": 585,
      "Ġtr": 586,
      "ine": 587,
      "Ġkw": 588,
      "Ġnot": 589,
      "ond": 590,
      "ame": 591,
      "iro": 592,
      "uka": 593,
      "pl": 594,
      "ĠÃł": 595,
      "og": 596,
      "ĠUm": 597,
      "Ġ3": 598,
      "Ġor": 599,
      "ikor": 600,
      "te": 601,
      "yam": 602,
      "Ġso": 603,
      "any": 604,
      "Ġwere": 605,
      "ĠV": 606,
      "ok": 607,
      "Ġch": 608,
      "ive": 609,
      "ell": 610,
      "uf": 611,
      "ne": 612,
      "Ġak": 613,
      "Ġbut": 614,
      "Ġher": 615,
      "Ġry": 616,
      "ous": 617,
      "ĠHe": 618,
      "Ġhad": 619,
      "Ġco": 620,
      "ich": 621,
      "ĠAm": 622,
      "iki": 623,
      "ack": 624,
      "tr": 625,
      "Ġnk": 626,
      "iti": 627,
      "Ġac": 628,
      "zo": 629,
      "uye": 630,
      "ama": 631,
      "Ġsa": 632,
      "go": 633,
      "ĠâĢ": 634,
      "esh": 635,
      "iy": 636,
      "Ġag": 637,
      "shi": 638,
      "ango": 639,
      "uld": 640,
      "ep": 641,
      "Ġcyane": 642,
      "ov": 643,
      "ani": 644,
      "ice": 645,
      "Ġdu": 646,
      "angwa": 647,
      "Ã¨": 648,
      "Ġj": 649,
      "ity": 650,
      "one": 651,
      "Ġnd": 652,
      "her": 653,
      "tion": 654,
      "Ġgut": 655,
      "aka": 656,
      "Ġbwa": 657,
      "ide": 658,
      "Ã©s": 659,
      "Ġkuri": 660,
      "int": 661,
      "Ġsp": 662,
      "ave": 663,
      "imo": 664,
      "ast": 665,
      "Ġbya": 666,
      "Ġint": 667,
      "Ġwo": 668,
      "ugh": 669,
      "Ġare": 670,
      "Ġguk": 671,
      "ero": 672,
      "iko": 673,
      "ord": 674,
      "uko": 675,
      "uv": 676,
      "ated": 677,
      "emb": 678,
      "me": 679,
      "ment": 680,
      "Ġny": 681,
      "Ġ:": 682,
      "Ġbit": 683,
      "umb": 684,
      "ĠIb": 685,
      "so": 686,
      "ia": 687,
      "etse": 688,
      "ima": 689,
      "Ġsh": 690,
      "pr": 691,
      "ight": 692,
      "inn": 693,
      "Ġaf": 694,
      "Ġpar": 695,
      "ĠUb": 696,
      "Ġfil": 697,
      "ial": 698,
      "port": 699,
      "ux": 700,
      "Ġrya": 701,
      "ano": 702,
      "Ġ4": 703,
      "amwe": 704,
      "Ġ-": 705,
      "uga": 706,
      "ĠIt": 707,
      "ear": 708,
      "ĠCh": 709,
      "ue": 710,
      "Ġbo": 711,
      "Ġ5": 712,
      "wi": 713,
      "Ġari": 714,
      "Ġma": 715,
      "ĠSt": 716,
      "Ġuk": 717,
      "Ġcyangwa": 718,
      "ies": 719,
      "ĠAf": 720,
      "iya": 721,
      "Ġsc": 722,
      "Ġrec": 723,
      "iss": 724,
      "ĠÃ©": 725,
      "Ġbig": 726,
      "ont": 727,
      "Ġcl": 728,
      "ĠShe": 729,
      "Ġwhich": 730,
      "Ġshe": 731,
      "Ġwe": 732,
      "ass": 733,
      "hen": 734,
      "ge": 735,
      "ij": 736,
      "Ġ199": 737,
      "urika": 738,
      "orm": 739,
      "Ġfir": 740,
      "ary": 741,
      "ition": 742,
      "que": 743,
      "Ġndetse": 744,
      "Ġup": 745,
      "ini": 746,
      "rit": 747,
      "antu": 748,
      "amp": 749,
      "amo": 750,
      "ize": 751,
      "ati": 752,
      "eza": 753,
      "cl": 754,
      "ike": 755,
      "ost": 756,
      "Ġur": 757,
      "ance": 758,
      "ther": 759,
      "Ġnt": 760,
      "ld": 761,
      "ens": 762,
      "Ġad": 763,
      "ĠAn": 764,
      "Ġrw": 765,
      "pp": 766,
      "bora": 767,
      "ury": 768,
      "ations": 769,
      "omb": 770,
      "ĠMu": 771,
      "ats": 772,
      "oro": 773,
      "unt": 774,
      "Ġsur": 775,
      "ence": 776,
      "ĠAl": 777,
      "Ġpart": 778,
      "uza": 779,
      "ally": 780,
      "ace": 781,
      "Ġav": 782,
      "Ġmbere": 783,
      "utse": 784,
      "Ġplay": 785,
      "ign": 786,
      "Ġgo": 787,
      "ile": 788,
      "oll": 789,
      "ert": 790,
      "Ġthey": 791,
      "imwe": 792,
      "ra": 793,
      "Ġind": 794,
      "ase": 795,
      "Ġtheir": 796,
      "uba": 797,
      "abo": 798,
      "ĠTh": 799,
      "ake": 800,
      "Ġkur": 801,
      "atur": 802,
      "ĠThey": 803,
      "amb": 804,
      "ily": 805,
      "ons": 806,
      "yobo": 807,
      "ust": 808,
      "ork": 809,
      "uro": 810,
      "Ġic": 811,
      "Ġits": 812,
      "Ġus": 813,
      "waka": 814,
      "uryo": 815,
      "Ġpour": 816,
      "Ġcont": 817,
      "yaka": 818,
      "hed": 819,
      "anc": 820,
      "ĠIm": 821,
      "Ġall": 822,
      "..": 823,
      "ry": 824,
      "Ġhave": 825,
      "Ġres": 826,
      "erv": 827,
      "Ġ;": 828,
      "ĠdÃ©": 829,
      "iza": 830,
      "Ġque": 831,
      "ino": 832,
      "hobora": 833,
      "Ġ&": 834,
      "Ġtime": 835,
      "Ġrel": 836,
      "ank": 837,
      "iba": 838,
      "ikorwa": 839,
      "Ġaho": 840,
      "Ġout": 841,
      "inshi": 842,
      "Ġgus": 843,
      "Ġguh": 844,
      "Ġdis": 845,
      "Ġbak": 846,
      "ater": 847,
      "anduk": 848,
      "Ġhamwe": 849,
      "Ġsaid": 850,
      "Ġwho": 851,
      "res": 852,
      "ions": 853,
      "own": 854,
      "Ġhas": 855,
      "Ġcomm": 856,
      "Ġ6": 857,
      "yu": 858,
      "isi": 859,
      "Ġday": 860,
      "ick": 861,
      "Ġbat": 862,
      "ise": 863,
      "Ġah": 864,
      "ach": 865,
      "Ġmp": 866,
      "ree": 867,
      "ĠâĢĵ": 868,
      "Ġ18": 869,
      "ult": 870,
      "ĠIk": 871,
      "ali": 872,
      "erek": 873,
      "Ġinter": 874,
      "Ġcomp": 875,
      "ona": 876,
      "its": 877,
      "Ġing": 878,
      "duc": 879,
      "able": 880,
      "ga": 881,
      "ĠUn": 882,
      "der": 883,
      "ical": 884,
      "ade": 885,
      "Ġsho": 886,
      "ĠAb": 887,
      "ipe": 888,
      "oni": 889,
      "Ġish": 890,
      "ĠLe": 891,
      "ĠOn": 892,
      "erm": 893,
      "oresh": 894,
      "ail": 895,
      "Ġfirst": 896,
      "ije": 897,
      "Ġmub": 898,
      "imb": 899,
      "Ġdans": 900,
      "Ġnka": 901,
      "Ġbir": 902,
      "les": 903,
      "Ġyak": 904,
      "ureng": 905,
      "indi": 906,
      "Ġalso": 907,
      "Ġone": 908,
      "va": 909,
      "Ġbwo": 910,
      "Ġza": 911,
      "omm": 912,
      "Ġthis": 913,
      "Ġgihe": 914,
      "ange": 915,
      "yab": 916,
      "Ã©r": 917,
      "Ġro": 918,
      "Ġ7": 919,
      "Ġdo": 920,
      "ata": 921,
      "Ġif": 922,
      "Ġhim": 923,
      "Ġest": 924,
      "Ġba": 925,
      "uryango": 926,
      "Ġop": 927,
      "app": 928,
      "ahanga": 929,
      "act": 930,
      "ale": 931,
      "yobozi": 932,
      "Ġ8": 933,
      "Ġbag": 934,
      "Ġtwo": 935,
      "ew": 936,
      "ege": 937,
      "Ġhag": 938,
      "ff": 939,
      "way": 940,
      "Ġ%": 941,
      "ĠAr": 942,
      "arere": 943,
      "Ġbec": 944,
      "itt": 945,
      "uzima": 946,
      "anz": 947,
      "ĠAfurika": 948,
      "Ġmwaka": 949,
      "emp": 950,
      "Ġumw": 951,
      "inga": 952,
      "vel": 953,
      "Ġapp": 954,
      "irwa": 955,
      "araga": 956,
      "ĠMuri": 957,
      "yar": 958,
      "Ġoff": 959,
      "ery": 960,
      "form": 961,
      "inda": 962,
      "Ġfo": 963,
      "Ġmun": 964,
      "andukanye": 965,
      "ark": 966,
      "unga": 967,
      "igo": 968,
      "ited": 969,
      "Ġka": 970,
      "jwe": 971,
      "ely": 972,
      "000": 973,
      "Ġmet": 974,
      "ĠZ": 975,
      "Ġbyo": 976,
      "innyi": 977,
      "ĠIg": 978,
      "ory": 979,
      "inzwe": 980,
      "uring": 981,
      "Ġwould": 982,
      "),": 983,
      "Ġimp": 984,
      "ors": 985,
      "Ġyou": 986,
      "Ã©e": 987,
      "Ġbeen": 988,
      "wn": 989,
      "Ġme": 990,
      "ĠKuri": 991,
      "uj": 992,
      "Ġover": 993,
      "air": 994,
      "fo": 995,
      "ann": 996,
      "itÃ©": 997,
      "omo": 998,
      "ĠrÃ©": 999,
      "Ġthere": 1000,
      "Ġumuk": 1001,
      "ek": 1002,
      "amin": 1003,
      "land": 1004,
      "Ġ/": 1005,
      "ene": 1006,
      "Ġrwa": 1007,
      "Ġnew": 1008,
      "Ġpe": 1009,
      "Ġau": 1010,
      "urs": 1011,
      "ikije": 1012,
      "Ġ9": 1013,
      "ĠEn": 1014,
      "Ġngo": 1015,
      "Ġyat": 1016,
      "ongo": 1017,
      ").": 1018,
      "Ġcons": 1019,
      "ents": 1020,
      "ose": 1021,
      "Ġ198": 1022,
      "onn": 1023,
      "ier": 1024,
      "ou": 1025,
      "Ġiz": 1026,
      "uth": 1027,
      "Ġstr": 1028,
      "anzwe": 1029,
      "ember": 1030,
      "round": 1031,
      "ereza": 1032,
      "ings": 1033,
      "Ġrem": 1034,
      "Ġir": 1035,
      "Ġmuk": 1036,
      "iter": 1037,
      "ubl": 1038,
      "anwa": 1039,
      "Ġyari": 1040,
      "uyobozi": 1041,
      "Ġbik": 1042,
      "ock": 1043,
      "Ġkuba": 1044,
      "ward": 1045,
      "clud": 1046,
      "aro": 1047,
      "Ġpol": 1048,
      "gr": 1049,
      "Ġune": 1050,
      "Ġnyuma": 1051,
      "atu": 1052,
      "Ġlo": 1053,
      "uruzi": 1054,
      "Ġafter": 1055,
      "urn": 1056,
      "oh": 1057,
      "ian": 1058,
      "ĠAmer": 1059,
      "Ġ@.": 1060,
      "itwa": 1061,
      "asha": 1062,
      "ungu": 1063,
      "Ġper": 1064,
      "az": 1065,
      "wara": 1066,
      "Ġariko": 1067,
      "Ġte": 1068,
      "urik": 1069,
      "Ġ10": 1070,
      "Ġqui": 1071,
      "Ġgr": 1072,
      "Ġinto": 1073,
      "20": 1074,
      "fer": 1075,
      "ix": 1076,
      "Ġother": 1077,
      "abiri": 1078,
      "Ġpo": 1079,
      ",@": 1080,
      "Ġ@,@": 1081,
      "unda": 1082,
      "zuba": 1083,
      "Ġfin": 1084,
      "Ġyear": 1085,
      "Ġabo": 1086,
      "ĠUr": 1087,
      "ational": 1088,
      "use": 1089,
      "Ġfl": 1090,
      "Ġel": 1091,
      "cess": 1092,
      "igihugu": 1093,
      "Ġent": 1094,
      "arag": 1095,
      "Ġsuc": 1096,
      "ĠMar": 1097,
      "Ġthem": 1098,
      "umen": 1099,
      "Ġ@.@": 1100,
      "ates": 1101,
      "Ub": 1102,
      "ukikije": 1103,
      "Ġev": 1104,
      "urwa": 1105,
      "Ġcyo": 1106,
      "ev": 1107,
      "Ġcan": 1108,
      "idukikije": 1109,
      "inj": 1110,
      "Ġwhen": 1111,
      "ĠLily": 1112,
      "Ġfe": 1113,
      "ushy": 1114,
      "Ġbas": 1115,
      "isit": 1116,
      "ection": 1117,
      "Ġmil": 1118,
      "enshi": 1119,
      "Ġhagati": 1120,
      "Ġform": 1121,
      "amahanga": 1122,
      "ĠFr": 1123,
      "Ġmore": 1124,
      "iny": 1125,
      "Ġinclud": 1126,
      "Ġatt": 1127,
      "Ġsm": 1128,
      "Ġyag": 1129,
      "ied": 1130,
      "enc": 1131,
      "Ġwork": 1132,
      "old": 1133,
      "Ġakaba": 1134,
      "ique": 1135,
      "ute": 1136,
      "tern": 1137,
      "Ġmar": 1138,
      "ĠSh": 1139,
      "ait": 1140,
      "eta": 1141,
      "anze": 1142,
      "uzi": 1143,
      "ient": 1144,
      "ict": 1145,
      "atsi": 1146,
      "asi": 1147,
      "ins": 1148,
      "akuru": 1149,
      "Ġbar": 1150,
      "pt": 1151,
      "Ġmug": 1152,
      "ett": 1153,
      "Ġamash": 1154,
      "Ġwant": 1155,
      "angiye": 1156,
      "une": 1157,
      "ĠCo": 1158,
      "aturage": 1159,
      "ild": 1160,
      "Ġkugira": 1161,
      "ĠÃ©t": 1162,
      "oma": 1163,
      "Ġdec": 1164,
      "ss": 1165,
      "ita": 1166,
      "Ġmpuz": 1167,
      "ami": 1168,
      "'s": 1169,
      "ve": 1170,
      "Ġng": 1171,
      "ĠÂ": 1172,
      "hough": 1173,
      "Ġbet": 1174,
      "ereye": 1175,
      "Ġfilm": 1176,
      "omet": 1177,
      "Ġpos": 1178,
      "oresha": 1179,
      "Ġvery": 1180,
      "umw": 1181,
      "ĠNy": 1182,
      "Ġut": 1183,
      "iciro": 1184,
      "Ġ0": 1185,
      "aj": 1186,
      "oy": 1187,
      "Ġhar": 1188,
      "Ġ15": 1189,
      "Ġsup": 1190,
      "Ġsome": 1191,
      "Ġagain": 1192,
      "enga": 1193,
      "isha": 1194,
      "Ġkugeza": 1195,
      "ha": 1196,
      "Ġkuko": 1197,
      "oth": 1198,
      "Ġuru": 1199,
      "Ġcould": 1200,
      "aminuza": 1201,
      "Ã©t": 1202,
      "ĠBya": 1203,
      "Ġdid": 1204,
      "iga": 1205,
      "io": 1206,
      "Ġcar": 1207,
      "zwa": 1208,
      "ll": 1209,
      "Ġmin": 1210,
      "reat": 1211,
      "irango": 1212,
      "yamba": 1213,
      "Ġzi": 1214,
      "Ġcr": 1215,
      "ego": 1216,
      "Ġmaj": 1217,
      "Ġneza": 1218,
      "Ġsec": 1219,
      "ica": 1220,
      "als": 1221,
      "ision": 1222,
      "amag": 1223,
      "mo": 1224,
      "hes": 1225,
      "Ġkn": 1226,
      "ets": 1227,
      "ĠNew": 1228,
      "Ġmat": 1229,
      "Ġabout": 1230,
      "cr": 1231,
      "Ġbr": 1232,
      "Ġact": 1233,
      "irere": 1234,
      "usho": 1235,
      "ĠUg": 1236,
      "Ġrun": 1237,
      "egeko": 1238,
      "ittle": 1239,
      "Ġproduc": 1240,
      "enge": 1241,
      "de": 1242,
      "ete": 1243,
      "ikino": 1244,
      "Ã©es": 1245,
      "Ġback": 1246,
      "Ġmpuzamahanga": 1247,
      "Ġkuva": 1248,
      "Ġserv": 1249,
      "ais": 1250,
      "Ġonly": 1251,
      "Ġpas": 1252,
      "ĠCon": 1253,
      "zam": 1254,
      "Ġman": 1255,
      "my": 1256,
      "velop": 1257,
      "Ġret": 1258,
      "ink": 1259,
      "aire": 1260,
      "inzi": 1261,
      "Ġigihe": 1262,
      "Ġmade": 1263,
      "Ġsy": 1264,
      "Ġ197": 1265,
      "Ġug": 1266,
      "ode": 1267,
      "ey": 1268,
      "ific": 1269,
      "inc": 1270,
      "ĠIs": 1271,
      "Ġzo": 1272,
      "uto": 1273,
      "ambere": 1274,
      "Ġhapp": 1275,
      "anu": 1276,
      "co": 1277,
      "Ġpre": 1278,
      "ex": 1279,
      "ques": 1280,
      "Ġdr": 1281,
      "wego": 1282,
      "ĠCl": 1283,
      "ucuruzi": 1284,
      "rough": 1285,
      "ected": 1286,
      "ton": 1287,
      "ĠSo": 1288,
      "ubwo": 1289,
      "oko": 1290,
      "Ġkugirango": 1291,
      "enn": 1292,
      "ĠKu": 1293,
      "pos": 1294,
      "Ġimbere": 1295,
      "wanya": 1296,
      "ful": 1297,
      "iew": 1298,
      "Ġbl": 1299,
      "Ġcent": 1300,
      "Ġass": 1301,
      "enda": 1302,
      "Ġlittle": 1303,
      "ern": 1304,
      "Ġikipe": 1305,
      "Ġgro": 1306,
      "inze": 1307,
      "erwa": 1308,
      "umwe": 1309,
      "omeye": 1310,
      "els": 1311,
      "riend": 1312,
      "Ġrus": 1313,
      "ric": 1314,
      "ĠAt": 1315,
      "izi": 1316,
      "ĠKig": 1317,
      "orld": 1318,
      "ath": 1319,
      "Ġmom": 1320,
      "ĠOne": 1321,
      "fore": 1322,
      "Ġspec": 1323,
      "ako": 1324,
      "ollow": 1325,
      "pfo": 1326,
      "ongera": 1327,
      "Ġaux": 1328,
      "ican": 1329,
      "Ġchar": 1330,
      "orth": 1331,
      "Ġfriend": 1332,
      "Ġsub": 1333,
      "Ġ12": 1334,
      "Ġdir": 1335,
      "Ġih": 1336,
      "ays": 1337,
      "Ġmy": 1338,
      "ĠLa": 1339,
      "uze": 1340,
      "ĠPr": 1341,
      "ason": 1342,
      "Ġ17": 1343,
      "Ġpubl": 1344,
      "ants": 1345,
      "azi": 1346,
      "unc": 1347,
      "Ġburyo": 1348,
      "Ġfr": 1349,
      "Ãª": 1350,
      "Ġubu": 1351,
      "umenyi": 1352,
      "Ġwhile": 1353,
      "Ġou": 1354,
      "Ġumus": 1355,
      "ibazo": 1356,
      "Ġthan": 1357,
      "amed": 1358,
      "Ġreg": 1359,
      "ĠBr": 1360,
      "Ġgu": 1361,
      "ĠSc": 1362,
      "ween": 1363,
      "Ġend": 1364,
      "ĠAk": 1365,
      "Ġumun": 1366,
      "Ġiny": 1367,
      "iyo": 1368,
      "irimo": 1369,
      "Ġgame": 1370,
      "ts": 1371,
      "Ġce": 1372,
      "Ġthen": 1373,
      "untu": 1374,
      "Ab": 1375,
      "Ġyar": 1376,
      "aut": 1377,
      "Ġ11": 1378,
      "Ġbu": 1379,
      "Ġduring": 1380,
      "Ġfound": 1381,
      "Ġob": 1382,
      "Ġ196": 1383,
      "vutse": 1384,
      "ingo": 1385,
      "ph": 1386,
      "zer": 1387,
      "Ġear": 1388,
      "Ġsaw": 1389,
      "Ġfour": 1390,
      "vent": 1391,
      "irl": 1392,
      "ĠCan": 1393,
      "Ġpers": 1394,
      "Ġiyi": 1395,
      "Ġumukinnyi": 1396,
      "intu": 1397,
      "ĠTim": 1398,
      "orn": 1399,
      "ĠPar": 1400,
      "ashy": 1401,
      "Ġbeg": 1402,
      "ution": 1403,
      "omoka": 1404,
      "ered": 1405,
      "str": 1406,
      "ombe": 1407,
      "ames": 1408,
      "Ġbis": 1409,
      "Ġthree": 1410,
      "Ġhel": 1411,
      "ĠMin": 1412,
      "Ġkaminuza": 1413,
      "Ġloc": 1414,
      "anira": 1415,
      "ĠNi": 1416,
      "Ġ202": 1417,
      "ener": 1418,
      "asira": 1419,
      "ements": 1420,
      "mer": 1421,
      "Ġburi": 1422,
      "ters": 1423,
      "Ġkubera": 1424,
      "Ġuruh": 1425,
      "Ġbetween": 1426,
      "Ġhari": 1427,
      "Ġiyo": 1428,
      "Ġabantu": 1429,
      "Ġmost": 1430,
      "Ġplus": 1431,
      "ĠKigali": 1432,
      "Ġubwo": 1433,
      "afi": 1434,
      "Ġmov": 1435,
      "Ġhigh": 1436,
      "ida": 1437,
      "ative": 1438,
      "eb": 1439,
      "ten": 1440,
      "yp": 1441,
      "iel": 1442,
      "Ġwhere": 1443,
      "ĠQ": 1444,
      "Ġdif": 1445,
      "ived": 1446,
      "Ġ13": 1447,
      "ech": 1448,
      "Ġkum": 1449,
      "angira": 1450,
      "ĠIsh": 1451,
      "Ġdef": 1452,
      "vern": 1453,
      "ĠJoh": 1454,
      "Ġexp": 1455,
      "Ġtrans": 1456,
      "cc": 1457,
      "Ġgah": 1458,
      "Ã©c": 1459,
      "ley": 1460,
      "oban": 1461,
      "Ġinc": 1462,
      "Ġink": 1463,
      "ĠPro": 1464,
      "izina": 1465,
      "ĠThis": 1466,
      "Ġharimo": 1467,
      ".\"": 1468,
      "ct": 1469,
      "Ġsong": 1470,
      "Ġmus": 1471,
      "aranga": 1472,
      "ĠInd": 1473,
      "enya": 1474,
      "agore": 1475,
      "Ã¨re": 1476,
      "Ġmod": 1477,
      "ĠTr": 1478,
      "ĠComm": 1479,
      "anzira": 1480,
      "Ġcol": 1481,
      "Ġeff": 1482,
      "Ġbab": 1483,
      "Ġbefore": 1484,
      "gan": 1485,
      "Ġimyaka": 1486,
      "bum": 1487,
      "ĠUk": 1488,
      "Ġ16": 1489,
      "elle": 1490,
      "ship": 1491,
      "Ġlook": 1492,
      "Ġlater": 1493,
      "Ġmon": 1494,
      "ĠAfr": 1495,
      "ande": 1496,
      "oci": 1497,
      "Ġacc": 1498,
      "owe": 1499,
      "ished": 1500,
      "urenganzira": 1501,
      "ject": 1502,
      "ased": 1503,
      "Ġfollow": 1504,
      "Ġstart": 1505,
      "Ã©n": 1506,
      "Ġshow": 1507,
      "Ġcall": 1508,
      "Ġyab": 1509,
      "iyona": 1510,
      "Ġrele": 1511,
      "utaka": 1512,
      "Ġbuk": 1513,
      "Ġcap": 1514,
      "yak": 1515,
      "Ġins": 1516,
      "ivers": 1517,
      "ampiyona": 1518,
      "ongereza": 1519,
      "ause": 1520,
      "uguru": 1521,
      "Ġbah": 1522,
      "undi": 1523,
      "ating": 1524,
      "Ġgihugu": 1525,
      "Ġhelp": 1526,
      "ĠRo": 1527,
      "Ġused": 1528,
      "Ġlong": 1529,
      "ular": 1530,
      "aruka": 1531,
      "very": 1532,
      "ics": 1533,
      "'t": 1534,
      "Ġimy": 1535,
      "Ġmetero": 1536,
      "Ġisi": 1537,
      "olog": 1538,
      "ĠGr": 1539,
      "Ġinv": 1540,
      "Ġadd": 1541,
      "fl": 1542,
      "ible": 1543,
      "Ġlike": 1544,
      "ada": 1545,
      "ures": 1546,
      "urasira": 1547,
      "Ġtro": 1548,
      "ĠAs": 1549,
      "Ġmake": 1550,
      "ĠAd": 1551,
      "Ġhappy": 1552,
      "Ġunder": 1553,
      "urasirazuba": 1554,
      "Ġaround": 1555,
      "Ġ000": 1556,
      "Ġany": 1557,
      "ĠUganda": 1558,
      "YA": 1559,
      "ĠIc": 1560,
      "ĠSp": 1561,
      "ted": 1562,
      "Ġafite": 1563,
      "Ġimb": 1564,
      "hy": 1565,
      "ien": 1566,
      "Ġ=": 1567,
      "eny": 1568,
      "Ġwar": 1569,
      "afite": 1570,
      "Ġdown": 1571,
      "Ġmum": 1572,
      "Ġ14": 1573,
      "angiza": 1574,
      "yanye": 1575,
      "ĠRep": 1576,
      "Ġgusa": 1577,
      "ided": 1578,
      "Ġsecond": 1579,
      "get": 1580,
      "ained": 1581,
      "tre": 1582,
      "baye": 1583,
      "au": 1584,
      "Ġcontr": 1585,
      "ĠJohn": 1586,
      "abanya": 1587,
      "Ġbeing": 1588,
      "Ġfilime": 1589,
      "ission": 1590,
      "xt": 1591,
      "Ġprov": 1592,
      "Ġkabiri": 1593,
      "Ġnumb": 1594,
      "Ġnib": 1595,
      "ower": 1596,
      "endo": 1597,
      "Ġsuch": 1598,
      "Ġkimwe": 1599,
      "Ġgit": 1600,
      "Ġyash": 1601,
      "ĠBy": 1602,
      "att": 1603,
      "imp": 1604,
      "ual": 1605,
      "Ġcre": 1606,
      "ĠBut": 1607,
      "ushanwa": 1608,
      "ident": 1609,
      "Ġalbum": 1610,
      "Ġbyinshi": 1611,
      "Ġrusange": 1612,
      "ubiri": 1613,
      "aragara": 1614,
      "ession": 1615,
      "Ġrecord": 1616,
      "ette": 1617,
      "uhanga": 1618,
      "Ġresp": 1619,
      "Ġaut": 1620,
      "Ġrwo": 1621,
      "Ġzit": 1622,
      "ines": 1623,
      "ategeko": 1624,
      "Ġupon": 1625,
      "ious": 1626,
      "...": 1627,
      "ĠBur": 1628,
      "upira": 1629,
      "Ġseri": 1630,
      "agar": 1631,
      "Ã©ri": 1632,
      "other": 1633,
      "Ġ30": 1634,
      "Ġep": 1635,
      "Ġlar": 1636,
      "ijwe": 1637,
      "amu": 1638,
      "ato": 1639,
      "imi": 1640,
      "ince": 1641,
      "Ġmain": 1642,
      "Ġumut": 1643,
      "ĠEl": 1644,
      "ft": 1645,
      "Ġicy": 1646,
      "anzi": 1647,
      "ked": 1648,
      "Ġprogr": 1649,
      "Ġ100": 1650,
      "Ġthrough": 1651,
      "Ġteam": 1652,
      "Ġuruhare": 1653,
      "ives": 1654,
      "Ġbro": 1655,
      "Ġgahunda": 1656,
      "Ġconc": 1657,
      "itse": 1658,
      "Ġlov": 1659,
      "amaguru": 1660,
      "ax": 1661,
      "elt": 1662,
      "ushak": 1663,
      "ena": 1664,
      "ĠOnce": 1665,
      "iver": 1666,
      "Ġmo": 1667,
      "Ġmukuru": 1668,
      "ayi": 1669,
      "urr": 1670,
      "Ġnamed": 1671,
      "unze": 1672,
      "Ġumwe": 1673,
      "Ġseason": 1674,
      "ues": 1675,
      "Ġdem": 1676,
      "ĠBen": 1677,
      "Ġ2012": 1678,
      "gl": 1679,
      "ĠBl": 1680,
      "ull": 1681,
      "19": 1682,
      "Ġwanted": 1683,
      "mbo": 1684,
      "elf": 1685,
      "Ġpass": 1686,
      "Ġbib": 1687,
      "istr": 1688,
      "Ġpolit": 1689,
      "anj": 1690,
      "Ġwill": 1691,
      "ezi": 1692,
      "ven": 1693,
      "Ġmany": 1694,
      "uhinzi": 1695,
      "ĠAfter": 1696,
      "oir": 1697,
      "ori": 1698,
      "Ġye": 1699,
      "ĠLeta": 1700,
      "Ġgirl": 1701,
      "ashatsi": 1702,
      "Ġwent": 1703,
      "afaranga": 1704,
      "ouse": 1705,
      "Ġtw": 1706,
      "ema": 1707,
      "Ġ194": 1708,
      "aw": 1709,
      "aux": 1710,
      "ope": 1711,
      "Ġ25": 1712,
      "Ġcontin": 1713,
      "fite": 1714,
      "jya": 1715,
      "man": 1716,
      "Ġmill": 1717,
      "Ġsl": 1718,
      "Ġnab": 1719,
      "Ġmunsi": 1720,
      "erg": 1721,
      "icy": 1722,
      "ustr": 1723,
      "ept": 1724,
      "ĠUnited": 1725,
      "Ġwhat": 1726,
      "Ġpres": 1727,
      "Ġyears": 1728,
      "Ġsont": 1729,
      "Ġpartic": 1730,
      "Ġ2010": 1731,
      "Ġrwego": 1732,
      "Ġgukora": 1733,
      "zerano": 1734,
      "juru": 1735,
      "zwi": 1736,
      "ĠWh": 1737,
      "Ġbin": 1738,
      "ains": 1739,
      "Ġpop": 1740,
      "ores": 1741,
      "to": 1742,
      "erezo": 1743,
      "Ġsign": 1744,
      "ishy": 1745,
      "aze": 1746,
      "Ġopen": 1747,
      "Ã¨s": 1748,
      "Ġsing": 1749,
      "erc": 1750,
      "Ġil": 1751,
      "Ġboth": 1752,
      "ifite": 1753,
      "son": 1754,
      "ĠDe": 1755,
      "Ġfam": 1756,
      "ĠâĢĶ": 1757,
      "Ġbecame": 1758,
      "ales": 1759,
      "ubuk": 1760,
      "ife": 1761,
      "ĠNyuma": 1762,
      "til": 1763,
      "amash": 1764,
      "ille": 1765,
      "Ġ195": 1766,
      "uco": 1767,
      "innye": 1768,
      "Ġmiliy": 1769,
      "ield": 1770,
      "ozi": 1771,
      "hing": 1772,
      "Ġkin": 1773,
      "anza": 1774,
      "ĠLes": 1775,
      "ism": 1776,
      "iyaga": 1777,
      "Ġizina": 1778,
      "umug": 1779,
      "Ġgroup": 1780,
      "abl": 1781,
      "Ġkig": 1782,
      "Ġmur": 1783,
      "ours": 1784,
      "umuk": 1785,
      "ĠOYA": 1786,
      "Ġguf": 1787,
      "yaruguru": 1788,
      "ĠBrit": 1789,
      "erekana": 1790,
      "igiti": 1791,
      "ĠCom": 1792,
      "Ġcompl": 1793,
      "Ġid": 1794,
      "Ġ2008": 1795,
      "ambo": 1796,
      "ages": 1797,
      "Ġsyst": 1798,
      "Ġbus": 1799,
      "Ġbih": 1800,
      "Ġwrit": 1801,
      "ĠJe": 1802,
      "Ġibyo": 1803,
      "anyi": 1804,
      "Ġzik": 1805,
      "Ġ2013": 1806,
      "Ġgik": 1807,
      "Ġyav": 1808,
      "ungo": 1809,
      "ument": 1810,
      "Ġap": 1811,
      "ather": 1812,
      "Ã©d": 1813,
      "eme": 1814,
      "Ġ$": 1815,
      "Ġann": 1816,
      "ared": 1817,
      "asezerano": 1818,
      "ĠCol": 1819,
      "owever": 1820,
      "Ġser": 1821,
      "Ġpoint": 1822,
      "Ġnumber": 1823,
      "ars": 1824,
      "Ã©g": 1825,
      "tions": 1826,
      "Ġavec": 1827,
      "anki": 1828,
      "ushakashatsi": 1829,
      "ico": 1830,
      "Ġubw": 1831,
      "yepfo": 1832,
      "aking": 1833,
      "ungab": 1834,
      "Ġifite": 1835,
      "Ġ2014": 1836,
      "Ġtrav": 1837,
      "Ġrug": 1838,
      "Ġepis": 1839,
      "anama": 1840,
      "aha": 1841,
      "by": 1842,
      "uwe": 1843,
      "ujyi": 1844,
      "Ã©l": 1845,
      "Ġthough": 1846,
      "ities": 1847,
      "ĠUS": 1848,
      "Ġdirect": 1849,
      "ices": 1850,
      "oreshwa": 1851,
      "sp": 1852,
      "Ġlead": 1853,
      "inal": 1854,
      "ĠFil": 1855,
      "arr": 1856,
      "Ġagainst": 1857,
      "Um": 1858,
      "ces": 1859,
      "che": 1860,
      "anyo": 1861,
      "Ġinst": 1862,
      "Ġdevelop": 1863,
      "Ġgush": 1864,
      "Ġ2011": 1865,
      "Ġibidukikije": 1866,
      "rap": 1867,
      "Ġem": 1868,
      "ony": 1869,
      "umun": 1870,
      "Ġcharac": 1871,
      "uck": 1872,
      "esho": 1873,
      "ĠTom": 1874,
      "Ġuntil": 1875,
      "Ġhafi": 1876,
      "ĠIh": 1877,
      "ried": 1878,
      "Ġincluding": 1879,
      "ys": 1880,
      "Ġ2009": 1881,
      "izwe": 1882,
      "Ġship": 1883,
      "ĠBe": 1884,
      "ĠAnd": 1885,
      "Ġkwa": 1886,
      "aruro": 1887,
      "Ġuse": 1888,
      "Ġnyinshi": 1889,
      "Ġkm": 1890,
      "Ġwell": 1891,
      "Ġyam": 1892,
      "ĠIr": 1893,
      "Ġamazi": 1894,
      "ople": 1895,
      "veral": 1896,
      "angir": 1897,
      "zu": 1898,
      "Ġair": 1899,
      "ĠFor": 1900,
      "Ġ2019": 1901,
      "Ġmag": 1902,
      "ijyanye": 1903,
      "Ġperform": 1904,
      "ĠKam": 1905,
      "Ġ2015": 1906,
      "ĠAmerika": 1907,
      "Ġzig": 1908,
      "erez": 1909,
      "ĠKub": 1910,
      "Ġhome": 1911,
      "ese": 1912,
      "amba": 1913,
      "Ġumug": 1914,
      "ĠPl": 1915,
      "Ġart": 1916,
      "enzi": 1917,
      "Ġkil": 1918,
      "ĠAg": 1919,
      "ukiye": 1920,
      "aso": 1921,
      "Ġsu": 1922,
      "onde": 1923,
      "Ġ2007": 1924,
      "Ġtook": 1925,
      "ikoresho": 1926,
      "Ġrev": 1927,
      "ĠAll": 1928,
      "abwa": 1929,
      "ĠYou": 1930,
      "Ġcalled": 1931,
      "urengera": 1932,
      "fic": 1933,
      "ved": 1934,
      "Ġjust": 1935,
      "ĠSe": 1936,
      "Ġson": 1937,
      "Ġtoo": 1938,
      "hol": 1939,
      "ĠId": 1940,
      "Ġsel": 1941,
      "ĠMut": 1942,
      "ishing": 1943,
      "aragaza": 1944,
      "In": 1945,
      "be": 1946,
      "Ġiby": 1947,
      "ued": 1948,
      "Ġwind": 1949,
      "ball": 1950,
      "Ġcro": 1951,
      "hool": 1952,
      "ishanga": 1953,
      "elles": 1954,
      "Ġappear": 1955,
      "Ġdro": 1956,
      "ĠNa": 1957,
      "!\"": 1958,
      "inyab": 1959,
      "Ġkarere": 1960,
      "Ġuburyo": 1961,
      "oza": 1962,
      "Ġexpl": 1963,
      "uva": 1964,
      "furika": 1965,
      "Ġsomet": 1966,
      "Ġlist": 1967,
      "ĠGu": 1968,
      "itions": 1969,
      "Ġcommun": 1970,
      "ondo": 1971,
      "Ġown": 1972,
      "ateka": 1973,
      "Ġorig": 1974,
      "Ġmyaka": 1975,
      "Ġrap": 1976,
      "Ġfelt": 1977,
      "imbo": 1978,
      "Ġseries": 1979,
      "ĠCy": 1980,
      "Ġ2016": 1981,
      "Ġknown": 1982,
      "vura": 1983,
      "per": 1984,
      "Ġwat": 1985,
      "Ġrest": 1986,
      "ingwa": 1987,
      "ized": 1988,
      "Ġnear": 1989,
      "ually": 1990,
      "Ġfirime": 1991,
      "Ġprogram": 1992,
      "eye": 1993,
      "arn": 1994,
      "ĠIyi": 1995,
      "ences": 1996,
      "ood": 1997,
      "aranira": 1998,
      "Ġbug": 1999,
      "Ġbecause": 2000,
      "uta": 2001,
      "Ġibit": 2002,
      "itek": 2003,
      "wards": 2004,
      "Am": 2005,
      "Ġcare": 2006,
      "ubw": 2007,
      "Ġprot": 2008,
      "Ġicyo": 2009,
      "iterere": 2010,
      "Ġgushy": 2011,
      "Ġeach": 2012,
      "Ġont": 2013,
      "urengerazuba": 2014,
      "ison": 2015,
      "Ġarr": 2016,
      "Ib": 2017,
      "Ġche": 2018,
      "ishya": 2019,
      "ator": 2020,
      "Ġstud": 2021,
      "Ġhejuru": 2022,
      "Ġold": 2023,
      "omba": 2024,
      "Ġ2018": 2025,
      "ansa": 2026,
      "Ġepisode": 2027,
      "rist": 2028,
      "Ġbari": 2029,
      "Ġje": 2030,
      "ĠKug": 2031,
      "iam": 2032,
      "vu": 2033,
      "zira": 2034,
      "uruk": 2035,
      "Ġiki": 2036,
      "obwa": 2037,
      "Ġreturn": 2038,
      "Ġdoc": 2039,
      "ashobora": 2040,
      "ined": 2041,
      "ĠFl": 2042,
      "ĠIng": 2043,
      "ugendo": 2044,
      "Ġbegan": 2045,
      "ĠMay": 2046,
      "Ġevery": 2047,
      "Ġimport": 2048,
      "ĠÃ©tÃ©": 2049,
      "Ã´": 2050,
      "Ġmuch": 2051,
      "Ġbihugu": 2052,
      "Ġuko": 2053,
      "igan": 2054,
      "indag": 2055,
      "Ġcoll": 2056,
      "Ġmemb": 2057,
      "ke": 2058,
      "ped": 2059,
      "aires": 2060,
      "onom": 2061,
      "esp": 2062,
      "uti": 2063,
      "Ġ2017": 2064,
      "Ġvo": 2065,
      "Ġconsid": 2066,
      "min": 2067,
      "imes": 2068,
      "Ġmusic": 2069,
      "Ġbenshi": 2070,
      "Ġuh": 2071,
      "Ġ21": 2072,
      "wiza": 2073,
      "Ġsmall": 2074,
      "Ġsit": 2075,
      "Ġhand": 2076,
      "Ġfriends": 2077,
      "Ġ2006": 2078,
      "Ġrece": 2079,
      "Ġbur": 2080,
      "ĠAmerican": 2081,
      "Ġfun": 2082,
      "ĠWhen": 2083,
      "Ġpublic": 2084,
      "Ġ24": 2085,
      "aving": 2086,
      "Ġsee": 2087,
      "Ġprom": 2088,
      "Ġgat": 2089,
      "Ġ193": 2090,
      "tu": 2091,
      "SI": 2092,
      "ateg": 2093,
      "Ġubuk": 2094,
      "Ġseveral": 2095,
      "anyuma": 2096,
      "ungabunga": 2097,
      "ĠMo": 2098,
      "ĠWorld": 2099,
      "alk": 2100,
      "aransa": 2101,
      "Ġcame": 2102,
      "Ġorgan": 2103,
      "Ġbitandukanye": 2104,
      "arama": 2105,
      "Ġpeople": 2106,
      "Ġtel": 2107,
      "ugg": 2108,
      "hout": 2109,
      "ĠRe": 2110,
      "ĠKenya": 2111,
      "imyaka": 2112,
      "AR": 2113,
      "oreshe": 2114,
      "ĠOl": 2115,
      "ĠâĢľ": 2116,
      "Ġmiliyoni": 2117,
      "ikirere": 2118,
      "ĠIl": 2119,
      "Ġset": 2120,
      "anab": 2121,
      "osiy": 2122,
      "Ġrimwe": 2123,
      "ature": 2124,
      "Ġbikorwa": 2125,
      "uby": 2126,
      "ĠMinisit": 2127,
      "err": 2128,
      "Ġcho": 2129,
      "Ġfind": 2130,
      "Ġname": 2131,
      "itÃ©s": 2132,
      "Ġmb": 2133,
      "ense": 2134,
      "Ġport": 2135,
      "ĠII": 2136,
      "ĠDr": 2137,
      "ĠFC": 2138,
      "ĠOr": 2139,
      "Ġumwuga": 2140,
      "ĠCanada": 2141,
      "ĠBritish": 2142,
      "wand": 2143,
      "ently": 2144,
      "Ġibikorwa": 2145,
      "led": 2146,
      "ired": 2147,
      "Ġbel": 2148,
      "reen": 2149,
      "Ġdesign": 2150,
      "ubucuruzi": 2151,
      "jana": 2152,
      "mes": 2153,
      "though": 2154,
      "Ġdep": 2155,
      "Ġintern": 2156,
      "Ġiri": 2157,
      "Ġhak": 2158,
      "Ġmay": 2159,
      "Ġconf": 2160,
      "Ġshampiyona": 2161,
      "Ġplayed": 2162,
      "Ġearly": 2163,
      "Ġocc": 2164,
      "Ġappro": 2165,
      "Ġvers": 2166,
      "osiyete": 2167,
      "ĠX": 2168,
      "ĠMus": 2169,
      "ĠWe": 2170,
      "abaye": 2171,
      "Ġposs": 2172,
      "ariye": 2173,
      "Ġplace": 2174,
      "Ġsupport": 2175,
      "verin": 2176,
      "Ġsame": 2177,
      "ots": 2178,
      "Ġbook": 2179,
      "Ġaba": 2180,
      "Ã©sent": 2181,
      "onc": 2182,
      "iraho": 2183,
      "ĠCar": 2184,
      "Ã¢": 2185,
      "Ġstarted": 2186,
      "Ġukomoka": 2187,
      "anijwe": 2188,
      "Ġbafite": 2189,
      "crib": 2190,
      "Ġyah": 2191,
      "Ġhead": 2192,
      "erezida": 2193,
      "par": 2194,
      "Ġgood": 2195,
      "struc": 2196,
      "Ġ2005": 2197,
      "Ġmaze": 2198,
      "orwa": 2199,
      "Ġ2000": 2200,
      "Ġyats": 2201,
      "ulika": 2202,
      "ĠYork": 2203,
      "Ġamah": 2204,
      "Ġukina": 2205,
      "isation": 2206,
      "Ġaway": 2207,
      "side": 2208,
      "Ġed": 2209,
      "omeza": 2210,
      "abi": 2211,
      "Ġruk": 2212,
      "iled": 2213,
      "ĠEm": 2214,
      "Ġthese": 2215,
      "cept": 2216,
      "Ġmillion": 2217,
      "aining": 2218,
      "ĠRepub": 2219,
      "oneka": 2220,
      "ĠInt": 2221,
      "Ġalong": 2222,
      "Ġrepr": 2223,
      "Ġred": 2224,
      "aced": 2225,
      "kira": 2226,
      "Ã§": 2227,
      "yizwe": 2228,
      "ote": 2229,
      "âĢĿ": 2230,
      "ĠNt": 2231,
      "ĠEd": 2232,
      "Ġoffic": 2233,
      "Ġ2020": 2234,
      "itekerezo": 2235,
      "Ġaka": 2236,
      "Ġtoget": 2237,
      "Ġasked": 2238,
      "Ġsystem": 2239,
      "Ġtogether": 2240,
      "ĠGerm": 2241,
      "ai": 2242,
      "umbi": 2243,
      "Ġyose": 2244,
      "Ġrequ": 2245,
      "Ġreleased": 2246,
      "Ġ2004": 2247,
      "ises": 2248,
      "Ġumuyobozi": 2249,
      "ishinzwe": 2250,
      "obe": 2251,
      "Ġguc": 2252,
      "Ġ23": 2253,
      "ĠKuva": 2254,
      "ĠGe": 2255,
      "ushobo": 2256,
      "ital": 2257,
      "ĠPol": 2258,
      "Ġahantu": 2259,
      "ists": 2260,
      "inyam": 2261,
      "Ġband": 2262,
      "Ġgener": 2263,
      "Ġvous": 2264,
      "iques": 2265,
      "ihindag": 2266,
      "aciro": 2267,
      "ances": 2268,
      "inyabuzima": 2269,
      "ĠBo": 2270,
      "amazi": 2271,
      "Ġtyp": 2272,
      "Ġfile": 2273,
      "Ġ50": 2274,
      "hel": 2275,
      "ird": 2276,
      "umwa": 2277,
      "Ġyabaye": 2278,
      "Ġamas": 2279,
      "Ġmikino": 2280,
      "Ġcour": 2281,
      "Ġyub": 2282,
      "ĠUmus": 2283,
      "insi": 2284,
      "Ġuyu": 2285,
      "ĠKing": 2286,
      "Ġmen": 2287,
      "umuryango": 2288,
      "Ġyas": 2289,
      "Ġvari": 2290,
      "ĠSept": 2291,
      "ĠNo": 2292,
      "Ġbuild": 2293,
      "ctob": 2294,
      "erer": 2295,
      "eriya": 2296,
      "Ġcrit": 2297,
      "osh": 2298,
      "Ġsuccess": 2299,
      "Ġland": 2300,
      "eter": 2301,
      "ĠDem": 2302,
      "stit": 2303,
      "Ġtit": 2304,
      "uny": 2305,
      "Ġindwara": 2306,
      "ikoresh": 2307,
      "Ġloved": 2308,
      "na": 2309,
      "Ġbav": 2310,
      "ague": 2311,
      "ibere": 2312,
      "ified": 2313,
      "YE": 2314,
      "yeme": 2315,
      "ĠRepubulika": 2316,
      "ron": 2317,
      "ĠTo": 2318,
      "verinoma": 2319,
      "ium": 2320,
      "iÃ¨": 2321,
      "Ġattack": 2322,
      "ty": 2323,
      "Ġcert": 2324,
      "Ġhist": 2325,
      "ĠIny": 2326,
      "Ġdel": 2327,
      "Ġrad": 2328,
      "utes": 2329,
      "Ġdiffer": 2330,
      "Ġput": 2331,
      "yuze": 2332,
      "Ġtur": 2333,
      "abwo": 2334,
      "Ġoper": 2335,
      "Ġbyose": 2336,
      "Ġtake": 2337,
      "ised": 2338,
      "Ġeven": 2339,
      "Ġ22": 2340,
      "Ġdev": 2341,
      "Ġclass": 2342,
      "Ġmir": 2343,
      "induka": 2344,
      "echn": 2345,
      "imy": 2346,
      "ĠJul": 2347,
      "umba": 2348,
      "iriye": 2349,
      "ushyu": 2350,
      "Ġnta": 2351,
      "Ġwater": 2352,
      "ĠBro": 2353,
      "irah": 2354,
      "Ġurug": 2355,
      "val": 2356,
      "Ġbre": 2357,
      "ended": 2358,
      "Ġgovern": 2359,
      "ushyuhe": 2360,
      "ma": 2361,
      "Ġprob": 2362,
      "Ġrut": 2363,
      "usi": 2364,
      "abil": 2365,
      "oss": 2366,
      "Ġpark": 2367,
      "Ġnorth": 2368,
      "abane": 2369,
      "ĠKongo": 2370,
      "ala": 2371,
      "Ġumuh": 2372,
      "Ġimwe": 2373,
      "ĠSeptember": 2374,
      "Ġbiv": 2375,
      "uruzwa": 2376,
      "urikire": 2377,
      "Ġrep": 2378,
      "Ġdiv": 2379,
      "Ġyako": 2380,
      "ĠCent": 2381,
      "Ġdescrib": 2382,
      "ufu": 2383,
      "oint": 2384,
      "ĠMc": 2385,
      "Ġresult": 2386,
      "itsi": 2387,
      "ibereho": 2388,
      "hoze": 2389,
      "Ġsk": 2390,
      "used": 2391,
      "Ġiter": 2392,
      "atangiye": 2393,
      "amyab": 2394,
      "enz": 2395,
      "Ġworld": 2396,
      "Ġleft": 2397,
      "bereye": 2398,
      "Ġfollowing": 2399,
      "Ġca": 2400,
      "imba": 2401,
      "ĠAug": 2402,
      "umi": 2403,
      "ĠEx": 2404,
      "Ġyatangiye": 2405,
      "ĠStates": 2406,
      "Ġkuv": 2407,
      "ĠAustr": 2408,
      "Ġcontro": 2409,
      "Ġeng": 2410,
      "med": 2411,
      "orera": 2412,
      "Ġ2003": 2413,
      "Ġway": 2414,
      "Ġkubungabunga": 2415,
      "ihindagurikire": 2416,
      "ĠPh": 2417,
      "Ġeffect": 2418,
      "angije": 2419,
      "Ġstill": 2420,
      "emo": 2421,
      "estion": 2422,
      "arazi": 2423,
      "Ġnow": 2424,
      "orp": 2425,
      "Ġvis": 2426,
      "urira": 2427,
      "Ġnon": 2428,
      "ored": 2429,
      "ĠJack": 2430,
      "Ġweek": 2431,
      "Ġwit": 2432,
      "hot": 2433,
      "ways": 2434,
      "fa": 2435,
      "ĠSte": 2436,
      "Ġkuz": 2437,
      "Ġbite": 2438,
      "ikombe": 2439,
      "ili": 2440,
      "ĠÃª": 2441,
      "Ġingaruka": 2442,
      "Ġturn": 2443,
      "Ġshould": 2444,
      "Ġcharacter": 2445,
      "Ġget": 2446,
      "Ġuburenganzira": 2447,
      "aniya": 2448,
      "Ġboy": 2449,
      "jyi": 2450,
      "ĠAugust": 2451,
      "200": 2452,
      "Ġcat": 2453,
      "iving": 2454,
      "Ġstate": 2455,
      "ĠEur": 2456,
      "Ġmw": 2457,
      "ito": 2458,
      "abantu": 2459,
      "ushobozi": 2460,
      "ady": 2461,
      "ĠRus": 2462,
      "ape": 2463,
      "Ġreport": 2464,
      "anyarazi": 2465,
      "imeny": 2466,
      "Ġprof": 2467,
      "Ġlast": 2468,
      "ulation": 2469,
      "indiye": 2470,
      "uis": 2471,
      "Ġant": 2472,
      "Ġlik": 2473,
      "Ġnous": 2474,
      "Ġyakinnye": 2475,
      "iqu": 2476,
      "isho": 2477,
      "abaturage": 2478,
      "Ġarea": 2479,
      "onye": 2480,
      "ĠHis": 2481,
      "Ġumusaruro": 2482,
      "uruka": 2483,
      "Ġperm": 2484,
      "olution": 2485,
      "ushinga": 2486,
      "red": 2487,
      "ĠDec": 2488,
      "Ġigihugu": 2489,
      "Ġ2021": 2490,
      "ench": 2491,
      "Ġdet": 2492,
      "Ġhum": 2493,
      "Ġ26": 2494,
      "urezi": 2495,
      "bur": 2496,
      "Ġbest": 2497,
      "erar": 2498,
      "ott": 2499,
      "Ġyour": 2500,
      "ĠApr": 2501,
      "ĠNk": 2502,
      "itamo": 2503,
      "Ġinsh": 2504,
      "Ġyaje": 2505,
      "Ġgutera": 2506,
      "Ġmuntu": 2507,
      "anabuhanga": 2508,
      "ger": 2509,
      "ĠTimmy": 2510,
      "Ġgl": 2511,
      "ĠHar": 2512,
      "Ġibih": 2513,
      "ĠOctob": 2514,
      "Ġabaturage": 2515,
      "Ġfeatur": 2516,
      "abu": 2517,
      "aft": 2518,
      "Ġ?": 2519,
      "Ġ27": 2520,
      "Ġumur": 2521,
      "Ġmugihe": 2522,
      "ui": 2523,
      "ĠWar": 2524,
      "DO": 2525,
      "Ġsix": 2526,
      "Ġsince": 2527,
      "Ġkar": 2528,
      "urikir": 2529,
      "Ġkugera": 2530,
      "Ġfamily": 2531,
      "erarugendo": 2532,
      "ĠOctober": 2533,
      "Ġyinj": 2534,
      "Ġ1994": 2535,
      "Ġseriv": 2536,
      "Ġtemp": 2537,
      "ister": 2538,
      "Ġline": 2539,
      "ĠNov": 2540,
      "uct": 2541,
      "Ġcommand": 2542,
      "Ġkir": 2543,
      "Ġsomething": 2544,
      "ule": 2545,
      "arwanda": 2546,
      "Ġlooked": 2547,
      "ĠSud": 2548,
      "ĠWill": 2549,
      "Ġexc": 2550,
      "ney": 2551,
      "Ġplaying": 2552,
      "Ġallow": 2553,
      "ĠNyak": 2554,
      "Ġentre": 2555,
      "Ġchild": 2556,
      "irimbo": 2557,
      "Ġyerek": 2558,
      "ibindi": 2559,
      "ĠGic": 2560,
      "Ġamab": 2561,
      "Ġsim": 2562,
      "ebr": 2563,
      "\".": 2564,
      "yek": 2565,
      "ĠHer": 2566,
      "aine": 2567,
      "Ġorder": 2568,
      "ĠMuk": 2569,
      "ibwa": 2570,
      "Ġnext": 2571,
      "Ġext": 2572,
      "Ġmajor": 2573,
      "ication": 2574,
      "Ġanim": 2575,
      "ĠQu": 2576,
      "Ġpolitiki": 2577,
      "Ġiterambere": 2578,
      "eru": 2579,
      "Ġush": 2580,
      "Ġmas": 2581,
      "Ġkib": 2582,
      "ĠJune": 2583,
      "Ġgutanga": 2584,
      "Ġamashyamba": 2585,
      "Ġterm": 2586,
      "amas": 2587,
      "umye": 2588,
      "aint": 2589,
      "urenge": 2590,
      "Ġdecided": 2591,
      "Ġperson": 2592,
      "ately": 2593,
      "Ġran": 2594,
      "ĠChrist": 2595,
      "Ġmed": 2596,
      "Ġval": 2597,
      "Ġball": 2598,
      "Ġhouse": 2599,
      "Ġ191": 2600,
      "ubare": 2601,
      "ĠÂ«": 2602,
      "den": 2603,
      "ibut": 2604,
      "Ġneed": 2605,
      "Ġdist": 2606,
      "Ġud": 2607,
      "ĠNz": 2608,
      "iversity": 2609,
      "Ġtho": 2610,
      "Ġhow": 2611,
      "ĠHowever": 2612,
      "ior": 2613,
      "Ġris": 2614,
      "Ġamafaranga": 2615,
      "aragaye": 2616,
      "Ġgis": 2617,
      "ĠSam": 2618,
      "ĠIntern": 2619,
      "amyabumenyi": 2620,
      "ĠMad": 2621,
      "idge": 2622,
      "Ġrepl": 2623,
      "ĠImp": 2624,
      "ommy": 2625,
      "icuruzwa": 2626,
      "umut": 2627,
      "ibanze": 2628,
      "ival": 2629,
      "ording": 2630,
      "Ġ40": 2631,
      "ĠAng": 2632,
      "du": 2633,
      "urwe": 2634,
      "eze": 2635,
      "ota": 2636,
      "umbuye": 2637,
      "ĠApril": 2638,
      "iers": 2639,
      "Ġright": 2640,
      "abana": 2641,
      "ĠMutarama": 2642,
      "ĠÃªtre": 2643,
      "ides": 2644,
      "Ġruh": 2645,
      "ĠGuk": 2646,
      "Ġumuntu": 2647,
      "Ġbif": 2648,
      "Ġleta": 2649,
      "Ġreal": 2650,
      "âĤ": 2651,
      "iment": 2652,
      "uch": 2653,
      "Ġprev": 2654,
      "Ġsi": 2655,
      "Ġyim": 2656,
      "ĠNorth": 2657,
      "ler": 2658,
      "Ġanother": 2659,
      "Ġnub": 2660,
      "aban": 2661,
      "Ġtop": 2662,
      "?\"": 2663,
      "Ġnyam": 2664,
      "Ġkurwanya": 2665,
      "aul": 2666,
      "mb": 2667,
      "sinda": 2668,
      "ograp": 2669,
      "ĠMarch": 2670,
      "etso": 2671,
      "abagore": 2672,
      "ĠThere": 2673,
      "DA": 2674,
      "ibihugu": 2675,
      "ĠprÃ©": 2676,
      "Ġinform": 2677,
      "abor": 2678,
      "rip": 2679,
      "Ġplan": 2680,
      "Ġtrack": 2681,
      "ries": 2682,
      "Ġsingle": 2683,
      "Ġsouth": 2684,
      "Ġdisc": 2685,
      "Ġspecial": 2686,
      "atwa": 2687,
      "ĠRob": 2688,
      "Ġreceived": 2689,
      "arasi": 2690,
      "atic": 2691,
      "ĠrÃ©s": 2692,
      "ention": 2693,
      "Ġimportant": 2694,
      "Ġumupira": 2695,
      "osiye": 2696,
      "Ġstory": 2697,
      "Ġcity": 2698,
      "Ġvol": 2699,
      "Ġmenshi": 2700,
      "Ġgih": 2701,
      "action": 2702,
      "yn": 2703,
      "Ġcle": 2704,
      "here": 2705,
      "Ġdest": 2706,
      "Ġiv": 2707,
      "Ġbird": 2708,
      "Ġsw": 2709,
      "ĠKur": 2710,
      "Ġvir": 2711,
      "Ġactiv": 2712,
      "ĠKw": 2713,
      "iram": 2714,
      "Ġ28": 2715,
      "Ġ2002": 2716,
      "umu": 2717,
      "imera": 2718,
      "Ġcentury": 2719,
      "Ġcye": 2720,
      "yal": 2721,
      "lex": 2722,
      "Ġabana": 2723,
      "Ġigit": 2724,
      "Ġadv": 2725,
      "Ġlarge": 2726,
      "ral": 2727,
      "isozi": 2728,
      "ached": 2729,
      "ĠDav": 2730,
      "Ġschool": 2731,
      "Ġbatt": 2732,
      "ĠGeor": 2733,
      "âĤ¬": 2734,
      "ilt": 2735,
      "oram": 2736,
      "Ġ...": 2737,
      "Ġyitwa": 2738,
      "AN": 2739,
      "indura": 2740,
      "Ġubuzima": 2741,
      "abiriye": 2742,
      "Ġknow": 2743,
      "Ġmash": 2744,
      "ĠCity": 2745,
      "Ġcoun": 2746,
      "yeyi": 2747,
      "udi": 2748,
      "Ġvide": 2749,
      "ĠdÃ©c": 2750,
      "Ġsmiled": 2751,
      "akes": 2752,
      "ĠSouth": 2753,
      "aho": 2754,
      "vir": 2755,
      "ination": 2756,
      "Ġfar": 2757,
      "Ġfive": 2758,
      "ĠGro": 2759,
      "ĠÃī": 2760,
      "agira": 2761,
      "rew": 2762,
      "Ġibis": 2763,
      "ĠNyakanga": 2764,
      "Ġmess": 2765,
      "orr": 2766,
      "ĠMan": 2767,
      "uhanzi": 2768,
      "press": 2769,
      "eur": 2770,
      "Ġstand": 2771,
      "Ġshort": 2772,
      "imenyetso": 2773,
      "Ġbash": 2774,
      "utumwa": 2775,
      "Ġview": 2776,
      "Ġmonth": 2777,
      "erurwe": 2778,
      "Ġibir": 2779,
      "epfo": 2780,
      "eder": 2781,
      "wakira": 2782,
      "Ġnaho": 2783,
      "Ġbinyuze": 2784,
      "okarasi": 2785,
      "Ġchang": 2786,
      "raw": 2787,
      "Ġevent": 2788,
      "Ġgovernment": 2789,
      "Ġubus": 2790,
      "Ġnever": 2791,
      "lt": 2792,
      "uw": 2793,
      "igi": 2794,
      "ĠKanama": 2795,
      "ively": 2796,
      "Ġzis": 2797,
      "AF": 2798,
      "Ġwon": 2799,
      "Ġsays": 2800,
      "Ġcamp": 2801,
      "Ġlife": 2802,
      "ford": 2803,
      "Ġleg": 2804,
      "Ġiniti": 2805,
      "ington": 2806,
      "yob": 2807,
      "Ġ2001": 2808,
      "Ġguteza": 2809,
      "empike": 2810,
      "Ġamashuri": 2811,
      "ubukungu": 2812,
      "ĠEurope": 2813,
      "urch": 2814,
      "ume": 2815,
      "Ġufite": 2816,
      "oman": 2817,
      "ety": 2818,
      "yiza": 2819,
      "Ġdue": 2820,
      "Ġclos": 2821,
      "ner": 2822,
      "Ġnko": 2823,
      "aswa": 2824,
      "Ġfinal": 2825,
      "Ġnsh": 2826,
      "aken": 2827,
      "yaga": 2828,
      "Ġsad": 2829,
      "andiko": 2830,
      "ying": 2831,
      "Ġbiz": 2832,
      "ibinyabuzima": 2833,
      "ibil": 2834,
      "Ġgukoresha": 2835,
      "Ġthought": 2836,
      "ubyir": 2837,
      "Ġcyiciro": 2838,
      "ĠFo": 2839,
      "iriza": 2840,
      "ĠChar": 2841,
      "anja": 2842,
      "ĠIDO": 2843,
      "Ġzir": 2844,
      "omeje": 2845,
      "Ġkilomet": 2846,
      "ĠAc": 2847,
      "ards": 2848,
      "SIYE": 2849,
      "ĠIDOSIYE": 2850,
      "isumbuye": 2851,
      "ashe": 2852,
      "amije": 2853,
      "ĠMata": 2854,
      "ĠNzeri": 2855,
      "enos": 2856,
      "Ġfait": 2857,
      "Ġgave": 2858,
      "Ġtot": 2859,
      "ested": 2860,
      "ĠEt": 2861,
      "Ġkubona": 2862,
      "ariki": 2863,
      "Ġpower": 2864,
      "ubyiruko": 2865,
      "line": 2866,
      "Ġbijyanye": 2867,
      "Ġces": 2868,
      "Ġcas": 2869,
      "ĠIbi": 2870,
      "Ġigihembo": 2871,
      "Ġten": 2872,
      "eth": 2873,
      "ĠLond": 2874,
      "itsina": 2875,
      "uation": 2876,
      "ibidukikije": 2877,
      "Ġlocal": 2878,
      "aim": 2879,
      "ĠTanz": 2880,
      "war": 2881,
      "Ġpropos": 2882,
      "Ġgukina": 2883,
      "ambara": 2884,
      "ĠDecember": 2885,
      "50": 2886,
      "ĠBanki": 2887,
      "Ġabak": 2888,
      "Ġleur": 2889,
      "Ġmuryango": 2890,
      "Ġcette": 2891,
      "enewe": 2892,
      "work": 2893,
      "Ġcop": 2894,
      "Ġfur": 2895,
      "iven": 2896,
      "Ġ29": 2897,
      "Ġmut": 2898,
      "ĠJanu": 2899,
      "Ġaff": 2900,
      "ĠNovember": 2901,
      "ĠJanuary": 2902,
      "hind": 2903,
      "ories": 2904,
      "ĠNational": 2905,
      "ones": 2906,
      "Ġfa": 2907,
      "ĠMa": 2908,
      "yize": 2909,
      "ĠWerurwe": 2910,
      "osa": 2911,
      "iganiro": 2912,
      "Ġdifferent": 2913,
      "Ġserivisi": 2914,
      "Ġlate": 2915,
      "ĠCr": 2916,
      "ushyingo": 2917,
      "ĠJuly": 2918,
      "erereye": 2919,
      "amen": 2920,
      "Ġsout": 2921,
      "10": 2922,
      "ĠIyo": 2923,
      "ĠSer": 2924,
      "Ġimir": 2925,
      "Ġ192": 2926,
      "ĠIcy": 2927,
      "Ġdocument": 2928,
      "Ġfac": 2929,
      "Ġyit": 2930,
      "abak": 2931,
      "rop": 2932,
      "rote": 2933,
      "alf": 2934,
      "wavutse": 2935,
      "avy": 2936,
      "Ġstat": 2937,
      "Ġikaba": 2938,
      "Ġprem": 2939,
      "ren": 2940,
      "wamo": 2941,
      "utonde": 2942,
      "umupira": 2943,
      "uve": 2944,
      "Ġincluded": 2945,
      "Ġincre": 2946,
      "ES": 2947,
      "yavutse": 2948,
      "Ġmujyi": 2949,
      "omen": 2950,
      "ega": 2951,
      "Ġbased": 2952,
      "Amaj": 2953,
      "Ġkill": 2954,
      "Ġgot": 2955,
      "Ġheld": 2956,
      "ailed": 2957,
      "IN": 2958,
      "eti": 2959,
      "Ġund": 2960,
      "Ġibiti": 2961,
      "Ġcond": 2962,
      "anyam": 2963,
      "play": 2964,
      "ream": 2965,
      "ĠGuh": 2966,
      "ĠPerezida": 2967,
      "Ġref": 2968,
      "ĠUmusigiti": 2969,
      "uriro": 2970,
      "icle": 2971,
      "Ġoutside": 2972,
      "Ġproduction": 2973,
      "Ġtelev": 2974,
      "Ġang": 2975,
      "ihembo": 2976,
      "Ġprevious": 2977,
      "yango": 2978,
      "Ġgreat": 2979,
      "Ġthird": 2980,
      "Ġsound": 2981,
      "Ġpri": 2982,
      "ĠgÃ©n": 2983,
      "izo": 2984,
      "Ġryo": 2985,
      "ĠJap": 2986,
      "Ġcomme": 2987,
      "Ġjo": 2988,
      "Ġmajyaruguru": 2989,
      "dy": 2990,
      "wir": 2991,
      "Ġbimwe": 2992,
      "Ġwrote": 2993,
      "Ġuwo": 2994,
      "Ġyepfo": 2995,
      "ukira": 2996,
      "Ġiss": 2997,
      "ĠGl": 2998,
      "ove": 2999,
      "Ġaddition": 3000,
      "tain": 3001,
      "ald": 3002,
      "ĠKar": 3003,
      "Ġamategeko": 3004,
      "ments": 3005,
      "Ġcurr": 3006,
      "Ġgak": 3007,
      "Ġimikino": 3008,
      "Ġamar": 3009,
      "ude": 3010,
      "irahamwe": 3011,
      "com": 3012,
      "Ġside": 3013,
      "ĠSy": 3014,
      "ĠKarere": 3015,
      "ufite": 3016,
      "Ġservices": 3017,
      "Ġtechn": 3018,
      "alth": 3019,
      "ibi": 3020,
      "antare": 3021,
      "Ġikirere": 3022,
      "ĠPaul": 3023,
      "Ġ31": 3024,
      "ĠAfrika": 3025,
      "Ãł": 3026,
      "ashyantare": 3027,
      "zina": 3028,
      "Ġntib": 3029,
      "Ġappl": 3030,
      "Ġmark": 3031,
      "imu": 3032,
      "Ġconn": 3033,
      "ĠprÃ©sent": 3034,
      "Ġthose": 3035,
      "angam": 3036,
      "asa": 3037,
      "ĠMari": 3038,
      "ĠGus": 3039,
      "unganya": 3040,
      "uff": 3041,
      "ĠBar": 3042,
      "ĠUmug": 3043,
      "ĠIf": 3044,
      "row": 3045,
      "ĠDuring": 3046,
      "Ġabagore": 3047,
      "ureb": 3048,
      "vention": 3049,
      "ling": 3050,
      "ĠDiv": 3051,
      "Ġoriginal": 3052,
      "urasi": 3053,
      "iswe": 3054,
      "Ġpays": 3055,
      "ago": 3056,
      "Ġumud": 3057,
      "aff": 3058,
      "ombi": 3059,
      "Ġkwe": 3060,
      "ola": 3061,
      "Ġprop": 3062,
      "Ġimpamyabumenyi": 3063,
      "Ġmid": 3064,
      "ured": 3065,
      "Ġdog": 3066,
      "Ġlet": 3067,
      "ross": 3068,
      "yarwanda": 3069,
      "ĠFrench": 3070,
      "ager": 3071,
      "ibare": 3072,
      "urus": 3073,
      "ĠrÃ©g": 3074,
      "Ġservice": 3075,
      "Ġ2022": 3076,
      "Ġfav": 3077,
      "Ġibintu": 3078,
      "enoside": 3079,
      "ves": 3080,
      "Ġbuh": 3081,
      "Ġyig": 3082,
      "ubiye": 3083,
      "ĠMich": 3084,
      "Ġfeel": 3085,
      "Ġbad": 3086,
      "ĠGashyantare": 3087,
      "uvuzi": 3088,
      "Ġcomplet": 3089,
      "Ġmes": 3090,
      "ubutaka": 3091,
      "orewe": 3092,
      "ĠYak": 3093,
      "Ġmajyepfo": 3094,
      "merika": 3095,
      "Ġbelie": 3096,
      "Ġbitewe": 3097,
      "iyob": 3098,
      "Ġinkunga": 3099,
      "ched": 3100,
      "urura": 3101,
      "Ġgames": 3102,
      "ĠGo": 3103,
      "Ġlearn": 3104,
      "uss": 3105,
      "ilar": 3106,
      "Ġpersonn": 3107,
      "Ġwitwa": 3108,
      "amvu": 3109,
      "Ġground": 3110,
      "ĠSup": 3111,
      "Ġconstruc": 3112,
      "ijeriya": 3113,
      "ĠÂ°": 3114,
      "yejana": 3115,
      "ĠGicurasi": 3116,
      "Ig": 3117,
      "Ġsent": 3118,
      "Ġdeb": 3119,
      "ĠWest": 3120,
      "ĠInk": 3121,
      "ubuzima": 3122,
      "ipimo": 3123,
      "anywa": 3124,
      "Ġdescribed": 3125,
      "vers": 3126,
      "irc": 3127,
      "Ġtown": 3128,
      "ishwa": 3129,
      "Ġmarushanwa": 3130,
      "ĠJapan": 3131,
      "\",": 3132,
      "Ġnubwo": 3133,
      "itar": 3134,
      "Ġsoc": 3135,
      "Ġkugabanya": 3136,
      "ĠKamena": 3137,
      "ump": 3138,
      "ĠMe": 3139,
      "Ġbyag": 3140,
      "ON": 3141,
      "ness": 3142,
      "Ġnational": 3143,
      "Ġdom": 3144,
      "Ġread": 3145,
      "Ġstrong": 3146,
      "ĠDemokarasi": 3147,
      "Ġwav": 3148,
      "Ġij": 3149,
      "Ġled": 3150,
      "uboza": 3151,
      "Ġspe": 3152,
      "uthor": 3153,
      "ĠOlempike": 3154,
      "ning": 3155,
      "Ġlim": 3156,
      "imana": 3157,
      "Ġumuryango": 3158,
      "Ġdoes": 3159,
      "Ġtwa": 3160,
      "urimi": 3161,
      "Ġsay": 3162,
      "ĠMed": 3163,
      "oke": 3164,
      "ĠEng": 3165,
      "Ġless": 3166,
      "ems": 3167,
      "Ġbityo": 3168,
      "Ġide": 3169,
      "Ġph": 3170,
      "ela": 3171,
      "ody": 3172,
      "Ġguverinoma": 3173,
      "inter": 3174,
      "iness": 3175,
      "Ġgen": 3176,
      "ils": 3177,
      "Ġprocess": 3178,
      "Ġenc": 3179,
      "Ġmais": 3180,
      "Ġdays": 3181,
      "Ġvideo": 3182,
      "eli": 3183,
      "Ġishuri": 3184,
      "ĠIdosiye": 3185,
      "ĠAcc": 3186,
      "umv": 3187,
      "ibyo": 3188,
      "ziza": 3189,
      "ufat": 3190,
      "try": 3191,
      "ĠLeague": 3192,
      "ĠShampiyona": 3193,
      "Ġfew": 3194,
      "uts": 3195,
      "igik": 3196,
      "ampion": 3197,
      "Ġntabwo": 3198,
      "ĠCould": 3199,
      "Ġcontinued": 3200,
      "inam": 3201,
      "aster": 3202,
      "ĠNd": 3203,
      "Ġbituma": 3204,
      "zamakuru": 3205,
      "Ġparticip": 3206,
      "Ġren": 3207,
      "Ġfem": 3208,
      "Ġhaving": 3209,
      "ĠFrom": 3210,
      "ught": 3211,
      "Ġubwoko": 3212,
      "ĠCommission": 3213,
      ",\"": 3214,
      "inira": 3215,
      "Ġgun": 3216,
      "abag": 3217,
      "ibir": 3218,
      "thers": 3219,
      "Ġposition": 3220,
      "Ġconcern": 3221,
      "wongereza": 3222,
      "ĠCal": 3223,
      "Ġalways": 3224,
      "Ġkwir": 3225,
      "Ġversion": 3226,
      "mp": 3227,
      "roduc": 3228,
      "Ġbirimo": 3229,
      "201": 3230,
      "umuyobozi": 3231,
      "eshuri": 3232,
      "ially": 3233,
      "ification": 3234,
      "oi": 3235,
      "Ġinfl": 3236,
      "ingano": 3237,
      "ĠAir": 3238,
      "ubut": 3239,
      "yobora": 3240,
      "angazamakuru": 3241,
      "yobowe": 3242,
      "Ġbyat": 3243,
      "Ġcomb": 3244,
      "Ġformer": 3245,
      "esc": 3246,
      "Ġyabereye": 3247,
      "Ġthings": 3248,
      "Ġrik": 3249,
      "rie": 3250,
      "Ġclub": 3251,
      "Ġwindow": 3252,
      "orog": 3253,
      "izwa": 3254,
      "iyongera": 3255,
      "iterambere": 3256,
      "ĠTanzaniya": 3257,
      "RA": 3258,
      "ĠAss": 3259,
      "Ġbwoko": 3260,
      "Ġprobl": 3261,
      "Ġter": 3262,
      "âĢĵ": 3263,
      "Ġnkuru": 3264,
      "ret": 3265,
      "Ġmot": 3266,
      "amategeko": 3267,
      "Ġ190": 3268,
      "Ġreview": 3269,
      "ham": 3270,
      "enze": 3271,
      "Ġdon": 3272,
      "amab": 3273,
      "Ġbuilt": 3274,
      "Ġrelease": 3275,
      "ĠWilliam": 3276,
      "yle": 3277,
      "ables": 3278,
      "ĠSec": 3279,
      "Ġubutaka": 3280,
      "uzure": 3281,
      "Ġmatch": 3282,
      "Ġgatatu": 3283,
      "angana": 3284,
      "estern": 3285,
      "Ġsold": 3286,
      "aly": 3287,
      "uke": 3288,
      "acy": 3289,
      "inde": 3290,
      "Ġumunyam": 3291,
      "ĠFilime": 3292,
      "iby": 3293,
      "Ġequ": 3294,
      "anije": 3295,
      "akazi": 3296,
      "Ġ1999": 3297,
      "itswe": 3298,
      "Ġtotal": 3299,
      "uit": 3300,
      "ante": 3301,
      "ĠDo": 3302,
      "Ġfinanc": 3303,
      "cy": 3304,
      "Ġsqu": 3305,
      "ically": 3306,
      "oresheje": 3307,
      "Ġsol": 3308,
      "Ġkde": 3309,
      "ĠNyam": 3310,
      "ests": 3311,
      "Ġlevel": 3312,
      "Ġrapport": 3313,
      "Ġuri": 3314,
      "agi": 3315,
      "ĠÐ": 3316,
      "Ġgishinzwe": 3317,
      "ubiko": 3318,
      "eriod": 3319,
      "ploy": 3320,
      "inamico": 3321,
      "ches": 3322,
      "lo": 3323,
      "Ġho": 3324,
      "Ġ1998": 3325,
      "velopp": 3326,
      "anyarwanda": 3327,
      "Ġroom": 3328,
      "uary": 3329,
      "Ġrock": 3330,
      "imir": 3331,
      "reet": 3332,
      "Ġwithin": 3333,
      "aid": 3334,
      "Ġmwanya": 3335,
      "igize": 3336,
      "Ġbecome": 3337,
      "serv": 3338,
      "Ġcal": 3339,
      "Ġfact": 3340,
      "Ġdeath": 3341,
      "Ġattemp": 3342,
      "obanuro": 3343,
      "eep": 3344,
      "Ġakora": 3345,
      "ugero": 3346,
      "ibumb": 3347,
      "Ġisoko": 3348,
      "Ġbose": 3349,
      "Ãªme": 3350,
      "Ġwithout": 3351,
      "amaro": 3352,
      "Ġ'%": 3353,
      "Ġpresent": 3354,
      "Ġkinini": 3355,
      "Ġyakoze": 3356,
      "ezo": 3357,
      "Ġbi": 3358,
      "Ġbase": 3359,
      "atif": 3360,
      "ugwa": 3361,
      "ĠMal": 3362,
      "ĠGener": 3363,
      "Ġibi": 3364,
      "Ġstorm": 3365,
      "cent": 3366,
      "Ġbiri": 3367,
      "Ġstop": 3368,
      "ushya": 3369,
      "self": 3370,
      "Ġhat": 3371,
      "engera": 3372,
      "Ġtrad": 3373,
      "ufaransa": 3374,
      "ĠUkuboza": 3375,
      "Ġgufata": 3376,
      "ĠgÃ©nÃ©r": 3377,
      "ress": 3378,
      "Ġses": 3379,
      "Ġtold": 3380,
      "ĠMax": 3381,
      "hobo": 3382,
      "ĠGut": 3383,
      "Ġprinc": 3384,
      "urikira": 3385,
      "Ik": 3386,
      "ural": 3387,
      "Ġwab": 3388,
      "Ġdonn": 3389,
      "Ġlight": 3390,
      "ĠGerman": 3391,
      "Ġkne": 3392,
      "vert": 3393,
      "Ã¨me": 3394,
      "ĠUniversity": 3395,
      "ikipe": 3396,
      "ĠAkarere": 3397,
      "Ġec": 3398,
      "Ġkongera": 3399,
      "asanzwe": 3400,
      "ĠRec": 3401,
      "ĠNg": 3402,
      "Ġabag": 3403,
      "Epfo": 3404,
      "for": 3405,
      "Ġwr": 3406,
      "Ġyeg": 3407,
      "ĠEr": 3408,
      "ords": 3409,
      "ĠIharanira": 3410,
      "anire": 3411,
      "injira": 3412,
      "umweru": 3413,
      "Ġ_": 3414,
      "ĠMug": 3415,
      "ungura": 3416,
      "Ġcount": 3417,
      "amad": 3418,
      "Ġyabo": 3419,
      "ift": 3420,
      "Ġspecies": 3421,
      "ĠInternational": 3422,
      "Ġperiod": 3423,
      "Ġikigo": 3424,
      "inning": 3425,
      "Ġfurther": 3426,
      "BA": 3427,
      "Ġopp": 3428,
      "Ġroad": 3429,
      "Ġtree": 3430,
      "Ġbid": 3431,
      "Ġhur": 3432,
      "Ġhab": 3433,
      "Ġamaz": 3434,
      "iyeme": 3435,
      "obanura": 3436,
      "Ġsimilar": 3437,
      "ks": 3438,
      "Ġkey": 3439,
      "andatu": 3440,
      "Ġmush": 3441,
      "ĠNe": 3442,
      "uzuye": 3443,
      "Ġcompos": 3444,
      "ĠClub": 3445,
      "aged": 3446,
      "ĠRad": 3447,
      "Ġvot": 3448,
      "ĠOp": 3449,
      "Ġarm": 3450,
      "ĠUmuyobozi": 3451,
      "Ġjour": 3452,
      "ened": 3453,
      "irwe": 3454,
      "alement": 3455,
      "Ġyand": 3456,
      "ongeye": 3457,
      "Ġbetter": 3458,
      "akozi": 3459,
      "ingi": 3460,
      "ĠHigh": 3461,
      "Ġ60": 3462,
      "Ġcontrol": 3463,
      "ebruary": 3464,
      "iet": 3465,
      "ĠUbwo": 3466,
      "Ġusing": 3467,
      "reg": 3468,
      "ĠFebruary": 3469,
      "ĠGeorge": 3470,
      "itor": 3471,
      "Ġlost": 3472,
      "eget": 3473,
      "alian": 3474,
      "Ġrole": 3475,
      "fÃ©r": 3476,
      "Ġmi": 3477,
      "Ġhanze": 3478,
      "Ġhanyuma": 3479,
      "ĠSen": 3480,
      "irije": 3481,
      "ialog": 3482,
      "Ġzitandukanye": 3483,
      "Ġcult": 3484,
      "Ġfle": 3485,
      "Ġdeux": 3486,
      "ĠNor": 3487,
      "Ġamasezerano": 3488,
      "agad": 3489,
      "iporo": 3490,
      "inema": 3491,
      "Ġqual": 3492,
      "Ġextr": 3493,
      "Ġmoved": 3494,
      "Ġdistr": 3495,
      "Ġtravail": 3496,
      "ounc": 3497,
      "itari": 3498,
      "Ġvict": 3499,
      "Ġ1990": 3500,
      "ĠdÃ©velopp": 3501,
      "MA": 3502,
      "sc": 3503,
      "Ġrig": 3504,
      "utsi": 3505,
      "ĠPart": 3506,
      "Ġubushobozi": 3507,
      "Ġmembers": 3508,
      "Afurika": 3509,
      "atives": 3510,
      "Ġgifite": 3511,
      "uha": 3512,
      "Ġhimself": 3513,
      "ny": 3514,
      "anwe": 3515,
      "Ġmaking": 3516,
      "Ġpat": 3517,
      "Ġalthough": 3518,
      "Ġ1996": 3519,
      "Ġigice": 3520,
      "Ġpeut": 3521,
      "Ãī": 3522,
      "Ġsett": 3523,
      "irik": 3524,
      "Ġhaba": 3525,
      "umukinnyi": 3526,
      "ER": 3527,
      "uje": 3528,
      "Ġkure": 3529,
      "Ġpost": 3530,
      "Ġimirimo": 3531,
      "Ġitera": 3532,
      "Ġmukino": 3533,
      "Ġrepres": 3534,
      "ĠLondon": 3535,
      "ged": 3536,
      "Ġcast": 3537,
      "Ġgiven": 3538,
      "amaj": 3539,
      "Ġ1997": 3540,
      "ministr": 3541,
      "aramu": 3542,
      "Ġlib": 3543,
      "ĠMis": 3544,
      "Ġcover": 3545,
      "ĠIgihe": 3546,
      "Ġrespect": 3547,
      "aient": 3548,
      "yr": 3549,
      "Ġfield": 3550,
      "angaje": 3551,
      "ombwa": 3552,
      "Ġavuga": 3553,
      "let": 3554,
      "Ġda": 3555,
      "lege": 3556,
      "Ġve": 3557,
      "Ġamak": 3558,
      "Ġsoon": 3559,
      "ĠMinisitiri": 3560,
      "inwa": 3561,
      "Ġnya": 3562,
      "oror": 3563,
      "uzo": 3564,
      "Ġbishobora": 3565,
      "AC": 3566,
      "ources": 3567,
      "xim": 3568,
      "Ġsugg": 3569,
      "Ġkumen": 3570,
      "Ġibibazo": 3571,
      "ania": 3572,
      "Ġwari": 3573,
      "Ġkiri": 3574,
      "Ġfire": 3575,
      "Ġoften": 3576,
      "ubuhinzi": 3577,
      "ukuru": 3578,
      "acc": 3579,
      "Ġamong": 3580,
      "Ġumwanya": 3581,
      "Ġgrand": 3582,
      "ĠAfrica": 3583,
      "enzura": 3584,
      "Ġbwe": 3585,
      "Ġnight": 3586,
      "ingenzi": 3587,
      "Ġyu": 3588,
      "seil": 3589,
      "Ġkurya": 3590,
      "Ġsoci": 3591,
      "Ġrub": 3592,
      "Ġhowever": 3593,
      "Ġkubaka": 3594,
      "Ġdidn": 3595,
      "Ġconsidered": 3596,
      "Ġliked": 3597,
      "ĠPark": 3598,
      "ief": 3599,
      "fash": 3600,
      "ering": 3601,
      "ĠÃ©l": 3602,
      "Ġinternational": 3603,
      "Ġhalf": 3604,
      "ingiye": 3605,
      "ĠSho": 3606,
      "ĠRev": 3607,
      "ĠDi": 3608,
      "ĠYav": 3609,
      "Ġarg": 3610,
      "Ġishinzwe": 3611,
      "ology": 3612,
      "day": 3613,
      "ĠRiver": 3614,
      "arch": 3615,
      "ament": 3616,
      "Ġuzwi": 3617,
      "ukura": 3618,
      "emu": 3619,
      "ĠUyu": 3620,
      "orts": 3621,
      "Ġinside": 3622,
      "ĠComp": 3623,
      "ibumbye": 3624,
      "oraga": 3625,
      "ĠSm": 3626,
      "BC": 3627,
      "itary": 3628,
      "Ġwest": 3629,
      "ĠTe": 3630,
      "ĠPat": 3631,
      "Ġrunini": 3632,
      "oka": 3633,
      "Ġbifite": 3634,
      "ĠCO": 3635,
      "ĠUbutumwa": 3636,
      "ĠUrutonde": 3637,
      "glish": 3638,
      "ĠÃīt": 3639,
      "ukiram": 3640,
      "Ġvi": 3641,
      "ĠJo": 3642,
      "Ġexist": 3643,
      "zweho": 3644,
      "Ġscared": 3645,
      "Ġobject": 3646,
      "ĠIshusho": 3647,
      "ĠDavid": 3648,
      "alia": 3649,
      "reed": 3650,
      "ĠMinisiteri": 3651,
      "Ġvirusi": 3652,
      "oramari": 3653,
      "ubiyemo": 3654,
      "ges": 3655,
      "Ġnziza": 3656,
      "abwe": 3657,
      "Ġlaw": 3658,
      "Ġfoot": 3659,
      "urukiya": 3660,
      "urebure": 3661,
      "WE": 3662,
      "Ġfree": 3663,
      "alt": 3664,
      "umanya": 3665,
      "Ġbyari": 3666,
      "ifash": 3667,
      "Ġbox": 3668,
      "ĠUgushyingo": 3669,
      "Ã¡": 3670,
      "uranye": 3671,
      "Ġnet": 3672,
      "ĠReg": 3673,
      "Ġpi": 3674,
      "Ġha": 3675,
      "ĠJames": 3676,
      "Ġyoung": 3677,
      "Ġfull": 3678,
      "Ġibya": 3679,
      "Ġpoliti": 3680,
      "Ġutil": 3681,
      "ĠWhile": 3682,
      "orogaramu": 3683,
      "Ġsat": 3684,
      "Ġfaire": 3685,
      "Ġhard": 3686,
      "ĠGana": 3687,
      "Ġconv": 3688,
      "Ġrefer": 3689,
      "anyeshuri": 3690,
      "ambi": 3691,
      "hawe": 3692,
      "Ġturere": 3693,
      "PR": 3694,
      "Ġuruzi": 3695,
      "arwa": 3696,
      "Ġinf": 3697,
      "Ġumubiri": 3698,
      "Ġcome": 3699,
      "orozi": 3700,
      "ĠEnglish": 3701,
      "Ġdemand": 3702,
      "ĠJean": 3703,
      "ĠGroup": 3704,
      "ukiramuco": 3705,
      "Ġnom": 3706,
      "iramo": 3707,
      "uted": 3708,
      "ubumenyi": 3709,
      "Ġibiri": 3710,
      "ibaya": 3711,
      "ĠUkwakira": 3712,
      "ĠMom": 3713,
      "uriye": 3714,
      "hod": 3715,
      "Ġproj": 3716,
      "Ġreached": 3717,
      "yl": 3718,
      "inz": 3719,
      "ĠMary": 3720,
      "Ġcompr": 3721,
      "ijyi": 3722,
      "Ġcompany": 3723,
      "CE": 3724,
      "orry": 3725,
      "atutsi": 3726,
      "uses": 3727,
      "Ġeast": 3728,
      "ihar": 3729,
      "Ġexcited": 3730,
      "Ġinflu": 3731,
      "UR": 3732,
      "ead": 3733,
      "Ġsun": 3734,
      "Ġkigo": 3735,
      "ende": 3736,
      "Ġkuby": 3737,
      "Ġpress": 3738,
      "ĠUmuk": 3739,
      "Ġumusigiti": 3740,
      "ĠCyangwa": 3741,
      "ĠKaminuza": 3742,
      "ĠWith": 3743,
      "ĠVir": 3744,
      "Ġplayer": 3745,
      "anyije": 3746,
      "Ġrais": 3747,
      "abije": 3748,
      "ula": 3749,
      "Ġikibazo": 3750,
      "wirak": 3751,
      "iteg": 3752,
      "anditsi": 3753,
      "igihe": 3754,
      "idagad": 3755,
      "Ġibikoresho": 3756,
      "Ġishy": 3757,
      "Ġestabl": 3758,
      "Ġtext": 3759,
      "iziyo": 3760,
      "Ġbuilding": 3761,
      "Ġrepresent": 3762,
      "bert": 3763,
      "ites": 3764,
      "imihindagurikire": 3765,
      "ĠKag": 3766,
      "Ġimage": 3767,
      "Ġquick": 3768,
      "ĠâĢĺ": 3769,
      "atsinze": 3770,
      "Ġinclude": 3771,
      "Ġlarg": 3772,
      "burg": 3773,
      "erukiramuco": 3774,
      "urayi": 3775,
      "Ġnum": 3776,
      "aces": 3777,
      "ĠRich": 3778,
      "Ġproject": 3779,
      "Ġwalk": 3780,
      "Ġkera": 3781,
      "ĠSw": 3782,
      "Ġbyiza": 3783,
      "Ġever": 3784,
      "Ġ189": 3785,
      "Ġopened": 3786,
      "hether": 3787,
      "Ġkam": 3788,
      "imari": 3789,
      "Ġtout": 3790,
      "Ġforces": 3791,
      "Ġkwiga": 3792,
      "Ġrespons": 3793,
      "Ġbibiri": 3794,
      "Ġakazi": 3795,
      "Ġchildren": 3796,
      "GE": 3797,
      "Ġ!": 3798,
      "Ġtour": 3799,
      "uku": 3800,
      "teko": 3801,
      "Ġitsinda": 3802,
      "Ġelect": 3803,
      "Ġyagize": 3804,
      "Ġpossible": 3805,
      "ĠPhil": 3806,
      "ĠdÃ©veloppement": 3807,
      "Ã©p": 3808,
      "ids": 3809,
      "Ġ1992": 3810,
      "ĠAlthough": 3811,
      "Ġwritten": 3812,
      "Ġsocial": 3813,
      "ĠUw": 3814,
      "Ġash": 3815,
      "ending": 3816,
      "hern": 3817,
      "Ġtried": 3818,
      "Ġkeep": 3819,
      "ĠLib": 3820,
      "Ġkwand": 3821,
      "Ġinvol": 3822,
      "umugore": 3823,
      "Ġident": 3824,
      "ĠEngland": 3825,
      "ufatanye": 3826,
      "anini": 3827,
      "hem": 3828,
      "urop": 3829,
      "urage": 3830,
      "Ġpick": 3831,
      "Ġishobora": 3832,
      "kozwe": 3833,
      "Ġyagiye": 3834,
      "ĠÂ»": 3835,
      "Ġimbaraga": 3836,
      "Ġushinzwe": 3837,
      "Ġcirc": 3838,
      "ussi": 3839,
      "ĠStr": 3840,
      "emy": 3841,
      "wood": 3842,
      "Ġingufu": 3843,
      "ĠConseil": 3844,
      "Ġsect": 3845,
      "Ġgif": 3846,
      "agije": 3847,
      "ĠÃ©g": 3848,
      "Ġurus": 3849,
      "Ġibitego": 3850,
      "Ġyinjiye": 3851,
      "dom": 3852,
      "ĠUs": 3853,
      "Ġubut": 3854,
      "Ġclaim": 3855,
      "Ġfront": 3856,
      "Ġwid": 3857,
      "Ġyib": 3858,
      "ivid": 3859,
      "zego": 3860,
      "ĠÃ©c": 3861,
      "craft": 3862,
      "Ġdevelopment": 3863,
      "Ġemp": 3864,
      "ĠMon": 3865,
      "ĠCount": 3866,
      "ced": 3867,
      "uvern": 3868,
      "Ġtous": 3869,
      "ĠCap": 3870,
      "herereye": 3871,
      "lands": 3872,
      "ĠRobert": 3873,
      "Ġprincip": 3874,
      "erere": 3875,
      "Ġmak": 3876,
      "Ġinz": 3877,
      "ĠPres": 3878,
      "Ġbikaba": 3879,
      "Ġpopulation": 3880,
      "Ġcross": 3881,
      "ME": 3882,
      "iÃ¨re": 3883,
      "lin": 3884,
      "Ġlang": 3885,
      "Ġtu": 3886,
      "Ġhose": 3887,
      "ĠAh": 3888,
      "ziya": 3889,
      "Ġseen": 3890,
      "Ġyatsindiye": 3891,
      "uwa": 3892,
      "Ġlow": 3893,
      "ivil": 3894,
      "ĠFin": 3895,
      "endre": 3896,
      "ufi": 3897,
      "ĠIbis": 3898,
      "Ġparticular": 3899,
      "Ġreturned": 3900,
      "IS": 3901,
      "arm": 3902,
      "atanya": 3903,
      "omp": 3904,
      "ugo": 3905,
      "ube": 3906,
      "ensive": 3907,
      "Ġsongs": 3908,
      "Ġcareer": 3909,
      "Ġcountry": 3910,
      "wana": 3911,
      "Ġyavutse": 3912,
      "ĠKin": 3913,
      "ĠHen": 3914,
      "Ġstruct": 3915,
      "Ġselected": 3916,
      "ihariko": 3917,
      "ĠMor": 3918,
      "Ġstated": 3919,
      "aper": 3920,
      "Ġcomment": 3921,
      "ency": 3922,
      "Ġannounc": 3923,
      "ĠDivision": 3924,
      "Ġknew": 3925,
      "Ġinyam": 3926,
      "ishije": 3927,
      "pression": 3928,
      "Ġcapt": 3929,
      "ael": 3930,
      "Ġrero": 3931,
      "Ġubushakashatsi": 3932,
      "ufasha": 3933,
      "Ġsn": 3934,
      "ires": 3935,
      "unzi": 3936,
      "idence": 3937,
      "ĠPort": 3938,
      "board": 3939,
      "atewe": 3940,
      "Ġgakondo": 3941,
      "Un": 3942,
      "Ġtre": 3943,
      "iction": 3944,
      "Ġkuzam": 3945,
      "Ġikor": 3946,
      "ociation": 3947,
      "30": 3948,
      "Ġmix": 3949,
      "Ġbud": 3950,
      "Ġdialog": 3951,
      "abyeyi": 3952,
      "Ã©ment": 3953,
      "ĠHari": 3954,
      "ects": 3955,
      "ength": 3956,
      "amashyamba": 3957,
      "iens": 3958,
      "uel": 3959,
      "atini": 3960,
      "Ġwak": 3961,
      "ably": 3962,
      "ĠIzina": 3963,
      "Ġtoys": 3964,
      "ĠSan": 3965,
      "ĠRed": 3966,
      "Ġ500": 3967,
      "Ġproduced": 3968,
      "umus": 3969,
      "uziki": 3970,
      "annot": 3971,
      "Ġ1980": 3972,
      "aign": 3973,
      "Ġainsi": 3974,
      "aramo": 3975,
      "roy": 3976,
      "ibikorwa": 3977,
      "oti": 3978,
      "ishinga": 3979,
      "Ġquestion": 3980,
      "Ġtype": 3981,
      "ĠâĢĻ": 3982,
      "itive": 3983,
      "Ġyize": 3984,
      "ript": 3985,
      "iriwe": 3986,
      "Ġabah": 3987,
      "ĠIby": 3988,
      "isitemu": 3989,
      "enne": 3990,
      "Ġsiporo": 3991,
      "Ġdad": 3992,
      "ĠBel": 3993,
      "sequ": 3994,
      "Ġzose": 3995,
      "Ġzirimo": 3996,
      "udu": 3997,
      "ĠUmun": 3998,
      "Ġinvest": 3999,
      "Ġkilometero": 4000,
      "CA": 4001,
      "jy": 4002,
      "Ø§": 4003,
      "erage": 4004,
      "ĠmÃªme": 4005,
      "itanye": 4006,
      "Ġsite": 4007,
      "Ġeurop": 4008,
      "oph": 4009,
      "erial": 4010,
      "Ġinshuro": 4011,
      "Im": 4012,
      "wiye": 4013,
      "Åĵ": 4014,
      "Ġtell": 4015,
      "iser": 4016,
      "Ġpot": 4017,
      "iganwa": 4018,
      "ĠEast": 4019,
      "onga": 4020,
      "iff": 4021,
      "Ġizwi": 4022,
      "Ġyavuze": 4023,
      "Ġumudari": 4024,
      "ber": 4025,
      "Ġmust": 4026,
      "ubizo": 4027,
      "ĠSel": 4028,
      "oli": 4029,
      "yambere": 4030,
      "ĠVict": 4031,
      "Ġacross": 4032,
      "isiyo": 4033,
      "Ġcurrent": 4034,
      "Ã»": 4035,
      "Ġauthor": 4036,
      "orosh": 4037,
      "Ġft": 4038,
      "umuh": 4039,
      "hoho": 4040,
      "ops": 4041,
      "Ġcommerc": 4042,
      "Ġcolor": 4043,
      "Iburasirazuba": 4044,
      "Ġbavuga": 4045,
      "Ġcertain": 4046,
      "yekanye": 4047,
      "ĠUbwoko": 4048,
      "Ã®": 4049,
      "Ġmuto": 4050,
      "umana": 4051,
      "Ġheard": 4052,
      "epend": 4053,
      "ĠState": 4054,
      "Ġregion": 4055,
      "Ġdiffic": 4056,
      "ĠAccording": 4057,
      "ampionship": 4058,
      "Ġnini": 4059,
      "Ġfall": 4060,
      "ĠBatt": 4061,
      "ĠNijeriya": 4062,
      "ĠWash": 4063,
      "Ġcommon": 4064,
      "Ã©ration": 4065,
      "Ġtrop": 4066,
      "Ġreported": 4067,
      "tt": 4068,
      "Ġbuzima": 4069,
      "isc": 4070,
      "Ġiy": 4071,
      "uge": 4072,
      "Ġwash": 4073,
      "ĠHol": 4074,
      "ither": 4075,
      "Ġaccept": 4076,
      "iyong": 4077,
      "earch": 4078,
      "Ġclose": 4079,
      "ombre": 4080,
      "Ġmarch": 4081,
      "Ġcreate": 4082,
      "12": 4083,
      "Ġsum": 4084,
      "ubu": 4085,
      "ukanye": 4086,
      "ĠFrance": 4087,
      "Ġobserv": 4088,
      "ĠeuropÃ©": 4089,
      "Ð°": 4090,
      "yap": 4091,
      "uments": 4092,
      "ubah": 4093,
      "aves": 4094,
      "Ġstyle": 4095,
      "Ġ70": 4096,
      "ĠBlack": 4097,
      "Ġmiss": 4098,
      "astern": 4099,
      "ĠCour": 4100,
      "ĠKom": 4101,
      "Ġsex": 4102,
      "emewe": 4103,
      "ole": 4104,
      "Ġlt": 4105,
      "Ġimig": 4106,
      "Ġgouvern": 4107,
      "Ġbagore": 4108,
      "ekano": 4109,
      "erera": 4110,
      "usion": 4111,
      "uguti": 4112,
      "Ġthink": 4113,
      "Ġkuy": 4114,
      "Ġubucuruzi": 4115,
      "ipp": 4116,
      "ization": 4117,
      "Ġ1995": 4118,
      "Ġmeet": 4119,
      "Ġdefe": 4120,
      "Ġimbuto": 4121,
      "yizweho": 4122,
      "ky": 4123,
      "Ġtimes": 4124,
      "unzwe": 4125,
      "umwaka": 4126,
      "Ġibihugu": 4127,
      "ĠUmuryango": 4128,
      "Ġsuiv": 4129,
      "oreshejwe": 4130,
      "Ġhistory": 4131,
      "ograph": 4132,
      "Ġoppos": 4133,
      "ience": 4134,
      "Ġmwiza": 4135,
      "eni": 4136,
      "Ġsaf": 4137,
      "Ġvill": 4138,
      "ĠEar": 4139,
      "Ġpublished": 4140,
      "egetsi": 4141,
      "ikora": 4142,
      "umva": 4143,
      "umujyi": 4144,
      "Ġamateka": 4145,
      "uncil": 4146,
      "ishingiye": 4147,
      "cyo": 4148,
      "Ġnone": 4149,
      "ĠSch": 4150,
      "ibih": 4151,
      "unction": 4152,
      "Ġinyungu": 4153,
      "Ġyatsinze": 4154,
      "Ġtitle": 4155,
      "ĠWashington": 4156,
      "ming": 4157,
      "Ġbantu": 4158,
      "ĠSal": 4159,
      "ibihe": 4160,
      "Ġattr": 4161,
      "Ġkwig": 4162,
      "ĠUbu": 4163,
      "Ġrecorded": 4164,
      "Ġpoints": 4165,
      "hat": 4166,
      "ask": 4167,
      "ugudu": 4168,
      "ĠGuf": 4169,
      "Ġikora": 4170,
      "ĠVal": 4171,
      "Ġorigin": 4172,
      "CO": 4173,
      "Ġtaken": 4174,
      "Ġcm": 4175,
      "amafaranga": 4176,
      "Ġhold": 4177,
      "thing": 4178,
      "Ġ35": 4179,
      "ĠIkigo": 4180,
      "amashanyarazi": 4181,
      "ĠAustralia": 4182,
      "abira": 4183,
      "ĠSI": 4184,
      "ibit": 4185,
      "Ġintroduc": 4186,
      "Ġbigize": 4187,
      "itted": 4188,
      "Ġumukino": 4189,
      "Ġaircraft": 4190,
      "jo": 4191,
      "Ġhop": 4192,
      "Ġforce": 4193,
      "indege": 4194,
      "Ġbutaka": 4195,
      "Ġfollowed": 4196,
      "field": 4197,
      "Ġmommy": 4198,
      "Ġthro": 4199,
      "Ġ1993": 4200,
      "Ġships": 4201,
      "Ġtri": 4202,
      "Ġkipe": 4203,
      "Ġdied": 4204,
      "Ġgard": 4205,
      "ĠLuc": 4206,
      "Ġremained": 4207,
      "fasha": 4208,
      "gin": 4209,
      "ĠCongo": 4210,
      "ĠNubwo": 4211,
      "Ġzib": 4212,
      "Ġleurs": 4213,
      "Ġbagize": 4214,
      "injiza": 4215,
      "abanuka": 4216,
      "Ġfavor": 4217,
      "Ġay": 4218,
      "Ġfig": 4219,
      "indwi": 4220,
      "Ġste": 4221,
      "ĠAmerica": 4222,
      "rought": 4223,
      "Ġblack": 4224,
      "br": 4225,
      "Ġmult": 4226,
      "oto": 4227,
      "Ġ80": 4228,
      "Ġ90": 4229,
      "ck": 4230,
      "fu": 4231,
      "tor": 4232,
      "Ġsal": 4233,
      "agn": 4234,
      "ughout": 4235,
      "ows": 4236,
      "illa": 4237,
      "Ġkwim": 4238,
      "ĠUmw": 4239,
      "yemezo": 4240,
      "ĠRes": 4241,
      "ĠPe": 4242,
      "Ġmembres": 4243,
      "Ġsuccessful": 4244,
      "ĠShow": 4245,
      "lant": 4246,
      "Ġgive": 4247,
      "umuntu": 4248,
      "ĠSi": 4249,
      "ĠPal": 4250,
      "Ġable": 4251,
      "Ġprodu": 4252,
      "Ġbutandukanye": 4253,
      "ĠStar": 4254,
      "ension": 4255,
      "Ġgoing": 4256,
      "Ġumwana": 4257,
      "agarariye": 4258,
      "Ġlove": 4259,
      "Ġyavukiye": 4260,
      "Ġperformance": 4261,
      "ians": 4262,
      "less": 4263,
      "Ġmyiza": 4264,
      "ĠRw": 4265,
      "Ġstation": 4266,
      "ĠInter": 4267,
      "Ġmyinshi": 4268,
      "Ġgiti": 4269,
      "oney": 4270,
      "ĠAnna": 4271,
      "Ġbaz": 4272,
      "Ġzih": 4273,
      "angiriro": 4274,
      "irikare": 4275,
      "nd": 4276,
      "ono": 4277,
      "Ġkind": 4278,
      "imin": 4279,
      "ikigo": 4280,
      "ĠBay": 4281,
      "ikorera": 4282,
      "Ġareas": 4283,
      "Ġsignific": 4284,
      "ĠGeneral": 4285,
      "ĠCounty": 4286,
      "dle": 4287,
      "fin": 4288,
      "Ġking": 4289,
      "Ġrange": 4290,
      "ĠAwards": 4291,
      "ĠEvery": 4292,
      "Ġabandi": 4293,
      "udage": 4294,
      "Ġdisp": 4295,
      "Ġpopular": 4296,
      "viron": 4297,
      "urongo": 4298,
      "Ġaction": 4299,
      "Ġ188": 4300,
      "ikoreshwa": 4301,
      "omas": 4302,
      "Ġbehind": 4303,
      "Ġishami": 4304,
      "irwaho": 4305,
      "Ġmilitary": 4306,
      "Igihugu": 4307,
      "60": 4308,
      "Ġbanki": 4309,
      "Ġdoll": 4310,
      "ĠBus": 4311,
      "ahara": 4312,
      "Ġkwih": 4313,
      "Ġavail": 4314,
      "Ġindivid": 4315,
      "ĠFranc": 4316,
      "HO": 4317,
      "Ġsav": 4318,
      "Ġimiti": 4319,
      "ihariye": 4320,
      "Ġkwit": 4321,
      "thern": 4322,
      "anked": 4323,
      "Amerika": 4324,
      "ault": 4325,
      "tes": 4326,
      "Ġsil": 4327,
      "Ġsant": 4328,
      "abb": 4329,
      "ĠBiv": 4330,
      "ider": 4331,
      "uruza": 4332,
      "Ġstay": 4333,
      "ricane": 4334,
      "Ġdeveloped": 4335,
      "Ġmm": 4336,
      "Ġkiyaga": 4337,
      "Ġdate": 4338,
      "Ġfond": 4339,
      "Ġothers": 4340,
      "ĠThese": 4341,
      "osp": 4342,
      "ource": 4343,
      "ĠYatangiye": 4344,
      "obi": 4345,
      "ĠAmash": 4346,
      "Ġroute": 4347,
      "Ġpromot": 4348,
      "orpor": 4349,
      "Ġmonths": 4350,
      "ĠMichael": 4351,
      "Ġwin": 4352,
      "Ġdi": 4353,
      "Ġfather": 4354,
      "Ġgas": 4355,
      "iles": 4356,
      "ĠDoc": 4357,
      "rait": 4358,
      "Ġgrow": 4359,
      "Ġadded": 4360,
      "hereza": 4361,
      "agement": 4362,
      "ente": 4363,
      "ocr": 4364,
      "Ġarch": 4365,
      "Ġnoted": 4366,
      "ĠSchool": 4367,
      "Ġtransport": 4368,
      "Ġbiba": 4369,
      "Ġfonc": 4370,
      "ĠHam": 4371,
      "esha": 4372,
      "Ġcompet": 4373,
      "Ġmuburyo": 4374,
      "onna": 4375,
      "Ġprogramme": 4376,
      "ĠKugeza": 4377,
      "Ġbihe": 4378,
      "Ġbrought": 4379,
      "atter": 4380,
      "Ã©qu": 4381,
      "ĠUrw": 4382,
      "onda": 4383,
      "ogn": 4384,
      "ambye": 4385,
      "Ġmove": 4386,
      "ĠRoad": 4387,
      "denly": 4388,
      "Ġtelevision": 4389,
      "Ġsuf": 4390,
      "Ġkom": 4391,
      "Ġkirere": 4392,
      "Ġfight": 4393,
      "ikir": 4394,
      "ĠBill": 4395,
      "ĠOs": 4396,
      "owers": 4397,
      "Ġatandukanye": 4398,
      "Ġprim": 4399,
      "Ġmubiri": 4400,
      "wandakazi": 4401,
      "Â»": 4402,
      "anch": 4403,
      "isl": 4404,
      "Ġyisumbuye": 4405,
      "ĠMont": 4406,
      "ĠBer": 4407,
      "empl": 4408,
      "Ġeight": 4409,
      "Ġcongo": 4410,
      "Ġamakuru": 4411,
      "imaze": 4412,
      "ĠUbubiko": 4413,
      "ĠdÃ©p": 4414,
      "Ġbush": 4415,
      "Ġnor": 4416,
      "anger": 4417,
      "Ġkut": 4418,
      "Ġfol": 4419,
      "Ġcreated": 4420,
      "Ã¼": 4421,
      "Ġbien": 4422,
      "ĠAv": 4423,
      "iligi": 4424,
      "ĠTur": 4425,
      "ĠBob": 4426,
      "uce": 4427,
      "uruh": 4428,
      "erson": 4429,
      "Ġans": 4430,
      "ellow": 4431,
      "Ġparty": 4432,
      "Ġfeatures": 4433,
      "Ġanimals": 4434,
      "ĠSome": 4435,
      "ĠBir": 4436,
      "olari": 4437,
      "Ġubushyuhe": 4438,
      "usha": 4439,
      "oper": 4440,
      "Ġwhite": 4441,
      "Ġintego": 4442,
      "ĠVictor": 4443,
      "bon": 4444,
      "Ġmahanga": 4445,
      "isions": 4446,
      "Ġnayo": 4447,
      "Ġvit": 4448,
      "ikorere": 4449,
      "Ġdisplay": 4450,
      "Ġbagera": 4451,
      "Ġimpro": 4452,
      "Ã©cur": 4453,
      "ĠÃītats": 4454,
      "Ġamoko": 4455,
      "Ġati": 4456,
      "Ġagaciro": 4457,
      "Ġkurengera": 4458,
      "ĠBurayi": 4459,
      "Ġradio": 4460,
      "Ġwall": 4461,
      "Ã©m": 4462,
      "izindi": 4463,
      "Ġ400": 4464,
      "Ġcharacters": 4465,
      "Ġvarious": 4466,
      "ja": 4467,
      "Ġesp": 4468,
      "Ġnorm": 4469,
      "Ġcut": 4470,
      "Ġkiz": 4471,
      "irishya": 4472,
      "ĠMiss": 4473,
      "ĠUmut": 4474,
      "Ġaccess": 4475,
      "Ġhuman": 4476,
      "Ġmessage": 4477,
      "Ġquickly": 4478,
      "ĠHenry": 4479,
      "face": 4480,
      "Ġcumi": 4481,
      "Ġill": 4482,
      "ecut": 4483,
      "cep": 4484,
      "ĠWil": 4485,
      "Ġigikombe": 4486,
      "prise": 4487,
      "ĠThomas": 4488,
      "ĠTrans": 4489,
      "ĠBurundi": 4490,
      "Ġcritic": 4491,
      "Ġidea": 4492,
      "Ġviol": 4493,
      "ĠSIDA": 4494,
      "cle": 4495,
      "inya": 4496,
      "Ġdraw": 4497,
      "ĠUmujyi": 4498,
      "ikoranabuhanga": 4499,
      "ĠVol": 4500,
      "Ġ1991": 4501,
      "Ġdispos": 4502,
      "Ġconsist": 4503,
      "Ġmiles": 4504,
      "piya": 4505,
      "Ġmember": 4506,
      "Ġbub": 4507,
      "Ġbaf": 4508,
      "Ġwag": 4509,
      "uburenganzira": 4510,
      "ĠRap": 4511,
      "ĠUN": 4512,
      "ishim": 4513,
      "Ġakamaro": 4514,
      "Ġemploy": 4515,
      "li": 4516,
      "most": 4517,
      "onse": 4518,
      "atuma": 4519,
      "Ġcel": 4520,
      "isa": 4521,
      "Ġiyobowe": 4522,
      "Ġlog": 4523,
      "ĠMac": 4524,
      "ules": 4525,
      "Ġibicuruzwa": 4526,
      "ender": 4527,
      "ĠStreet": 4528,
      "ĠThat": 4529,
      "Ġfood": 4530,
      "ĠrÃ©p": 4531,
      "Ġnombre": 4532,
      "atre": 4533,
      "Ġcost": 4534,
      "Ġlived": 4535,
      "ibye": 4536,
      "reek": 4537,
      "Ġmodern": 4538,
      "oroshye": 4539,
      "AS": 4540,
      "la": 4541,
      "Ġdut": 4542,
      "Ġpur": 4543,
      "Ġmuz": 4544,
      "ĠTV": 4545,
      "terwa": 4546,
      "erst": 4547,
      "Ã´t": 4548,
      "ki": 4549,
      "Ġbamwe": 4550,
      "akora": 4551,
      "read": 4552,
      "iding": 4553,
      "Ġisano": 4554,
      "Ġitandukanye": 4555,
      "Ġmazi": 4556,
      "Ġyakuye": 4557,
      "Ġfinished": 4558,
      "ĠQue": 4559,
      "Ġinformation": 4560,
      "urisha": 4561,
      "iting": 4562,
      "Ġcreat": 4563,
      "ĠChe": 4564,
      "Ġonce": 4565,
      "Ġamat": 4566,
      "Ġheg": 4567,
      "iyopiya": 4568,
      "Ġbattle": 4569,
      "bar": 4570,
      "Ġmother": 4571,
      "amat": 4572,
      "ele": 4573,
      "Ġyahawe": 4574,
      "uduko": 4575,
      "Ġigih": 4576,
      "Ġorg": 4577,
      "atsindiye": 4578,
      "Ġindic": 4579,
      "Ġhasi": 4580,
      "ĠArt": 4581,
      "Ġmunini": 4582,
      "Ġworks": 4583,
      "Ġruns": 4584,
      "ĠRoyal": 4585,
      "Ġofficial": 4586,
      "Ġaussi": 4587,
      "Ġbye": 4588,
      "Ġcad": 4589,
      "ĠSing": 4590,
      "emba": 4591,
      "ĠThen": 4592,
      "Ġumushinga": 4593,
      "ayer": 4594,
      "ishush": 4595,
      "agaz": 4596,
      "Ġmean": 4597,
      "Ġwriting": 4598,
      "Ġconstruction": 4599,
      "ĠÃ©galement": 4600,
      "Ġcommercial": 4601,
      "Ġavailable": 4602,
      "Ġbice": 4603,
      "Ġsus": 4604,
      "Ġfre": 4605,
      "agera": 4606,
      "ĠCont": 4607,
      "ĠUt": 4608,
      "Ġiserukiramuco": 4609,
      "ĠSudani": 4610,
      "ĠCharles": 4611,
      "ĠRadio": 4612,
      "Ġannounced": 4613,
      "Ak": 4614,
      "ban": 4615,
      "uer": 4616,
      "wer": 4617,
      "Ġbam": 4618,
      "Ġsera": 4619,
      "Ġsinema": 4620,
      "igr": 4621,
      "ĠMat": 4622,
      "Ġumubare": 4623,
      "Ġreach": 4624,
      "och": 4625,
      "Ġrelation": 4626,
      "anks": 4627,
      "ĠCollege": 4628,
      "Ġperformed": 4629,
      "Ġdifficult": 4630,
      "Ã©curitÃ©": 4631,
      "of": 4632,
      "Ġaward": 4633,
      "Ġdam": 4634,
      "ĠMark": 4635,
      "ationale": 4636,
      "estions": 4637,
      "Ġshare": 4638,
      "Ġmail": 4639,
      "Ġahubwo": 4640,
      "Ġbusiness": 4641,
      "error": 4642,
      "ĠMisiri": 4643,
      "15": 4644,
      "ough": 4645,
      "aring": 4646,
      "Ġface": 4647,
      "abat": 4648,
      "uganda": 4649,
      "ubako": 4650,
      "ĠDis": 4651,
      "Ġitatu": 4652,
      "Ġikoreshwa": 4653,
      "Ġcoast": 4654,
      "Ġbecom": 4655,
      "Ġcontract": 4656,
      "Ġpolitical": 4657,
      "aniro": 4658,
      "arura": 4659,
      "Ġcand": 4660,
      "asion": 4661,
      "Ġmuh": 4662,
      "ĠBwongereza": 4663,
      "ariya": 4664,
      "Ġiba": 4665,
      "aps": 4666,
      "issance": 4667,
      "Ġcareful": 4668,
      "ID": 4669,
      "head": 4670,
      "Ġwomen": 4671,
      "Ġcase": 4672,
      "ander": 4673,
      "Ġrace": 4674,
      "Ġtowards": 4675,
      "ĠMas": 4676,
      "Ġpriv": 4677,
      "Ġindirimbo": 4678,
      "Ġgito": 4679,
      "Ġumugore": 4680,
      "ĠJapanese": 4681,
      "Ġtradition": 4682,
      "Ġnyafurika": 4683,
      "Ġbun": 4684,
      "Ġlab": 4685,
      "Ġhit": 4686,
      "Ġgace": 4687,
      "icyo": 4688,
      "Ġtoy": 4689,
      "Ġeby": 4690,
      "Ġngombwa": 4691,
      "Ġexperi": 4692,
      "Amajyepfo": 4693,
      "bs": 4694,
      "Ġbody": 4695,
      "asing": 4696,
      "ĠSC": 4697,
      "ĠPer": 4698,
      "ector": 4699,
      "ieu": 4700,
      "Ġsepar": 4701,
      "Ġchart": 4702,
      "formation": 4703,
      "Ġinyoni": 4704,
      "Ġprofession": 4705,
      "AT": 4706,
      "Ġesc": 4707,
      "ising": 4708,
      "Ġijana": 4709,
      "Ġhost": 4710,
      "ĠBu": 4711,
      "oga": 4712,
      "Ġicya": 4713,
      "Ġworked": 4714,
      "FA": 4715,
      "Ġâ": 4716,
      "arabu": 4717,
      "amah": 4718,
      "Ġinzira": 4719,
      "Ġhot": 4720,
      "ĠMy": 4721,
      "ĠNig": 4722,
      "ateye": 4723,
      "ublic": 4724,
      "Ġfeet": 4725,
      "Ġhistor": 4726,
      "Ġdestroy": 4727,
      "Ġkilled": 4728,
      "Ġconditions": 4729,
      "itiki": 4730,
      "atanga": 4731,
      "imikino": 4732,
      "Ġkujya": 4733,
      "Ġubur": 4734,
      "Ġjenoside": 4735,
      "embre": 4736,
      "yarwandakazi": 4737,
      "Ġ1988": 4738,
      "Ġcouldn": 4739,
      "ĠParis": 4740,
      "Ġcampaign": 4741,
      "Ġpiec": 4742,
      "Ã¹": 4743,
      "urire": 4744,
      "Ġkik": 4745,
      "Ġfut": 4746,
      "abibumbye": 4747,
      "ĠCup": 4748,
      "ĠHag": 4749,
      "Ġvisit": 4750,
      "ample": 4751,
      "Ġebyiri": 4752,
      "ĠMex": 4753,
      "ĠKI": 4754,
      "Ġvuba": 4755,
      "Ġstage": 4756,
      "uvent": 4757,
      "Ġurub": 4758,
      "aragaje": 4759,
      "ĠAfrican": 4760,
      "glement": 4761,
      "arah": 4762,
      "oring": 4763,
      "ĠDes": 4764,
      "Ġitanga": 4765,
      "Ã´le": 4766,
      "Ġamahirwe": 4767,
      "idagaduro": 4768,
      "gen": 4769,
      "hiswe": 4770,
      "ville": 4771,
      "Ġfast": 4772,
      "imvura": 4773,
      "uble": 4774,
      "ĠMet": 4775,
      "ĠKh": 4776,
      "Ġbwinshi": 4777,
      "oki": 4778,
      "Ġfilimi": 4779,
      "199": 4780,
      "Ġuruganda": 4781,
      "uramo": 4782,
      "Ġdont": 4783,
      "ubiligi": 4784,
      "rey": 4785,
      "egura": 4786,
      "Ġabanza": 4787,
      "Ġseven": 4788,
      "Ġage": 4789,
      "Ġassist": 4790,
      "ĠRichard": 4791,
      "Ġtropical": 4792,
      "EC": 4793,
      "itabiriye": 4794,
      "andik": 4795,
      "Ġfly": 4796,
      "imibereho": 4797,
      "abe": 4798,
      "ĠAct": 4799,
      "ĠMart": 4800,
      "ĠSport": 4801,
      "Ġconstit": 4802,
      "Ġheavy": 4803,
      "Ġzah": 4804,
      "omoko": 4805,
      "ĠEnter": 4806,
      "Ġlocated": 4807,
      "Ġmount": 4808,
      "Ġinstead": 4809,
      "ground": 4810,
      "Ġtest": 4811,
      "Ġtax": 4812,
      "itch": 4813,
      "Ġkane": 4814,
      "ĠAp": 4815,
      "akarere": 4816,
      "ĠRy": 4817,
      "ĠNations": 4818,
      "ĠGold": 4819,
      "izuba": 4820,
      "ustri": 4821,
      "autres": 4822,
      "ĠFlor": 4823,
      "Ġcourt": 4824,
      "hiswemo": 4825,
      "aza": 4826,
      "fuye": 4827,
      "Ġx": 4828,
      "Ġmal": 4829,
      "isme": 4830,
      "ĠMil": 4831,
      "ĠYo": 4832,
      "ĠspÃ©c": 4833,
      "atswe": 4834,
      "Ġserved": 4835,
      "Ġengine": 4836,
      "Ġsignificant": 4837,
      "Ġmpamvu": 4838,
      "ĠArmy": 4839,
      "Ġprovided": 4840,
      "Ġubukungu": 4841,
      "Ġurusobe": 4842,
      "ken": 4843,
      "ĠnÃ©": 4844,
      "Ġuz": 4845,
      "ceed": 4846,
      "aph": 4847,
      "Ġproc": 4848,
      "Ġappoint": 4849,
      "count": 4850,
      "Ġautres": 4851,
      "Ġgikombe": 4852,
      "Ġdroits": 4853,
      "Ġthroughout": 4854,
      "arimu": 4855,
      "irst": 4856,
      "Ġdur": 4857,
      "Ġrain": 4858,
      "ĠrÃ¨": 4859,
      "ĠSara": 4860,
      "sey": 4861,
      "ĠJust": 4862,
      "inyoni": 4863,
      "ĠCanad": 4864,
      "ĠGrand": 4865,
      "Ġbroad": 4866,
      "oho": 4867,
      "ror": 4868,
      "uage": 4869,
      "Ġaz": 4870,
      "Ġaver": 4871,
      "Ġcell": 4872,
      "Ġple": 4873,
      "Ġyaf": 4874,
      "ĠCro": 4875,
      "ĠHouse": 4876,
      "Ġpract": 4877,
      "Ġkwita": 4878,
      "Ġ45": 4879,
      "Ġrecogn": 4880,
      "Ġcontre": 4881,
      "Ġ1989": 4882,
      "ference": 4883,
      "ĠAustralian": 4884,
      "urutse": 4885,
      "Ġhash": 4886,
      "Ġyerekana": 4887,
      "omero": 4888,
      "ĠGreen": 4889,
      "ishijwe": 4890,
      "Ġamaze": 4891,
      "odoka": 4892,
      "atsinda": 4893,
      "ĠUnion": 4894,
      "Ġdoit": 4895,
      "Ġterrit": 4896,
      "11": 4897,
      "Ġkun": 4898,
      "Ġrwe": 4899,
      "ĠIS": 4900,
      "ĠMbere": 4901,
      "ĠDesp": 4902,
      "undo": 4903,
      "ĠImy": 4904,
      "imbabwe": 4905,
      "eneye": 4906,
      "RC": 4907,
      "cast": 4908,
      "Ġnu": 4909,
      "asc": 4910,
      "imbere": 4911,
      "ĠAS": 4912,
      "ukana": 4913,
      "ĠDel": 4914,
      "Ġahanini": 4915,
      "utoza": 4916,
      "Ġ1960": 4917,
      "Ġkinyejana": 4918,
      "Ġeventually": 4919,
      "eal": 4920,
      "lement": 4921,
      "à¸": 4922,
      "Ġneg": 4923,
      "Ġinj": 4924,
      "Ġhon": 4925,
      "abanga": 4926,
      "Ġeither": 4927,
      "ĠDir": 4928,
      "Ġibihembo": 4929,
      "Ġubumenyi": 4930,
      "ifs": 4931,
      "Ġbeaut": 4932,
      "unds": 4933,
      "Ġproud": 4934,
      "Ġ300": 4935,
      "Ġsous": 4936,
      "yoboye": 4937,
      "ĠIki": 4938,
      "Ġfourn": 4939,
      "Ġgushaka": 4940,
      "Ġgeneral": 4941,
      "nal": 4942,
      "sy": 4943,
      "ĠsÃ©curitÃ©": 4944,
      "amak": 4945,
      "erewe": 4946,
      "ĠNka": 4947,
      "ĠLo": 4948,
      "ĠPeter": 4949,
      "ĠDon": 4950,
      "uhinde": 4951,
      "asiyo": 4952,
      "ting": 4953,
      "Ġtariki": 4954,
      "itte": 4955,
      "Ġsans": 4956,
      "Ġcours": 4957,
      "Ġfif": 4958,
      "Ġour": 4959,
      "ĠTel": 4960,
      "ungam": 4961,
      "Ġkurinda": 4962,
      "Ġappeared": 4963,
      "sen": 4964,
      "amijwe": 4965,
      "Ġmud": 4966,
      "Ġmup": 4967,
      "agaciro": 4968,
      "Ġyayo": 4969,
      "eck": 4970,
      "ayu": 4971,
      "antes": 4972,
      "ateurs": 4973,
      "Ġkugaragara": 4974,
      "ĠUmubare": 4975,
      "Ġscreen": 4976,
      "erve": 4977,
      "ĠÃ©tait": 4978,
      "Ġugerer": 4979,
      "Ġmoment": 4980,
      "ĠEuropean": 4981,
      "ÃŃ": 4982,
      "Ġpet": 4983,
      "Ġgice": 4984,
      "ĠAward": 4985,
      "ugurwa": 4986,
      "ĠBig": 4987,
      "Ġchange": 4988,
      "Ġndwara": 4989,
      "Ġguhangana": 4990,
      "Ġcrew": 4991,
      "umugezi": 4992,
      "Ġcaused": 4993,
      "wari": 4994,
      "Ġsize": 4995,
      "Ġphy": 4996,
      "ĠMur": 4997,
      "ĠSaint": 4998,
      "ĠKal": 4999,
      "ĠLou": 5000,
      "Ġimit": 5001,
      "Ġ32": 5002,
      "Ġgukura": 5003,
      "ĠIkiganiro": 5004,
      "umunyam": 5005,
      "inyamakuru": 5006,
      "ikoresha": 5007,
      "Ø§Ù": 5008,
      "yd": 5009,
      "Ġbidukikije": 5010,
      "orana": 5011,
      "uburezi": 5012,
      "stant": 5013,
      "Ġleast": 5014,
      "ushinwa": 5015,
      "ĠYag": 5016,
      "Ġ33": 5017,
      "ĠAtlant": 5018,
      "Ġinsp": 5019,
      "Ġkamere": 5020,
      "Ġmight": 5021,
      "Ġniba": 5022,
      "ators": 5023,
      "ĠoÃ¹": 5024,
      "abah": 5025,
      "ĠHot": 5026,
      "Ġbyak": 5027,
      "Ġrecomm": 5028,
      "Ġ187": 5029,
      "Ġyagaragaye": 5030,
      "Ġblock": 5031,
      "Ġibihumbi": 5032,
      "Ġallowed": 5033,
      "Ġcompleted": 5034,
      "Ġlearned": 5035,
      "II": 5036,
      "iwe": 5037,
      "view": 5038,
      "Ġbes": 5039,
      "Ġfailed": 5040,
      "ugari": 5041,
      "entr": 5042,
      "ĠSa": 5043,
      "ibuga": 5044,
      "ĠGame": 5045,
      "ective": 5046,
      "Ġwood": 5047,
      "Ġadministr": 5048,
      "Ġavant": 5049,
      "enced": 5050,
      "Ġikoranabuhanga": 5051,
      "Ġgouvernement": 5052,
      "ishushanyo": 5053,
      "men": 5054,
      "atanzwe": 5055,
      "amar": 5056,
      "imig": 5057,
      "estival": 5058,
      "Ġamaj": 5059,
      "ills": 5060,
      "Ã¨res": 5061,
      "ights": 5062,
      "Ġ--": 5063,
      "ĠAnt": 5064,
      "Ġworking": 5065,
      "umwihariko": 5066,
      "Ġassoci": 5067,
      "Ġhelped": 5068,
      "Ġimyanda": 5069,
      "ergy": 5070,
      "Ġgufasha": 5071,
      "Ġsituation": 5072,
      "ĠUmugezi": 5073,
      "ĠsantÃ©": 5074,
      "ĠBivuye": 5075,
      "Ġloss": 5076,
      "Ġinama": 5077,
      "ĠMag": 5078,
      "ĠMos": 5079,
      "ĠGat": 5080,
      "Ġpolice": 5081,
      "ĠFilm": 5082,
      "hotse": 5083,
      "uy": 5084,
      "Ġbaba": 5085,
      "Ġlack": 5086,
      "abandi": 5087,
      "agon": 5088,
      "ades": 5089,
      "Ġimiterere": 5090,
      "iriya": 5091,
      "uvre": 5092,
      "Ġplayers": 5093,
      "Ġdecl": 5094,
      "zamirimo": 5095,
      "ugged": 5096,
      "Ġhegitari": 5097,
      "Ġsosiyete": 5098,
      "Ġkept": 5099,
      "irimb": 5100,
      "Ġpast": 5101,
      "Ġlors": 5102,
      "ibon": 5103,
      "Ġibindi": 5104,
      "Ġakenshi": 5105,
      "igned": 5106,
      "Ġprotection": 5107,
      "igikira": 5108,
      "BAR": 5109,
      "berg": 5110,
      "Ġdata": 5111,
      "Ġrit": 5112,
      "Ġuv": 5113,
      "Ġhours": 5114,
      "igit": 5115,
      "ĠKan": 5116,
      "ĠDans": 5117,
      "Ġibiro": 5118,
      "indwara": 5119,
      "istic": 5120,
      "ateur": 5121,
      "uvuga": 5122,
      "Ġdisco": 5123,
      "ĠZimbabwe": 5124,
      "medi": 5125,
      "Ġprior": 5126,
      "iyemezamirimo": 5127,
      "Ã¶": 5128,
      "Ġemb": 5129,
      "itation": 5130,
      "Ġfix": 5131,
      "imye": 5132,
      "aby": 5133,
      "weho": 5134,
      "ĠTurukiya": 5135,
      "Ġyaso": 5136,
      "ĠHa": 5137,
      "ĠGushy": 5138,
      "Ġalmost": 5139,
      "anseri": 5140,
      "Ġbwiza": 5141,
      "Ġscene": 5142,
      "issement": 5143,
      "ĠCouncil": 5144,
      "Ġkilatini": 5145,
      "ĠGukoresha": 5146,
      "Ġzishobora": 5147,
      "Ġspeed": 5148,
      "ĠDespite": 5149,
      "zy": 5150,
      "Ġsem": 5151,
      "Ġkare": 5152,
      "Ġgestion": 5153,
      "ĠGod": 5154,
      "ĠPac": 5155,
      "Ġeat": 5156,
      "Ġstar": 5157,
      "iful": 5158,
      "ĠJim": 5159,
      "ĠÃ¢": 5160,
      "Ġrecher": 5161,
      "Ġadop": 5162,
      "gram": 5163,
      "Ġelle": 5164,
      "Ġyashyize": 5165,
      "urikirana": 5166,
      "hoboka": 5167,
      "ps": 5168,
      "Ġlui": 5169,
      "aliya": 5170,
      "ĠTex": 5171,
      "ready": 5172,
      "ĠNyab": 5173,
      "ĠGas": 5174,
      "ĠDep": 5175,
      "Ġsurv": 5176,
      "Ġestim": 5177,
      "ĠZamb": 5178,
      "Ġleader": 5179,
      "Ġbreak": 5180,
      "agazine": 5181,
      "urere": 5182,
      "Ġsection": 5183,
      "Ġsorry": 5184,
      "Ġkit": 5185,
      "inganda": 5186,
      "ĠKab": 5187,
      "ĠJose": 5188,
      "Ġnyoni": 5189,
      "Ġflo": 5190,
      "ĠByahiswemo": 5191,
      "Ã©rie": 5192,
      "ĠMount": 5193,
      "ĠAngel": 5194,
      "Ġpersonnes": 5195,
      "'m": 5196,
      "kn": 5197,
      "Ġesh": 5198,
      "urer": 5199,
      "enam": 5200,
      "Ġyuko": 5201,
      "ĠMod": 5202,
      "umbire": 5203,
      "ĠAriko": 5204,
      "ĠConf": 5205,
      "Ġumutungo": 5206,
      "Ġgushyira": 5207,
      "ĠNtara": 5208,
      "Ġmati": 5209,
      "enes": 5210,
      "Ġkuny": 5211,
      "ility": 5212,
      "igega": 5213,
      "Ġashobora": 5214,
      "bour": 5215,
      "iforn": 5216,
      "Ġmeas": 5217,
      "Ġeconom": 5218,
      "Ġmushinga": 5219,
      "Ġfonction": 5220,
      "ae": 5221,
      "orary": 5222,
      "Ġrir": 5223,
      "Ġizo": 5224,
      "abura": 5225,
      "umubiri": 5226,
      "umuco": 5227,
      "ibution": 5228,
      "avuta": 5229,
      "Ġplaced": 5230,
      "Ġnkuko": 5231,
      "Ġusanga": 5232,
      "Ġguhuza": 5233,
      "erekezo": 5234,
      "ĠAcad": 5235,
      "CC": 5236,
      "It": 5237,
      "ris": 5238,
      "Ġbill": 5239,
      "Ġrather": 5240,
      "Ġizi": 5241,
      "umn": 5242,
      "ashak": 5243,
      "vered": 5244,
      "Ġplann": 5245,
      "Ġens": 5246,
      "Ġkwib": 5247,
      "ĠAmah": 5248,
      "ikiyaga": 5249,
      "amaze": 5250,
      "Ġclimb": 5251,
      "Ġurwego": 5252,
      "ennes": 5253,
      "ĠKingdom": 5254,
      "joy": 5255,
      "Ã¯": 5256,
      "Ġmass": 5257,
      "Ġmeza": 5258,
      "Ġcorr": 5259,
      "irya": 5260,
      "Ġhor": 5261,
      "Ġzimwe": 5262,
      "Ġbear": 5263,
      "Ġ37": 5264,
      "elling": 5265,
      "Ġbyab": 5266,
      "Ġpeak": 5267,
      "Ġweeks": 5268,
      "RE": 5269,
      "mon": 5270,
      "Ġtug": 5271,
      "Ġmis": 5272,
      "Ġnama": 5273,
      "ĠMp": 5274,
      "eland": 5275,
      "oles": 5276,
      "ishuri": 5277,
      "ageze": 5278,
      "ĠVer": 5279,
      "Ġgutunganya": 5280,
      "Ġushobora": 5281,
      "airs": 5282,
      "Ġrunning": 5283,
      "Ġ1970": 5284,
      "Ġfourth": 5285,
      "ĠCommun": 5286,
      "iÃ¨res": 5287,
      "Ġivuga": 5288,
      "40": 5289,
      "Ġmasezerano": 5290,
      "Ġhere": 5291,
      "utions": 5292,
      "ĠSqu": 5293,
      "Ġquestions": 5294,
      "Ġinyuma": 5295,
      "Ġtroops": 5296,
      "Ġmesures": 5297,
      "bikorwa": 5298,
      "yag": 5299,
      "Ġpay": 5300,
      "ĠNet": 5301,
      "Ġcyari": 5302,
      "Ġamb": 5303,
      "ĠYabaye": 5304,
      "akaza": 5305,
      "emble": 5306,
      "Ġnyina": 5307,
      "Ġbato": 5308,
      "Ġ800": 5309,
      "Ġkubaho": 5310,
      "Ġmiliyari": 5311,
      "Ġinstit": 5312,
      "ĠCaliforn": 5313,
      "17": 5314,
      "sa": 5315,
      "ware": 5316,
      "Ã³": 5317,
      "Ġhom": 5318,
      "Ġyi": 5319,
      "utu": 5320,
      "uter": 5321,
      "ikari": 5322,
      "Ġtouch": 5323,
      "ubumwe": 5324,
      "ado": 5325,
      "Ġcyitwa": 5326,
      "Ġimvura": 5327,
      "Ġver": 5328,
      "Ġquel": 5329,
      "Ġbwabo": 5330,
      "Ġscored": 5331,
      "Ġadm": 5332,
      "Ġyakorewe": 5333,
      "Ġoffice": 5334,
      "Ġregard": 5335,
      "Ġinstall": 5336,
      "Ġturned": 5337,
      "ĠÃ©conom": 5338,
      "mar": 5339,
      "ring": 5340,
      "atin": 5341,
      "waye": 5342,
      "ications": 5343,
      "icaro": 5344,
      "ĠAlex": 5345,
      "ugar": 5346,
      "ĠMb": 5347,
      "ĠTour": 5348,
      "ĠGush": 5349,
      "oso": 5350,
      "apt": 5351,
      "Ġalready": 5352,
      "Ġdesc": 5353,
      "cher": 5354,
      "Ġakarere": 5355,
      "Ġ1986": 5356,
      "Ġevents": 5357,
      "Ġproducer": 5358,
      "Ġregular": 5359,
      "angirika": 5360,
      "ĠPresident": 5361,
      "NA": 5362,
      "bor": 5363,
      "heast": 5364,
      "Ġhugged": 5365,
      "wezi": 5366,
      "ĠMid": 5367,
      "ibo": 5368,
      "ĠPour": 5369,
      "Ġcycl": 5370,
      "Ġamag": 5371,
      "Ġarmy": 5372,
      "pped": 5373,
      "Ġbakora": 5374,
      "Ġsort": 5375,
      "Ġdark": 5376,
      "asy": 5377,
      "ential": 5378,
      "ĠCons": 5379,
      "ĠOff": 5380,
      "ĠEg": 5381,
      "Ġnovel": 5382,
      "Ġparike": 5383,
      "Ġshot": 5384,
      "Ġcyose": 5385,
      "igaye": 5386,
      "Ġminutes": 5387,
      "Ġmaguru": 5388,
      "Ġfeatured": 5389,
      "Ġdiscuss": 5390,
      "ĠEtiyopiya": 5391,
      "Ġze": 5392,
      "Ġrufite": 5393,
      "Ġfish": 5394,
      "ibu": 5395,
      "ibiti": 5396,
      "ansi": 5397,
      "ĠIdirishya": 5398,
      "Ġwatch": 5399,
      "Ġoccup": 5400,
      "Ġigitego": 5401,
      "Ġvotre": 5402,
      "ned": 5403,
      "oon": 5404,
      "Ġbuhinzi": 5405,
      "icles": 5406,
      "ĠBest": 5407,
      "iburasirazuba": 5408,
      "ĠGis": 5409,
      "Ġimm": 5410,
      "Ġconduc": 5411,
      "Ġparents": 5412,
      "Ġpartie": 5413,
      "Ġguhera": 5414,
      "Ġingamba": 5415,
      "Ġslow": 5416,
      "ĠWhite": 5417,
      "Ġsometimes": 5418,
      "hohoterwa": 5419,
      "Ġcadre": 5420,
      "ezweho": 5421,
      "angano": 5422,
      "Ġcry": 5423,
      "ĠAziya": 5424,
      "ivu": 5425,
      "Ġconfl": 5426,
      "Ġnouv": 5427,
      "iste": 5428,
      "artment": 5429,
      "Ġcha": 5430,
      "elled": 5431,
      "Ġcoup": 5432,
      "ombya": 5433,
      "uringanire": 5434,
      "Ġremov": 5435,
      "Ġamashanyarazi": 5436,
      "enny": 5437,
      "ĠAdd": 5438,
      "ĠrÃ©gion": 5439,
      "RI": 5440,
      "Ur": 5441,
      "Ä±": 5442,
      "Ġaya": 5443,
      "Ġmem": 5444,
      "Ġmoy": 5445,
      "Ġbyam": 5446,
      "orter": 5447,
      "Ġlength": 5448,
      "uni": 5449,
      "Ġbyib": 5450,
      "Ġumu": 5451,
      "ava": 5452,
      "iller": 5453,
      "Ġprais": 5454,
      "Ġbwag": 5455,
      "Ġbitatu": 5456,
      "Ġntangiriro": 5457,
      "anches": 5458,
      "Ġinterest": 5459,
      "Ã©tÃ©": 5460,
      "ĠTimes": 5461,
      "Ġamarushanwa": 5462,
      "ĠVirgin": 5463,
      "Ġbaturage": 5464,
      "Ġuwa": 5465,
      "Ġformed": 5466,
      "Int": 5467,
      "nt": 5468,
      "Ġlive": 5469,
      "igenga": 5470,
      "ĠServ": 5471,
      "Ġreve": 5472,
      "Ġ),": 5473,
      "Ġju": 5474,
      "Ġbigira": 5475,
      "Ġrelig": 5476,
      "Ġelements": 5477,
      "Ġvoice": 5478,
      "Ġbomb": 5479,
      "arira": 5480,
      "Ġlines": 5481,
      "Ġge": 5482,
      "yose": 5483,
      "ivent": 5484,
      "ĠGreat": 5485,
      "Ġvoc": 5486,
      "aines": 5487,
      "Ġplans": 5488,
      "Ġenough": 5489,
      "Ġenjoy": 5490,
      "ĠUmwand": 5491,
      "Ġord": 5492,
      "Ġamashusho": 5493,
      "Ġminist": 5494,
      "ype": 5495,
      "Ġcapac": 5496,
      "ĠMusic": 5497,
      "Ġburasirazuba": 5498,
      "onne": 5499,
      "atse": 5500,
      "Ġwife": 5501,
      "Ġsession": 5502,
      "ases": 5503,
      "Ġfoc": 5504,
      "iced": 5505,
      "odes": 5506,
      "chie": 5507,
      "obal": 5508,
      "aturutse": 5509,
      "Ġhagamijwe": 5510,
      "Ġzifite": 5511,
      "ĠOpen": 5512,
      "18": 5513,
      "DE": 5514,
      "NT": 5515,
      "Ġess": 5516,
      "Ġmisozi": 5517,
      "Ġnatur": 5518,
      "Ġrail": 5519,
      "ubushakashatsi": 5520,
      "ĠMaj": 5521,
      "ĠKore": 5522,
      "Ġ\"%": 5523,
      "ĠLim": 5524,
      "ĠGah": 5525,
      "Ġumwaka": 5526,
      "ĠOb": 5527,
      "ĠEv": 5528,
      "Ġniyo": 5529,
      "uzuma": 5530,
      "ĠUbw": 5531,
      "Ġcourse": 5532,
      "Ġjoined": 5533,
      "Ġsaying": 5534,
      "Ġbucuruzi": 5535,
      "unk": 5536,
      "Ġimibereho": 5537,
      "Ġabs": 5538,
      "Ġikomeye": 5539,
      "Ġpred": 5540,
      "Ġmph": 5541,
      "Ġirimo": 5542,
      "yakora": 5543,
      "Ġbrother": 5544,
      "ĠreprÃ©sent": 5545,
      "ĠMcC": 5546,
      "ĠSuddenly": 5547,
      "ĠChristian": 5548,
      "west": 5549,
      "Ġ*": 5550,
      "Ġtaking": 5551,
      "omer": 5552,
      "abara": 5553,
      "ubira": 5554,
      "ĠCho": 5555,
      "Ġibara": 5556,
      "ungirije": 5557,
      "ĠJer": 5558,
      "irek": 5559,
      "Ġyitabiriye": 5560,
      "Ġnetwork": 5561,
      "umanaho": 5562,
      "ĠGufungura": 5563,
      "MS": 5564,
      "lier": 5565,
      "ineti": 5566,
      "eneg": 5567,
      "ĠpÃ©ri": 5568,
      "avu": 5569,
      "egonda": 5570,
      "uzwe": 5571,
      "Ġ38": 5572,
      "ughter": 5573,
      "iterwa": 5574,
      "Ġsubsequ": 5575,
      "Ġnibwo": 5576,
      "Ġyakozwe": 5577,
      "Ġsky": 5578,
      "Ġreplaced": 5579,
      "Ġnyamukuru": 5580,
      "Ġclear": 5581,
      "Ġrelationship": 5582,
      "Ġfill": 5583,
      "Ġfell": 5584,
      "umur": 5585,
      "ĠRug": 5586,
      "ĠHall": 5587,
      "Ġibitekerezo": 5588,
      "Ġenviron": 5589,
      "Ġsuppl": 5590,
      "iziya": 5591,
      "Ġlonger": 5592,
      "Ġdemande": 5593,
      "Ġdroit": 5594,
      "ĠBrown": 5595,
      "IT": 5596,
      "ount": 5597,
      "Ġtreat": 5598,
      "Ġako": 5599,
      "Ġpa": 5600,
      "ams": 5601,
      "ugurura": 5602,
      "igeze": 5603,
      "acyo": 5604,
      "ĠFirst": 5605,
      "Ġubuhinzi": 5606,
      "Ġakina": 5607,
      "geze": 5608,
      "Ġleading": 5609,
      "ĠGuverinoma": 5610,
      "Ġarrived": 5611,
      "Ġbyatumye": 5612,
      "Ġbed": 5613,
      "amini": 5614,
      "Ġgato": 5615,
      "umuc": 5616,
      "aded": 5617,
      "ĠNot": 5618,
      "Ġfort": 5619,
      "Ġvie": 5620,
      "change": 5621,
      "onnement": 5622,
      "ĠIshami": 5623,
      "onyine": 5624,
      "Ġclean": 5625,
      "ororombya": 5626,
      "Ġprojet": 5627,
      "Ġaverage": 5628,
      "Ġcause": 5629,
      "ige": 5630,
      "ĠNous": 5631,
      "Ġumub": 5632,
      "rier": 5633,
      "ipl": 5634,
      "engo": 5635,
      "ella": 5636,
      "Ġaccount": 5637,
      "Ġminisit": 5638,
      "Ġstudio": 5639,
      "Ġurugero": 5640,
      "ĠRussi": 5641,
      "Amajyaruguru": 5642,
      "cu": 5643,
      "Ġayo": 5644,
      "Ġwese": 5645,
      "Ġtoutes": 5646,
      "ĠMak": 5647,
      "ĠTw": 5648,
      "ĠCat": 5649,
      "ĠKn": 5650,
      "Ġimpl": 5651,
      "ston": 5652,
      "Ġdesp": 5653,
      "Ġexample": 5654,
      "Ġ1987": 5655,
      "yoboro": 5656,
      "Ġguns": 5657,
      "ĠnÃ©cess": 5658,
      "oire": 5659,
      "ving": 5660,
      "heje": 5661,
      "Ġmise": 5662,
      "Ġrih": 5663,
      "Ġperezida": 5664,
      "Ġlot": 5665,
      "ĠRay": 5666,
      "ĠRock": 5667,
      "ĠOk": 5668,
      "ungwa": 5669,
      "Ġreally": 5670,
      "ellement": 5671,
      "Ġgutwara": 5672,
      "ĠAssociation": 5673,
      "ĠdonnÃ©es": 5674,
      "ĠCourt": 5675,
      "Ġdone": 5676,
      "Ġpen": 5677,
      "ĠMic": 5678,
      "ĠSl": 5679,
      "ĠBug": 5680,
      "ushaho": 5681,
      "Ġprint": 5682,
      "ĠUmwanya": 5683,
      "Ġgukoreshwa": 5684,
      "Ġ75": 5685,
      "Ġ1984": 5686,
      "ohora": 5687,
      "anyijwe": 5688,
      "Ġgenerally": 5689,
      "mbwe": 5690,
      "Ġsouthern": 5691,
      "amadolari": 5692,
      "Ġestablished": 5693,
      "Ġkuzamura": 5694,
      "Ġgarden": 5695,
      "ception": 5696,
      "ĠmatiÃ¨re": 5697,
      "sel": 5698,
      "anuka": 5699,
      "Ġsource": 5700,
      "ĠdÃ©s": 5701,
      "ĠIsi": 5702,
      "ĠMr": 5703,
      "adron": 5704,
      "Ġcyongereza": 5705,
      "Ġforced": 5706,
      "ips": 5707,
      "ukoko": 5708,
      "Ġpouv": 5709,
      "ĠNyir": 5710,
      "Ġbelieved": 5711,
      "bsp": 5712,
      "enant": 5713,
      "Ġswe": 5714,
      "unch": 5715,
      "igation": 5716,
      "emura": 5717,
      "ibles": 5718,
      "Ġumujyi": 5719,
      "tera": 5720,
      "eganijwe": 5721,
      "uzanyo": 5722,
      "Ġprec": 5723,
      "eries": 5724,
      "Ġtry": 5725,
      "Ġkwerekana": 5726,
      "order": 5727,
      "Ġsuffer": 5728,
      "ittee": 5729,
      "ĠAcademy": 5730,
      "more": 5731,
      "Ãĥ": 5732,
      "Ġapr": 5733,
      "Ġban": 5734,
      "amment": 5735,
      "ivuga": 5736,
      "ashi": 5737,
      "Ġjus": 5738,
      "Ġjob": 5739,
      "Ġrwiyemezamirimo": 5740,
      "Ġmpera": 5741,
      "Ġizindi": 5742,
      "Ġspecific": 5743,
      "Ġdesigned": 5744,
      "Ġdamage": 5745,
      "TV": 5746,
      "Ġtub": 5747,
      "het": 5748,
      "alked": 5749,
      "abera": 5750,
      "uburyo": 5751,
      "ĠMah": 5752,
      "yif": 5753,
      "article": 5754,
      "Ġsea": 5755,
      "Ġsoit": 5756,
      "Ġgukomeza": 5757,
      "ĠUburenganzira": 5758,
      "Ġaha": 5759,
      "Ġround": 5760,
      "ĠcrÃ©": 5761,
      "engeje": 5762,
      "ĠKubera": 5763,
      "ĠIntara": 5764,
      "Ġchanges": 5765,
      "Ġzahabu": 5766,
      "ZWE": 5767,
      "ci": 5768,
      "ez": 5769,
      "xy": 5770,
      "Ġazwi": 5771,
      "Ġnzu": 5772,
      "Ġnzira": 5773,
      "irane": 5774,
      "abye": 5775,
      "Ã©v": 5776,
      "ubuhanzi": 5777,
      "ĠMuh": 5778,
      "ĠByose": 5779,
      "ĠGishya": 5780,
      "arizwa": 5781,
      "nex": 5782,
      "Ġimyuka": 5783,
      "Ġnabi": 5784,
      "Ġgushyiraho": 5785,
      "Ġmirongo": 5786,
      "Ġkumenya": 5787,
      "OR": 5788,
      "dd": 5789,
      "ef": 5790,
      "ua": 5791,
      "Ġtable": 5792,
      "hest": 5793,
      "una": 5794,
      "ĠAri": 5795,
      "ĠCe": 5796,
      "ibis": 5797,
      "lymp": 5798,
      "Ġashy": 5799,
      "engero": 5800,
      "ously": 5801,
      "icket": 5802,
      "ĠIhitamo": 5803,
      "Ġmarket": 5804,
      "Ġutilis": 5805,
      "iant": 5806,
      "yes": 5807,
      "Ġaudi": 5808,
      "abas": 5809,
      "umira": 5810,
      "ĠTwo": 5811,
      "ĠTown": 5812,
      "ĠSahara": 5813,
      "ĠRom": 5814,
      "ĠPo": 5815,
      "ĠJane": 5816,
      "Ġnke": 5817,
      "Ġfiles": 5818,
      "ĠChampionship": 5819,
      "ĠFrank": 5820,
      "ĠScott": 5821,
      "orps": 5822,
      "ĠHagati": 5823,
      "Ġbeautiful": 5824,
      "oye": 5825,
      "Ġpil": 5826,
      "ĠUp": 5827,
      "ulf": 5828,
      "Ġumuc": 5829,
      "Ġikinamico": 5830,
      "Ġtrib": 5831,
      "Ġ36": 5832,
      "Ġagreed": 5833,
      "Ġururimi": 5834,
      "annel": 5835,
      "Ġpositive": 5836,
      "ĠProgram": 5837,
      "ĠJoseph": 5838,
      "Ġnyab": 5839,
      "ands": 5840,
      "Ġtoute": 5841,
      "ĠLt": 5842,
      "Ġstep": 5843,
      "Ġubwa": 5844,
      "Ġubundi": 5845,
      "ashinzwe": 5846,
      "ĠWestern": 5847,
      "apuro": 5848,
      "ĠUbus": 5849,
      "Ġcontact": 5850,
      "akoze": 5851,
      "Ġshowed": 5852,
      "ĠactivitÃ©s": 5853,
      "GEZWE": 5854,
      "Ġoriginally": 5855,
      "Ġproduits": 5856,
      "ĠKIGEZWE": 5857,
      "ĠKIGEZWEHO": 5858,
      "UN": 5859,
      "aye": 5860,
      "anisha": 5861,
      "urubyiruko": 5862,
      "Ġnive": 5863,
      "Ġkor": 5864,
      "ĠIj": 5865,
      "ĠAba": 5866,
      "Ġsequ": 5867,
      "Ġ34": 5868,
      "Ġacqu": 5869,
      "ears": 5870,
      "ĠAfite": 5871,
      "Ġntara": 5872,
      "ĠImana": 5873,
      "ĠIndian": 5874,
      "Ġhands": 5875,
      "Ġnshya": 5876,
      "ĠSeriv": 5877,
      "ĠCompany": 5878,
      "16": 5879,
      "fect": 5880,
      "wiriza": 5881,
      "Ġaza": 5882,
      "Ġkanseri": 5883,
      "iraga": 5884,
      "Ġlots": 5885,
      "imit": 5886,
      "ĠRub": 5887,
      "antry": 5888,
      "Ġibice": 5889,
      "ĠFollow": 5890,
      "endant": 5891,
      "ĠInstit": 5892,
      "ĠAlbert": 5893,
      "Ġguhindura": 5894,
      "ĠArab": 5895,
      "Ġformation": 5896,
      "Ġminor": 5897,
      "ubwoko": 5898,
      "Abanya": 5899,
      "leyball": 5900,
      "ienne": 5901,
      "Ġmoins": 5902,
      "ubukerarugendo": 5903,
      "Ġlisten": 5904,
      "Ġdeterm": 5905,
      "Ġpersonal": 5906,
      "ungamubiri": 5907,
      ".âĢĿ": 5908,
      "Ar": 5909,
      "SA": 5910,
      "ta": 5911,
      "Ġbay": 5912,
      "uranga": 5913,
      "Ġnice": 5914,
      "Ġnature": 5915,
      "Ġwor": 5916,
      "Ġsiy": 5917,
      "Ġriver": 5918,
      "abuzi": 5919,
      "ĠSim": 5920,
      "Ġenf": 5921,
      "Ġexpress": 5922,
      "Ġspace": 5923,
      "Ġguhagar": 5924,
      "Ġcommission": 5925,
      "ĠForce": 5926,
      "ĠIII": 5927,
      "Ġeduc": 5928,
      "Ġreduc": 5929,
      "Ġcritics": 5930,
      "Ġpolitique": 5931,
      "ĠBattle": 5932,
      "Ġsusp": 5933,
      "Ġcor": 5934,
      "ĠAut": 5935,
      "ubak": 5936,
      "ĠCong": 5937,
      "ols": 5938,
      "Ġforest": 5939,
      "Ġvert": 5940,
      "ify": 5941,
      "ĠprÃ©c": 5942,
      "erekeza": 5943,
      "Ġdoor": 5944,
      "Uburayi": 5945,
      "Ġdress": 5946,
      "Ġsubject": 5947,
      "Ġhighway": 5948,
      "yobwa": 5949,
      "ohoka": 5950,
      "ĠaprÃ¨s": 5951,
      "Â©": 5952,
      "atory": 5953,
      "Ġyeme": 5954,
      "ubatsi": 5955,
      "igne": 5956,
      "ĠNavy": 5957,
      "ĠJenoside": 5958,
      "endera": 5959,
      "Ġkwishy": 5960,
      "ĠIbikorwa": 5961,
      "Ġscript": 5962,
      "Ġadvent": 5963,
      "Ġsurface": 5964,
      "anced": 5965,
      "Ġcenter": 5966,
      "Ġearlier": 5967,
      "Ġopening": 5968,
      "ription": 5969,
      "ĠKurema": 5970,
      "Ġpremier": 5971,
      "Ġhurricane": 5972,
      "13": 5973,
      "TA": 5974,
      "inated": 5975,
      "Ġmoney": 5976,
      "uriki": 5977,
      "arg": 5978,
      "itangazamakuru": 5979,
      "Ġsens": 5980,
      "Ġkid": 5981,
      "Ġspent": 5982,
      "inner": 5983,
      "ĠAnn": 5984,
      "ekin": 5985,
      "Ġngufi": 5986,
      "Ġfilms": 5987,
      "Ġrequired": 5988,
      "Ġneeded": 5989,
      "Ġadditional": 5990,
      "ĠKagame": 5991,
      "PA": 5992,
      "put": 5993,
      "wenge": 5994,
      "Ġnbsp": 5995,
      "edy": 5996,
      "Ġpict": 5997,
      "ikin": 5998,
      "unes": 5999,
      "igori": 6000,
      "ĠSil": 6001,
      "ends": 6002,
      "Ġseul": 6003,
      "Ġtraining": 6004,
      "uvuduko": 6005,
      "Ġnyanja": 6006,
      "Ġicumi": 6007,
      "Ġitself": 6008,
      "Ġcanad": 6009,
      "venue": 6010,
      "yemewe": 6011,
      "ability": 6012,
      "ĠAngola": 6013,
      "Ġinvolved": 6014,
      "Ġparticularly": 6015,
      "ibonano": 6016,
      "urirwa": 6017,
      "Ġwah": 6018,
      "irimba": 6019,
      "Ġress": 6020,
      "ubushyuhe": 6021,
      "ĠOlymp": 6022,
      "Ġahag": 6023,
      "Ġinganda": 6024,
      "etty": 6025,
      "Ġblue": 6026,
      "Ġsigned": 6027,
      "Ġordered": 6028,
      "Ġlargest": 6029,
      "con": 6030,
      "Ġ+": 6031,
      "Ġnuko": 6032,
      "Ġsisitemu": 6033,
      "Ġcur": 6034,
      "Ġhig": 6035,
      "ĠAho": 6036,
      "agara": 6037,
      "olf": 6038,
      "Ġisland": 6039,
      "ĠDE": 6040,
      "aries": 6041,
      "Ġubumwe": 6042,
      "apfa": 6043,
      "Ġikir": 6044,
      "Ġikiyaga": 6045,
      "Ġbatuye": 6046,
      "ĠIkiyaga": 6047,
      "Ãªt": 6048,
      "Ġaccording": 6049,
      "ustry": 6050,
      "ĠPlay": 6051,
      "inte": 6052,
      "Ġbana": 6053,
      "Ġika": 6054,
      "Ġphot": 6055,
      "amer": 6056,
      "imerere": 6057,
      "ila": 6058,
      "ĠKay": 6059,
      "ĠOut": 6060,
      "occ": 6061,
      "ĠIbara": 6062,
      "Ġgoal": 6063,
      "Ġishyamba": 6064,
      "Ġ1985": 6065,
      "Ãªtre": 6066,
      "Ġbeginning": 6067,
      "Ġlocation": 6068,
      "ĠIcyo": 6069,
      "Ġresponse": 6070,
      "Ġmashuri": 6071,
      "Ġstatus": 6072,
      "ĠSmith": 6073,
      "Ġfolder": 6074,
      "ĠFollowing": 6075,
      "nel": 6076,
      "Ġafr": 6077,
      "Ġmach": 6078,
      "onko": 6079,
      "ĠTor": 6080,
      "ĠTun": 6081,
      "Ġnouve": 6082,
      "embl": 6083,
      "Ġuruk": 6084,
      "Ġ186": 6085,
      "inct": 6086,
      "ĠRoute": 6087,
      "icyiciro": 6088,
      "Ġparticul": 6089,
      "Ġzikomeye": 6090,
      "Ġcommunaut": 6091,
      "Ġcollect": 6092,
      "Ġsupported": 6093,
      "ĠCenter": 6094,
      "ĠError": 6095,
      "Ġsafe": 6096,
      "ecutive": 6097,
      "fall": 6098,
      "Ġmic": 6099,
      "Ġbabo": 6100,
      "Ġnig": 6101,
      "Ġnine": 6102,
      "Ġkg": 6103,
      "isse": 6104,
      "Ġfunction": 6105,
      "ĠMia": 6106,
      "ĠPri": 6107,
      "ĠEs": 6108,
      "apa": 6109,
      "izab": 6110,
      "Ġindepend": 6111,
      "Ġgrad": 6112,
      "Ġabove": 6113,
      "ĠÃ©tabl": 6114,
      "ĠIsland": 6115,
      "Ġcontribut": 6116,
      "Ġyegukanye": 6117,
      "ubahiro": 6118,
      "25": 6119,
      "St": 6120,
      "ining": 6121,
      "Ġwu": 6122,
      "Ġsure": 6123,
      "imet": 6124,
      "ĠKamp": 6125,
      "tered": 6126,
      "Ġstore": 6127,
      "Ġstates": 6128,
      "ĠYar": 6129,
      "Ã©sident": 6130,
      "Ġ47": 6131,
      "urwayi": 6132,
      "Ġgucunga": 6133,
      "erageza": 6134,
      "ĠVirginia": 6135,
      "ĠUmwandiko": 6136,
      "Ġer": 6137,
      "anish": 6138,
      "Ġbow": 6139,
      "Ġborn": 6140,
      "Ġself": 6141,
      "Ġyaba": 6142,
      "ecess": 6143,
      "Ġkuh": 6144,
      "ĠPorogaramu": 6145,
      "ĠDa": 6146,
      "Ġstars": 6147,
      "Ġplant": 6148,
      "Ġgukinira": 6149,
      "ĠIbik": 6150,
      "Ġparag": 6151,
      "Ġresearch": 6152,
      "Ġfinally": 6153,
      "Ġcarried": 6154,
      "Ġcred": 6155,
      "Ġtemps": 6156,
      "Ġinitially": 6157,
      "ĠMarie": 6158,
      "ĠSuper": 6159,
      "Ġnorthern": 6160,
      "Ġfuture": 6161,
      "Ġrecherche": 6162,
      "Ġpraised": 6163,
      "bwa": 6164,
      "ji": 6165,
      "ni": 6166,
      "anes": 6167,
      "Ġbike": 6168,
      "angijwe": 6169,
      "Ġthreat": 6170,
      "ĠHow": 6171,
      "Ġimaze": 6172,
      "rian": 6173,
      "uzwa": 6174,
      "Ġafin": 6175,
      "iale": 6176,
      "ails": 6177,
      "Ġpercent": 6178,
      "Ġentire": 6179,
      "aragaro": 6180,
      "Ġnabyo": 6181,
      "Ġkwag": 6182,
      "Ġvalue": 6183,
      "Ġwhether": 6184,
      "Ġinstr": 6185,
      "leg": 6186,
      "Ġanc": 6187,
      "Ġjud": 6188,
      "Ġnyir": 6189,
      "Ġparts": 6190,
      "ĠAbd": 6191,
      "ĠAbaturage": 6192,
      "Ġishize": 6193,
      "imbuto": 6194,
      "Ġtransfer": 6195,
      "ĠsystÃ¨me": 6196,
      "ĠrÃ©sult": 6197,
      "ibility": 6198,
      "Ġijambo": 6199,
      "chen": 6200,
      "out": 6201,
      "arily": 6202,
      "Ġword": 6203,
      "Ġcivil": 6204,
      "Ġpath": 6205,
      "Ġgold": 6206,
      "umuri": 6207,
      "Ġdeep": 6208,
      "Ġibihe": 6209,
      "ĠChurch": 6210,
      "Ġumutekano": 6211,
      "Ġconcert": 6212,
      "Ġdirector": 6213,
      "Ġappearance": 6214,
      "Ġangry": 6215,
      "Ġmateka": 6216,
      "orer": 6217,
      "ĠCast": 6218,
      "ĠKib": 6219,
      "ĠHarr": 6220,
      "ĠYa": 6221,
      "ĠUmuh": 6222,
      "iyani": 6223,
      "Ġintens": 6224,
      "prises": 6225,
      "Ġinterineti": 6226,
      "Ġbirashobora": 6227,
      "Ġcentral": 6228,
      "Ġsitu": 6229,
      "Ġconfir": 6230,
      "Ġamasomo": 6231,
      "ĠInyandiko": 6232,
      "ĠJackson": 6233,
      "Ġinshingano": 6234,
      "ĠLimited": 6235,
      "back": 6236,
      "set": 6237,
      "vuga": 6238,
      "Ġbumwe": 6239,
      "Ġwoman": 6240,
      "Ġdig": 6241,
      "Ġpage": 6242,
      "Ġpaint": 6243,
      "Ġlink": 6244,
      "Ġgar": 6245,
      "oms": 6246,
      "well": 6247,
      "umuga": 6248,
      "ĠCa": 6249,
      "ĠNair": 6250,
      "Ġhealth": 6251,
      "appl": 6252,
      "Ġquar": 6253,
      "Ġcyabo": 6254,
      "Ġsearch": 6255,
      "Ġkwiyongera": 6256,
      "Ġndangam": 6257,
      "Ġavoir": 6258,
      "ĠdÃ©l": 6259,
      "Ġcompte": 6260,
      "Ġmubikorwa": 6261,
      "Ġended": 6262,
      "Ġmurima": 6263,
      "Ġumugabo": 6264,
      "Ġwinds": 6265,
      "ĠCentre": 6266,
      "vironnement": 6267,
      "ĠYakinnye": 6268,
      "abagabo": 6269,
      "Ġinyamaswa": 6270,
      "Ġbeso": 6271,
      "ĠZambiya": 6272,
      "Ġparagrap": 6273,
      "IC": 6274,
      "Ġbac": 6275,
      "Ġkirek": 6276,
      "Ġder": 6277,
      "Ġpal": 6278,
      "ĠApp": 6279,
      "entes": 6280,
      "Ġisosiyete": 6281,
      "Ġabakozi": 6282,
      "Ġkugenzura": 6283,
      "Ġ48": 6284,
      "Ġ55": 6285,
      "Ġavait": 6286,
      "anna": 6287,
      "ĠrÃ©al": 6288,
      "erwaho": 6289,
      "Ġpassed": 6290,
      "ĠComitÃ©": 6291,
      "Ġbooks": 6292,
      "Ġdivision": 6293,
      "Ġstopped": 6294,
      "ĠTeam": 6295,
      "Ġkirekire": 6296,
      "14": 6297,
      "po": 6298,
      "ĠÑ": 6299,
      "Ġtere": 6300,
      "Ġnos": 6301,
      "Ġwestern": 6302,
      "Ġsave": 6303,
      "Ġkab": 6304,
      "Ġlower": 6305,
      "Ġhous": 6306,
      "agne": 6307,
      "iburengerazuba": 6308,
      "Ġimmedi": 6309,
      "Ġnawe": 6310,
      "avuga": 6311,
      "indur": 6312,
      "shasa": 6313,
      "Ã¨mes": 6314,
      "clus": 6315,
      "Ġumwuka": 6316,
      "Ãªte": 6317,
      "orning": 6318,
      "Ġchose": 6319,
      "Ġtoni": 6320,
      "anding": 6321,
      "Ġpaper": 6322,
      "ĠIri": 6323,
      "iling": 6324,
      "wel": 6325,
      "ĠCop": 6326,
      "ĠKr": 6327,
      "ĠKivu": 6328,
      "ĠRem": 6329,
      "Ġasp": 6330,
      "Ġkwinjira": 6331,
      "embe": 6332,
      "ujy": 6333,
      "Ġ1982": 6334,
      "ĠdiffÃ©r": 6335,
      "Ġgroups": 6336,
      "Ġstandard": 6337,
      "Ġfeeling": 6338,
      "Ġamazu": 6339,
      "Ġlanguage": 6340,
      "ĠIbisobanuro": 6341,
      "Ġstructure": 6342,
      "ĠFrancis": 6343,
      "ĠCalifornia": 6344,
      "Ġhighest": 6345,
      "23": 6346,
      "Isi": 6347,
      "bu": 6348,
      "iation": 6349,
      "Ġmention": 6350,
      "Ġsimp": 6351,
      "using": 6352,
      "rol": 6353,
      "Ġibik": 6354,
      "Ġuburezi": 6355,
      "ĠJew": 6356,
      "Ġtrain": 6357,
      "ĠUbumwe": 6358,
      "ĠdÃ©cl": 6359,
      "Ġwhose": 6360,
      "Ġyakin": 6361,
      "Ġflag": 6362,
      "Ġpresident": 6363,
      "umugabo": 6364,
      "ĠIntego": 6365,
      "Ġvillage": 6366,
      "ĠLtd": 6367,
      "anone": 6368,
      "Ġwamaguru": 6369,
      "Ġinzu": 6370,
      "aled": 6371,
      "ĠAth": 6372,
      "ubuvuzi": 6373,
      "ĠMel": 6374,
      "ĠBoy": 6375,
      "rog": 6376,
      "acing": 6377,
      "ulated": 6378,
      "Ġabiri": 6379,
      "Ġnotre": 6380,
      "ĠAmaz": 6381,
      "Ġbwab": 6382,
      "Ġbigatuma": 6383,
      "itting": 6384,
      "Ġremaining": 6385,
      "Ġ150": 6386,
      "ĠIshuri": 6387,
      "Ġprogress": 6388,
      "ĠGermany": 6389,
      "rief": 6390,
      "ĠParty": 6391,
      "ĠVictoria": 6392,
      "'.": 6393,
      "han": 6394,
      "nes": 6395,
      "ser": 6396,
      "Ġtakes": 6397,
      "Ġmer": 6398,
      "ĠmÃ©d": 6399,
      "itude": 6400,
      "Ġwide": 6401,
      "Ġrend": 6402,
      "Ġrumwe": 6403,
      "etball": 6404,
      "ĠMany": 6405,
      "ĠColl": 6406,
      "idents": 6407,
      "ĠRoman": 6408,
      "ĠUK": 6409,
      "olly": 6410,
      "ĠLos": 6411,
      "Ġbyerekana": 6412,
      "Ġgutsinda": 6413,
      "Ġiryo": 6414,
      "Ġloud": 6415,
      "Ġbarimo": 6416,
      "Ġzif": 6417,
      "Ġactive": 6418,
      "Ġcentre": 6419,
      "amashuri": 6420,
      "Ġrugo": 6421,
      "Ġteleviziyo": 6422,
      "Ġkwiruka": 6423,
      "Ġcandid": 6424,
      "ĠNairobi": 6425,
      ":.": 6426,
      "iance": 6427,
      "Ġburengerazuba": 6428,
      "uration": 6429,
      "itwar": 6430,
      "ikwa": 6431,
      "Ġyaho": 6432,
      "ĠHill": 6433,
      "ĠWal": 6434,
      "unge": 6435,
      "ogo": 6436,
      "itsinda": 6437,
      "ducation": 6438,
      "Ġyatangaje": 6439,
      "ĠPrem": 6440,
      "Ġhigher": 6441,
      "Ġautom": 6442,
      "enseign": 6443,
      "Ġdebut": 6444,
      "Ġdespite": 6445,
      "mark": 6446,
      "where": 6447,
      "Ġbim": 6448,
      "Ġcart": 6449,
      "ĠlÃ©g": 6450,
      "ingaruka": 6451,
      "ĠSom": 6452,
      "Ġumuco": 6453,
      "onger": 6454,
      "ifi": 6455,
      "Ġsoft": 6456,
      "Ġbita": 6457,
      "Ġ49": 6458,
      "Ġkurusha": 6459,
      "Ġbirori": 6460,
      "ĠUrub": 6461,
      "inyanja": 6462,
      "Ġyabonye": 6463,
      "ĠWhat": 6464,
      "Ġcomplete": 6465,
      "ishobo": 6466,
      "Ġcountries": 6467,
      "ĠSeneg": 6468,
      "Ġintroduced": 6469,
      "22": 6470,
      "bit": 6471,
      "da": 6472,
      "eff": 6473,
      "oya": 6474,
      "ster": 6475,
      "Ġachie": 6476,
      "atera": 6477,
      "amama": 6478,
      "ĠCape": 6479,
      "ĠNY": 6480,
      "ĠLake": 6481,
      "Ġbyar": 6482,
      "Ġiminsi": 6483,
      "Ġziterwa": 6484,
      "ĠOther": 6485,
      "Ġcyam": 6486,
      "Ġigis": 6487,
      "Ġmaxim": 6488,
      "Ġscient": 6489,
      "ĠMinist": 6490,
      "Ġincreased": 6491,
      "forc": 6492,
      "WA": 6493,
      "Ġ\\": 6494,
      "orial": 6495,
      "Ġsand": 6496,
      "ĠIy": 6497,
      "Ġimishinga": 6498,
      "Ġziri": 6499,
      "Ġzabo": 6500,
      "Ġbeh": 6501,
      "undu": 6502,
      "ĠIbyo": 6503,
      "atique": 6504,
      "inyuranye": 6505,
      "Ġmugabane": 6506,
      "Ġmodel": 6507,
      "Ġils": 6508,
      "Ġarrang": 6509,
      "Ġoccurr": 6510,
      "Ġcalc": 6511,
      "%.": 6512,
      "Th": 6513,
      "hib": 6514,
      "Ġtekin": 6515,
      "atÃ©g": 6516,
      "Ġwungirije": 6517,
      "Ġdus": 6518,
      "Ġyem": 6519,
      "icya": 6520,
      "abona": 6521,
      "enth": 6522,
      "ĠSov": 6523,
      "ĠNam": 6524,
      "Ġimv": 6525,
      "Ġstaff": 6526,
      "Ġamount": 6527,
      "Ġtrait": 6528,
      "Ġwhole": 6529,
      "Ġpoor": 6530,
      "Ubut": 6531,
      "Ġdecision": 6532,
      "Ġlooking": 6533,
      "Ġtravel": 6534,
      "ahaye": 6535,
      "ĠEdward": 6536,
      "Ġgiherereye": 6537,
      "ĠFound": 6538,
      "Ġpreviously": 6539,
      "Ġfootball": 6540,
      "ĠLucy": 6541,
      "):": 6542,
      "anitse": 6543,
      "Ġtalk": 6544,
      "Ġmob": 6545,
      "Ġbene": 6546,
      "Ġwear": 6547,
      "Ġcanc": 6548,
      "Ġrye": 6549,
      "Ġice": 6550,
      "Ġinn": 6551,
      "ubatswe": 6552,
      "ĠSol": 6553,
      "ĠSong": 6554,
      "Ġvan": 6555,
      "Ġubub": 6556,
      "box": 6557,
      "Ġabanyeshuri": 6558,
      "Ġnkombe": 6559,
      "Ġrelated": 6560,
      "Ġbwose": 6561,
      "apped": 6562,
      "Ġbikomeye": 6563,
      "Ġbashobora": 6564,
      "Ġyarangije": 6565,
      "Ġcapital": 6566,
      "Ġnibindi": 6567,
      "ĠKubika": 6568,
      "holog": 6569,
      "Ġpropert": 6570,
      "Ġlimited": 6571,
      "Ġwabigize": 6572,
      ");": 6573,
      "iyi": 6574,
      "mu": 6575,
      "vest": 6576,
      "Ùħ": 6577,
      "inama": 6578,
      "esera": 6579,
      "Ġwabo": 6580,
      "Ġden": 6581,
      "Ġyir": 6582,
      "ĠBa": 6583,
      "Ġdeg": 6584,
      "Ġumuziki": 6585,
      "Ġconform": 6586,
      "ĠInama": 6587,
      "Ġabatutsi": 6588,
      "Ġkubura": 6589,
      "ĠÃĢ": 6590,
      "Ġintell": 6591,
      "ĠIgit": 6592,
      "Ġrunaka": 6593,
      "Ġshows": 6594,
      "Ġprovide": 6595,
      "Ġcontinu": 6596,
      "Ġ1950": 6597,
      "Ġcommunity": 6598,
      "Ġvictory": 6599,
      "Akarere": 6600,
      "lam": 6601,
      "onera": 6602,
      "Ġnzego": 6603,
      "esi": 6604,
      "Ġpain": 6605,
      "Ġly": 6606,
      "Ġlatter": 6607,
      "icip": 6608,
      "ĠAzwi": 6609,
      "ĠSk": 6610,
      "hob": 6611,
      "ĠBBC": 6612,
      "ully": 6613,
      "Ġeyes": 6614,
      "ayed": 6615,
      "Ġimihindagurikire": 6616,
      "Ġibijyanye": 6617,
      "ĠOver": 6618,
      "ungire": 6619,
      "Ġuns": 6620,
      "Ġunits": 6621,
      "ĠYitabiriye": 6622,
      "Ġtra": 6623,
      "ĠMaroc": 6624,
      "Ġcars": 6625,
      "Ġaddress": 6626,
      "Ġmutwe": 6627,
      "ĠfaÃ§": 6628,
      "ĠgÃ©nÃ©ral": 6629,
      "Ġpicked": 6630,
      "ĠKinshasa": 6631,
      "itwarire": 6632,
      "bye": 6633,
      "lor": 6634,
      "Ġmont": 6635,
      "Ġbabiri": 6636,
      "Ġdern": 6637,
      "asons": 6638,
      "Ġheart": 6639,
      "Ġcoming": 6640,
      "intambara": 6641,
      "ĠIts": 6642,
      "Ġirushanwa": 6643,
      "icted": 6644,
      "Ġbukungu": 6645,
      "Ġicyiciro": 6646,
      "Ġconsider": 6647,
      "abilitÃ©": 6648,
      "amenyekanye": 6649,
      "Ġfacil": 6650,
      "Ġdestroyed": 6651,
      "ĠTexas": 6652,
      "oud": 6653,
      "information": 6654,
      "isations": 6655,
      "Ġpull": 6656,
      "ingabo": 6657,
      "eto": 6658,
      "abitsina": 6659,
      "ĠSarah": 6660,
      "ĠBank": 6661,
      "ĠOx": 6662,
      "ecting": 6663,
      "ĠYatsindiye": 6664,
      "ĠImiterere": 6665,
      "Ġinterview": 6666,
      "Ġprevent": 6667,
      "Ã©lior": 6668,
      "inyamaswa": 6669,
      "Ġunderst": 6670,
      "Ġkwezi": 6671,
      "Ġflew": 6672,
      "ee": 6673,
      "Ġtab": 6674,
      "Ġterr": 6675,
      "Ġmakuru": 6676,
      "Ġcit": 6677,
      "ĠAD": 6678,
      "igue": 6679,
      "ecially": 6680,
      "ĠDar": 6681,
      "ĠFort": 6682,
      "ĠFestival": 6683,
      "ĠWhether": 6684,
      "ieux": 6685,
      "Ġ39": 6686,
      "Ġagah": 6687,
      "Ġurubyiruko": 6688,
      "Ġelse": 6689,
      "Ġngor": 6690,
      "Ġselection": 6691,
      "Ġkarub": 6692,
      "Ġimiryango": 6693,
      "Ġletter": 6694,
      "ĠGovern": 6695,
      "wirakw": 6696,
      "Ġmeeting": 6697,
      "ĠMexico": 6698,
      "light": 6699,
      "off": 6700,
      "Ġ>": 6701,
      "Ġmode": 6702,
      "orerwa": 6703,
      "isf": 6704,
      "Ġfont": 6705,
      "Ġgreen": 6706,
      "Ġumutoza": 6707,
      "ĠDani": 6708,
      "Ġitanu": 6709,
      "Ġkugenda": 6710,
      "ĠAmag": 6711,
      "Ġusually": 6712,
      "Ġyakoraga": 6713,
      "yabwenge": 6714,
      "Ġ1983": 6715,
      "Ġmpuzabitsina": 6716,
      "inese": 6717,
      "Ġwatched": 6718,
      "Ġrights": 6719,
      "Ġpolitiques": 6720,
      "ĠGushyiraho": 6721,
      "rup": 6722,
      "rÃ©t": 6723,
      "Ġes": 6724,
      "Ġmor": 6725,
      "atar": 6726,
      "Ġwalked": 6727,
      "anditswe": 6728,
      "amine": 6729,
      "Ġliving": 6730,
      "abar": 6731,
      "ughed": 6732,
      "ubur": 6733,
      "ĠSand": 6734,
      "ĠSant": 6735,
      "ĠCre": 6736,
      "Ġfore": 6737,
      "Ġforward": 6738,
      "Ġzid": 6739,
      "ĠInzira": 6740,
      "ĠtrÃ¨s": 6741,
      "Ġ63": 6742,
      "Ġpeuvent": 6743,
      "Ġ1973": 6744,
      "Ġdirected": 6745,
      "ĠJohnson": 6746,
      "Ġartist": 6747,
      "ibutso": 6748,
      "umvik": 6749,
      "operative": 6750,
      "AL": 6751,
      "liam": 6752,
      "rick": 6753,
      "wan": 6754,
      "enir": 6755,
      "Ġnation": 6756,
      "Ġsister": 6757,
      "Ġkibazo": 6758,
      "Ġdiss": 6759,
      "Ġgre": 6760,
      "ĠMurenge": 6761,
      "ĠTer": 6762,
      "ukari": 6763,
      "ĠCannot": 6764,
      "ĠBra": 6765,
      "ĠKil": 6766,
      "ĠUne": 6767,
      "ĠDay": 6768,
      "Ġconcept": 6769,
      "zobere": 6770,
      "Ġspot": 6771,
      "Ġscenes": 6772,
      "Ġbring": 6773,
      "ĠSout": 6774,
      "Ġcollabor": 6775,
      "Ġeffects": 6776,
      "Ġmedia": 6777,
      "urusiya": 6778,
      "ibiribwa": 6779,
      "Ġmixed": 6780,
      "Ġespecially": 6781,
      "Ġappointed": 6782,
      "rd": 6783,
      "rement": 6784,
      "yirahamwe": 6785,
      "ĠØ": 6786,
      "Ġlay": 6787,
      "abakozi": 6788,
      "ĠBufaransa": 6789,
      "ĠHist": 6790,
      "ĠDan": 6791,
      "osi": 6792,
      "Ġlaughed": 6793,
      "ĠChic": 6794,
      "Ġishinga": 6795,
      "emple": 6796,
      "Ġdirection": 6797,
      "Ġaccomp": 6798,
      "ological": 6799,
      "Ġissue": 6800,
      "Ġkwirinda": 6801,
      "Ġibyago": 6802,
      "Ġfrequ": 6803,
      "ĠFlorida": 6804,
      "21": 6805,
      "DI": 6806,
      "Yes": 6807,
      "Ġmagazine": 6808,
      "onetse": 6809,
      "orero": 6810,
      "Ġcannot": 6811,
      "illy": 6812,
      "ĠMer": 6813,
      "enty": 6814,
      "ibara": 6815,
      "reak": 6816,
      "Ġeastern": 6817,
      "Ġibimenyetso": 6818,
      "ĠFeder": 6819,
      "shire": 6820,
      "Ġikoresha": 6821,
      "oraho": 6822,
      "Ġigizwe": 6823,
      "Ġnote": 6824,
      "ĠUbuk": 6825,
      "ĠChinese": 6826,
      "Ġukora": 6827,
      "ĠProduc": 6828,
      "Ġmusical": 6829,
      "Ġoperation": 6830,
      "Ġclosed": 6831,
      "kay": 6832,
      "rÃ¨s": 6833,
      "Ġ00": 6834,
      "Ġmurenge": 6835,
      "Ġmorning": 6836,
      "Ġiherereye": 6837,
      "amateka": 6838,
      "Ġli": 6839,
      "ĠBat": 6840,
      "ĠBas": 6841,
      "Ġdeal": 6842,
      "Ġthanked": 6843,
      "ĠNyar": 6844,
      "ariwe": 6845,
      "indwa": 6846,
      "Ġleaving": 6847,
      "Ġikintu": 6848,
      "anywe": 6849,
      "Ġdoing": 6850,
      "Ġirashobora": 6851,
      "Ġbridge": 6852,
      "Ġyashyizwe": 6853,
      "Ġmainten": 6854,
      "Ġbroke": 6855,
      "Umuryango": 6856,
      "Ġequip": 6857,
      "Ã«": 6858,
      "icated": 6859,
      "ional": 6860,
      "house": 6861,
      "ĠKent": 6862,
      "ĠHanyuma": 6863,
      "ifaransa": 6864,
      "ĠYari": 6865,
      "Ġchurch": 6866,
      "ĠAmasezerano": 6867,
      "ĠChina": 6868,
      "Ġgusiganwa": 6869,
      "Ġ600": 6870,
      "Ġattention": 6871,
      "Ġmanager": 6872,
      "ĠLaw": 6873,
      "Ġeveryone": 6874,
      "Ġmbi": 6875,
      "ography": 6876,
      "fashwe": 6877,
      "ĠJoe": 6878,
      "wirakwiza": 6879,
      "ĠSports": 6880,
      "enegihugu": 6881,
      "liament": 6882,
      "Ġspl": 6883,
      "ingufu": 6884,
      "uled": 6885,
      "Ġcyiza": 6886,
      "ĠWind": 6887,
      "udes": 6888,
      "izing": 6889,
      "Ġcook": 6890,
      "ĠUbushakashatsi": 6891,
      "ĠImb": 6892,
      "Ġguhinga": 6893,
      "ujuje": 6894,
      "Ġinkuru": 6895,
      "ĠDevelop": 6896,
      "Ġwriter": 6897,
      "Ġapproxim": 6898,
      "ĠprÃ©v": 6899,
      "imiryango": 6900,
      "Ġwalking": 6901,
      "ĠKampala": 6902,
      "aise": 6903,
      "mond": 6904,
      "ãĥ": 6905,
      "Ġerror": 6906,
      "ĠmÃ©t": 6907,
      "Ġbuz": 6908,
      "Ġnuc": 6909,
      "Ġcet": 6910,
      "ading": 6911,
      "ĠHur": 6912,
      "Ġzag": 6913,
      "ĠEll": 6914,
      "angaza": 6915,
      "ĠJud": 6916,
      "Ġabas": 6917,
      "Ġcomplex": 6918,
      "imbi": 6919,
      "ĠUrugero": 6920,
      "Ġ1974": 6921,
      "iyobyabwenge": 6922,
      "ĠprocÃ©d": 6923,
      "Ġfifth": 6924,
      "TC": 6925,
      "ii": 6926,
      "ois": 6927,
      "Ð¸": 6928,
      "Ġwords": 6929,
      "Ġhers": 6930,
      "uman": 6931,
      "aches": 6932,
      "ĠLater": 6933,
      "Ġibigo": 6934,
      "Ġconst": 6935,
      "onder": 6936,
      "Ġsurve": 6937,
      "eke": 6938,
      "Ġelev": 6939,
      "Ġelection": 6940,
      "abanyam": 6941,
      "Ġlarger": 6942,
      "Ġexplore": 6943,
      "Ġnearly": 6944,
      "valuation": 6945,
      "Ġibiryo": 6946,
      "Ġubuso": 6947,
      "ĠGuhindura": 6948,
      "Ġamaraso": 6949,
      "fort": 6950,
      "aniye": 6951,
      "Ġbic": 6952,
      "Ġrid": 6953,
      "Ġfund": 6954,
      "imisozi": 6955,
      "ĠMost": 6956,
      "ĠMaz": 6957,
      "ĠSun": 6958,
      "ĠSoci": 6959,
      "ador": 6960,
      "oloni": 6961,
      "ĠFI": 6962,
      "ishikari": 6963,
      "ĠEsp": 6964,
      "Ġigiti": 6965,
      "Ġagera": 6966,
      "epite": 6967,
      "Ġparties": 6968,
      "ĠUnies": 6969,
      "Ġevidence": 6970,
      "etting": 6971,
      "ĠConvention": 6972,
      "Ġ1972": 6973,
      "Ġmovement": 6974,
      "Ġyashinzwe": 6975,
      "Ġbreed": 6976,
      "ĠFoot": 6977,
      "aur": 6978,
      "tat": 6979,
      "enza": 6980,
      "Ġlit": 6981,
      "Ġyet": 6982,
      "umo": 6983,
      "ĠMbur": 6984,
      "ĠTro": 6985,
      "ibigo": 6986,
      "Ġkuvura": 6987,
      "ĠHamwe": 6988,
      "Ġanal": 6989,
      "eria": 6990,
      "Ġtraf": 6991,
      "Ġboat": 6992,
      "ĠdÃ©b": 6993,
      "Ġbarenga": 6994,
      "Ġsupp": 6995,
      "Ġ1976": 6996,
      "Ġbaby": 6997,
      "Ġyerekanwe": 6998,
      "ltim": 6999,
      "iyoboro": 7000,
      "Ġfemale": 7001,
      "Ġconcernant": 7002,
      "Ġwrite": 7003,
      "Ġcastle": 7004,
      "ĠYavutse": 7005,
      "Ġsummer": 7006,
      "ospital": 7007,
      "ĠCanadian": 7008,
      "Ġugereranije": 7009,
      "24": 7010,
      "eka": 7011,
      "kin": 7012,
      "Ġmab": 7013,
      "arp": 7014,
      "itz": 7015,
      "ishe": 7016,
      "amiye": 7017,
      "imiterere": 7018,
      "ĠAre": 7019,
      "ĠSur": 7020,
      "emwe": 7021,
      "ĠPet": 7022,
      "Ġvue": 7023,
      "ĠOld": 7024,
      "unguzo": 7025,
      "Ġnoise": 7026,
      "Ġrefl": 7027,
      "Ġkubak": 7028,
      "Ġneigh": 7029,
      "Ġcoord": 7030,
      "shize": 7031,
      "Ġbyabo": 7032,
      "andukanya": 7033,
      "Ġ185": 7034,
      "ĠIkindi": 7035,
      "ĠAbantu": 7036,
      "anzu": 7037,
      "Ġconsult": 7038,
      "Ġentr": 7039,
      "Ġdefault": 7040,
      "ĠIndia": 7041,
      "Ġprogrammes": 7042,
      "Ġbuildings": 7043,
      "itozo": 7044,
      "Ġtracks": 7045,
      "Ġbirds": 7046,
      "Ġattempt": 7047,
      "Ġsuggested": 7048,
      "Ġphys": 7049,
      "Ġmakes": 7050,
      "Ġsle": 7051,
      "ede": 7052,
      "ingu": 7053,
      "ental": 7054,
      "aki": 7055,
      "Ġdead": 7056,
      "adiri": 7057,
      "Ġibic": 7058,
      "ĠYah": 7059,
      "Ġprison": 7060,
      "ello": 7061,
      "Ġcompared": 7062,
      "ĠArch": 7063,
      "Ġflowers": 7064,
      "ĠÂ£": 7065,
      "Ġmaint": 7066,
      "Ġteams": 7067,
      "Ġ1930": 7068,
      "Ġoperations": 7069,
      "Ġkuvuga": 7070,
      "Ġyerekeza": 7071,
      "Ġdocumentaire": 7072,
      "Ġencour": 7073,
      "Ġwashinze": 7074,
      "ĠMburabuzi": 7075,
      "EN": 7076,
      "GI": 7077,
      "MP": 7078,
      "ozo": 7079,
      "Ġmission": 7080,
      "Ġkag": 7081,
      "Ġkibaya": 7082,
      "Ġhug": 7083,
      "usanya": 7084,
      "ĠIzi": 7085,
      "ubuyobozi": 7086,
      "ĠSon": 7087,
      "ĠKe": 7088,
      "lev": 7089,
      "Ġnav": 7090,
      "Ġuba": 7091,
      "Ġabanyam": 7092,
      "Ġleave": 7093,
      "Ġkuboneka": 7094,
      "Ġukaba": 7095,
      "Ġsched": 7096,
      "ervation": 7097,
      "Ġentered": 7098,
      "ĠProt": 7099,
      "Ġefforts": 7100,
      "ĠIcyakora": 7101,
      "Ġconcentr": 7102,
      "holandi": 7103,
      "Ġanti": 7104,
      "Ġyinjira": 7105,
      "herezwa": 7106,
      "Ġproposed": 7107,
      "Ġreviews": 7108,
      "yright": 7109,
      "Ġlabel": 7110,
      "Ġkikaba": 7111,
      "ĠGahunda": 7112,
      "ius": 7113,
      "over": 7114,
      "vement": 7115,
      "Â°": 7116,
      "isanzwe": 7117,
      "iran": 7118,
      "iranya": 7119,
      "Ġdonc": 7120,
      "Ġpurch": 7121,
      "Ġgup": 7122,
      "Ġyellow": 7123,
      "wag": 7124,
      "entre": 7125,
      "hood": 7126,
      "ĠBah": 7127,
      "ulations": 7128,
      "ĠHel": 7129,
      "ucuk": 7130,
      "front": 7131,
      "Ġamaf": 7132,
      "ĠWood": 7133,
      "Ġigira": 7134,
      "Ġndende": 7135,
      "sole": 7136,
      "ĠÃ©v": 7137,
      "Ġgoals": 7138,
      "Ġguhanga": 7139,
      "Ġoffered": 7140,
      "ĠIgikorwa": 7141,
      "Ġremains": 7142,
      "Ġihumanya": 7143,
      "Ġautre": 7144,
      "ĠCentral": 7145,
      "ĠdÃ©cision": 7146,
      "Ġcopies": 7147,
      "ĠSyst": 7148,
      "Ġabagabo": 7149,
      "Ġfleet": 7150,
      "iyongereye": 7151,
      "Ġbecoming": 7152,
      "No": 7153,
      "RO": 7154,
      "oid": 7155,
      "inka": 7156,
      "Ġmond": 7157,
      "urikije": 7158,
      "hold": 7159,
      "Ġyahoze": 7160,
      "ĠKa": 7161,
      "cean": 7162,
      "ĠOtt": 7163,
      "ĠYear": 7164,
      "ĠVan": 7165,
      "ĠIbir": 7166,
      "ĠdÃ©f": 7167,
      "Ġrwag": 7168,
      "Ġcarry": 7169,
      "Ġumunsi": 7170,
      "Ġ1968": 7171,
      "Ġeffic": 7172,
      "ĠElle": 7173,
      "Ġcontinue": 7174,
      "Ġemerg": 7175,
      "Ġcloser": 7176,
      "Ġincrease": 7177,
      "Ġpersonnel": 7178,
      "Ġdaughter": 7179,
      "Ġdamag": 7180,
      "Ġpack": 7181,
      "amya": 7182,
      "umoso": 7183,
      "igade": 7184,
      "ĠBudage": 7185,
      "ĠKir": 7186,
      "ario": 7187,
      "Ġibishanga": 7188,
      "Ġvia": 7189,
      "Ġask": 7190,
      "ĠOh": 7191,
      "Ġatangira": 7192,
      "Ġukomeye": 7193,
      "Ġkuruta": 7194,
      "Ġ1981": 7195,
      "Ġmaterial": 7196,
      "ĠMinister": 7197,
      "ĠSpec": 7198,
      "Ġyavuye": 7199,
      "Ġappears": 7200,
      "ĠCarol": 7201,
      "Ġrukora": 7202,
      "oshi": 7203,
      "ĠStep": 7204,
      "ĠeuropÃ©enne": 7205,
      "ĠMartin": 7206,
      "Ġherself": 7207,
      "Ġmig": 7208,
      "orere": 7209,
      "atch": 7210,
      "atively": 7211,
      "Ġsud": 7212,
      "irira": 7213,
      "aliyani": 7214,
      "util": 7215,
      "ims": 7216,
      "olitiki": 7217,
      "ĠDom": 7218,
      "ihanda": 7219,
      "Ġamagi": 7220,
      "ĠEc": 7221,
      "ungahaye": 7222,
      "orezo": 7223,
      "Ġpretty": 7224,
      "Ġarimo": 7225,
      "oneza": 7226,
      "Ġgutuma": 7227,
      "enses": 7228,
      "ĠLew": 7229,
      "Ġdoivent": 7230,
      "Ġfois": 7231,
      "Ġsecret": 7232,
      "ĠAti": 7233,
      "Ġcolon": 7234,
      "Ã©rieur": 7235,
      "Ġfigure": 7236,
      "ĠQueen": 7237,
      "ĠYoung": 7238,
      "ĠAtlantic": 7239,
      "Ġenfants": 7240,
      "ujyanama": 7241,
      "VD": 7242,
      "bed": 7243,
      "uver": 7244,
      "anÃ§": 7245,
      "Ġduk": 7246,
      "Ġfeder": 7247,
      "Ġlic": 7248,
      "ereka": 7249,
      "ĠBak": 7250,
      "otse": 7251,
      "Ġquant": 7252,
      "abazi": 7253,
      "Ġigitekerezo": 7254,
      "sia": 7255,
      "teen": 7256,
      "Ġakiri": 7257,
      "Ġ42": 7258,
      "ĠItsinda": 7259,
      "yaro": 7260,
      "Ġ//": 7261,
      "Ġbrave": 7262,
      "Ġwarm": 7263,
      "Ġrecording": 7264,
      "ishingizi": 7265,
      "Ġdepart": 7266,
      "Ġrutonde": 7267,
      "Ġcelebr": 7268,
      "Ġawarded": 7269,
      "ĠPacific": 7270,
      "ĠpÃ©riode": 7271,
      "ĠrÃ©sultats": 7272,
      "anaga": 7273,
      "Ġnames": 7274,
      "Ġfans": 7275,
      "Ġyan": 7276,
      "igisho": 7277,
      "ĠCamp": 7278,
      "ĠBure": 7279,
      "ache": 7280,
      "acement": 7281,
      "Ġitegeko": 7282,
      "Ġikig": 7283,
      "afasha": 7284,
      "Ġnotamment": 7285,
      "Ġagric": 7286,
      "portun": 7287,
      "atures": 7288,
      "ulture": 7289,
      "ĠZunze": 7290,
      "Ġ1975": 7291,
      "Ġihuriro": 7292,
      "Ġguitar": 7293,
      "Ġnumbers": 7294,
      "Ġattacks": 7295,
      "yekana": 7296,
      "ĠEarth": 7297,
      "ĠInstitute": 7298,
      "ĠFoundation": 7299,
      "ridge": 7300,
      "Ġaud": 7301,
      "Ġruzi": 7302,
      "omme": 7303,
      "Ã©gr": 7304,
      "ĠCD": 7305,
      "ibiya": 7306,
      "acher": 7307,
      "ĠNI": 7308,
      "ĠWall": 7309,
      "Ġwithd": 7310,
      "ungana": 7311,
      "imeze": 7312,
      "Ġgukumira": 7313,
      "Ġnyarwanda": 7314,
      "Ġcontent": 7315,
      "Ġbakaba": 7316,
      "resp": 7317,
      "Ġumwanditsi": 7318,
      "Ġremezo": 7319,
      "Ġflood": 7320,
      "ifications": 7321,
      "Ġumunyarwandakazi": 7322,
      "ganisation": 7323,
      "ismes": 7324,
      "Ġraporo": 7325,
      "Ġstudy": 7326,
      "Ġdistance": 7327,
      "oramubiri": 7328,
      "Ġcounter": 7329,
      "hoboye": 7330,
      "Ġhurt": 7331,
      "Ġpressure": 7332,
      "ĠUsibye": 7333,
      "jyana": 7334,
      "Ġmupira": 7335,
      "Ġeshatu": 7336,
      "Ġniveau": 7337,
      "GA": 7338,
      "TI": 7339,
      "miss": 7340,
      "insh": 7341,
      "Ġtail": 7342,
      "Ġbrief": 7343,
      "Ġnar": 7344,
      "Ġnabo": 7345,
      "Ġcin": 7346,
      "Ġdance": 7347,
      "amm": 7348,
      "etic": 7349,
      "abire": 7350,
      "ugment": 7351,
      "ĠMov": 7352,
      "ĠSum": 7353,
      "ĠHab": 7354,
      "Ġisanzwe": 7355,
      "Ġabat": 7356,
      "upaka": 7357,
      "ĠUmushinga": 7358,
      "Ġjump": 7359,
      "Ġsurround": 7360,
      "Ġcontains": 7361,
      "Ġishingiye": 7362,
      "erman": 7363,
      "ĠIgice": 7364,
      "Ġfeature": 7365,
      "Ġruganda": 7366,
      "Ġfarm": 7367,
      "Ġmessages": 7368,
      "ĠIbyatanzwe": 7369,
      "Ġbroadcast": 7370,
      "ĠKanada": 7371,
      "Ġfloor": 7372,
      "Ġplanned": 7373,
      "Ġaudience": 7374,
      "Mu": 7375,
      "ias": 7376,
      "angura": 7377,
      "Ġwinning": 7378,
      "isanz": 7379,
      "Ġpeter": 7380,
      "Ġgishanga": 7381,
      "ĠRos": 7382,
      "Ġthr": 7383,
      "ĠHuye": 7384,
      "Ġimari": 7385,
      "Ġleague": 7386,
      "Ġenergy": 7387,
      "Ġcoach": 7388,
      "Ġcolumn": 7389,
      "Ġautor": 7390,
      "Ġ1940": 7391,
      "Ġissued": 7392,
      "Ġclaimed": 7393,
      "Ġtrees": 7394,
      "ĠHariho": 7395,
      "Ġconflict": 7396,
      "Ġngororamubiri": 7397,
      "PS": 7398,
      "vere": 7399,
      "Ġrib": 7400,
      "ingira": 7401,
      "Ġgaze": 7402,
      "ĠMill": 7403,
      "ĠMerc": 7404,
      "ĠBost": 7405,
      "quer": 7406,
      "ĠLove": 7407,
      "Ġreason": 7408,
      "Ġquot": 7409,
      "Ġwhom": 7410,
      "Ġseem": 7411,
      "Ġenv": 7412,
      "Ġbiterwa": 7413,
      "Ġariyo": 7414,
      "imbuka": 7415,
      "Ġoverall": 7416,
      "ometero": 7417,
      "Ġyashinze": 7418,
      "Ġumutwe": 7419,
      "Ġsmaller": 7420,
      "Ġencore": 7421,
      "Ġproblems": 7422,
      "ĠgÃ©nÃ©rale": 7423,
      "Ikigo": 7424,
      "Ġinfluence": 7425,
      "Ġnatural": 7426,
      "down": 7427,
      "uyu": 7428,
      "Ġmand": 7429,
      "Ġwabaye": 7430,
      "isil": 7431,
      "Ġrush": 7432,
      "umped": 7433,
      "ĠMass": 7434,
      "ĠBet": 7435,
      "ĠKey": 7436,
      "olo": 7437,
      "ĠLet": 7438,
      "ĠDVD": 7439,
      "Ġaband": 7440,
      "opÃ©ration": 7441,
      "engwa": 7442,
      "yabiri": 7443,
      "Ġumukobwa": 7444,
      "Ġloi": 7445,
      "Ġ1978": 7446,
      "Ġbisanzwe": 7447,
      "ĠRepublic": 7448,
      "ucky": 7449,
      "Ġbifasha": 7450,
      "Ġinitial": 7451,
      "Ġrefused": 7452,
      "Ġissues": 7453,
      "Ġmultip": 7454,
      "ĠBillboard": 7455,
      "Ġremoved": 7456,
      "yifuzo": 7457,
      "ikinyejana": 7458,
      "ĠfaÃ§on": 7459,
      "ĠChicago": 7460,
      "Ġapproximately": 7461,
      "90": 7462,
      "jyanye": 7463,
      "pass": 7464,
      "Ġá": 7465,
      "Ġtar": 7466,
      "Ġbintu": 7467,
      "umyabiri": 7468,
      "ĠCE": 7469,
      "ĠKat": 7470,
      "ĠRail": 7471,
      "ĠHon": 7472,
      "Ġimid": 7473,
      "ĠWeb": 7474,
      "ieurs": 7475,
      "Ġexamin": 7476,
      "Ġscore": 7477,
      "Ġavons": 7478,
      "Ġ180": 7479,
      "Ġnewsp": 7480,
      "ĠstratÃ©g": 7481,
      "Ġbask": 7482,
      "umwanditsi": 7483,
      "ĠKugaragaza": 7484,
      "Ġcatch": 7485,
      "Ġamababi": 7486,
      "Ġreplied": 7487,
      "Ġchanged": 7488,
      "ropical": 7489,
      "Ġculture": 7490,
      "Ġyasohotse": 7491,
      "ĠAngeles": 7492,
      "known": 7493,
      "anchester": 7494,
      "key": 7495,
      "Ġmijyi": 7496,
      "urity": 7497,
      "itiye": 7498,
      "Ġcold": 7499,
      "Ġruri": 7500,
      "ĠMoh": 7501,
      "ĠManchester": 7502,
      "akomeza": 7503,
      "adium": 7504,
      "ĠPost": 7505,
      "riage": 7506,
      "ongi": 7507,
      "ĠJac": 7508,
      "iziga": 7509,
      "Ġchap": 7510,
      "eph": 7511,
      "Ġntego": 7512,
      "Ġdisapp": 7513,
      "Ġcompar": 7514,
      "annes": 7515,
      "Ġ1500": 7516,
      "Ġsuper": 7517,
      "inzego": 7518,
      "Ġexplained": 7519,
      "Ġrapid": 7520,
      "Ġeverything": 7521,
      "Ġgatanu": 7522,
      "Ġbiva": 7523,
      "Ġsquare": 7524,
      "ĠHighway": 7525,
      "Ġraised": 7526,
      "Ġmakumyabiri": 7527,
      "onj": 7528,
      "onze": 7529,
      "Ġkenshi": 7530,
      "Ġfat": 7531,
      "alo": 7532,
      "ikig": 7533,
      "ĠBoth": 7534,
      "Ġbyombi": 7535,
      "Ġziba": 7536,
      "ĠWomen": 7537,
      "ĠInc": 7538,
      "ushye": 7539,
      "udah": 7540,
      "umber": 7541,
      "Ġ46": 7542,
      "Ġbigaragara": 7543,
      "Ġbatatu": 7544,
      "Ġ184": 7545,
      "ĠcompÃ©t": 7546,
      "Ã©rÃ©": 7547,
      "Ġperfect": 7548,
      "Ġtrois": 7549,
      "Ġicyicaro": 7550,
      "Ġbroken": 7551,
      "Ġlargely": 7552,
      "Ġabahinzi": 7553,
      "iyongere": 7554,
      "Ġlyric": 7555,
      "FC": 7556,
      "band": 7557,
      "fs": 7558,
      "uelle": 7559,
      "Ðµ": 7560,
      "Ġà": 7561,
      "Ġbish": 7562,
      "Ġbufite": 7563,
      "ening": 7564,
      "Ġpsy": 7565,
      "Ġuw": 7566,
      "Ġlieu": 7567,
      "ingiro": 7568,
      "ubuto": 7569,
      "ĠMatt": 7570,
      "ĠBos": 7571,
      "ĠNorm": 7572,
      "ĠHo": 7573,
      "ĠPre": 7574,
      "ĠWr": 7575,
      "koko": 7576,
      "Ġexpos": 7577,
      "Ġnoticed": 7578,
      "ĠViet": 7579,
      "Ġbitanga": 7580,
      "iaux": 7581,
      "Ġukuvuga": 7582,
      "Ġbigo": 7583,
      "Ġshoot": 7584,
      "Ġ85": 7585,
      "Ġmeant": 7586,
      "Ġyateg": 7587,
      "Ġincludes": 7588,
      "Ġyagizwe": 7589,
      "Ġmoving": 7590,
      "Ġexpected": 7591,
      "Ġbelow": 7592,
      "iÃ¨me": 7593,
      "Ġprobably": 7594,
      "Ġprocessus": 7595,
      "Ġchaque": 7596,
      "ĠSoviet": 7597,
      "col": 7598,
      "ÑĢ": 7599,
      "Ġtal": 7600,
      "erne": 7601,
      "Ġmani": 7602,
      "Ġbott": 7603,
      "Ġnz": 7604,
      "Ġwir": 7605,
      "Ġkon": 7606,
      "Ġruz": 7607,
      "Ġgikorwa": 7608,
      "Ġyongeye": 7609,
      "ibimera": 7610,
      "ĠNic": 7611,
      "ĠLeg": 7612,
      "ĠDen": 7613,
      "ĠDev": 7614,
      "ĠFailed": 7615,
      "inder": 7616,
      "unguro": 7617,
      "Ġleaves": 7618,
      "Ġ).": 7619,
      "Ġpla": 7620,
      "Ġkugura": 7621,
      "illes": 7622,
      "yamakuru": 7623,
      "ĠAmb": 7624,
      "Ġintended": 7625,
      "Ġ44": 7626,
      "rais": 7627,
      "Ġindustry": 7628,
      "ĠIkosa": 7629,
      "erekeye": 7630,
      "umwana": 7631,
      "ĠScot": 7632,
      "Ġsinger": 7633,
      "Ġbushobora": 7634,
      "Ġdefeated": 7635,
      "Ġkwigisha": 7636,
      "Ġexperience": 7637,
      "Ø§ÙĦ": 7638,
      "Ġdiscovered": 7639,
      "Ġenvironment": 7640,
      ",,": 7641,
      "pire": 7642,
      "Ã¤": 7643,
      "Ħ¢": 7644,
      "Ġtons": 7645,
      "Ġbindi": 7646,
      "angiriye": 7647,
      "Ġtheme": 7648,
      "amasezerano": 7649,
      "alion": 7650,
      "Ġyum": 7651,
      "umed": 7652,
      "ĠMen": 7653,
      "ido": 7654,
      "ader": 7655,
      "Ġthus": 7656,
      "ĠGirl": 7657,
      "ĠDad": 7658,
      "Ġstick": 7659,
      "yiz": 7660,
      "ĠInf": 7661,
      "Ġndirimbo": 7662,
      "ĠUburyo": 7663,
      "Ġshell": 7664,
      "ombaga": 7665,
      "andukana": 7666,
      "ĠPrince": 7667,
      "Ġ1964": 7668,
      "ĠBritain": 7669,
      "Ġbihumanya": 7670,
      "Ġserver": 7671,
      "Ġempl": 7672,
      "Ġyamen": 7673,
      "Ġconfig": 7674,
      "Ġyimukiye": 7675,
      "Ġapplication": 7676,
      "Ġkwandika": 7677,
      "ĠDocument": 7678,
      "Ġprofessional": 7679,
      "Ġpiece": 7680,
      "Ġyashyizeho": 7681,
      "Ġsubsequently": 7682,
      "ĠdÃ©clar": 7683,
      "ĠOxford": 7684,
      "Ġpeteroli": 7685,
      "do": 7686,
      "âĦ¢": 7687,
      "Ġbiti": 7688,
      "itect": 7689,
      "iteri": 7690,
      "irir": 7691,
      "Ġliter": 7692,
      "ĠCor": 7693,
      "ĠBit": 7694,
      "ĠBots": 7695,
      "ĠGre": 7696,
      "Ġimis": 7697,
      "arian": 7698,
      "Ġaltern": 7699,
      "Ġexec": 7700,
      "atsiko": 7701,
      "ambe": 7702,
      "ĠIkir": 7703,
      "Ġinterpr": 7704,
      "ommes": 7705,
      "Ġdouble": 7706,
      "Ġmethod": 7707,
      "Ġzizwi": 7708,
      "Ġnibura": 7709,
      "Ġsuis": 7710,
      "urikirane": 7711,
      "âĤ¬âĦ¢": 7712,
      "Ġcondition": 7713,
      "Ġjoin": 7714,
      "fÃ©rence": 7715,
      "Ġcaptured": 7716,
      "ĠLouis": 7717,
      "80": 7718,
      "lig": 7719,
      "Ġmonde": 7720,
      "Ġbal": 7721,
      "isemo": 7722,
      "Ġfer": 7723,
      "Ġhair": 7724,
      "umurwa": 7725,
      "elly": 7726,
      "ibintu": 7727,
      "ĠLife": 7728,
      "ĠGen": 7729,
      "Ġiteg": 7730,
      "ĠForm": 7731,
      "Ġstories": 7732,
      "Ġconclud": 7733,
      "ahantu": 7734,
      "ihuza": 7735,
      "ĠEric": 7736,
      "Ġatsinda": 7737,
      "agaze": 7738,
      "onds": 7739,
      "Ġnku": 7740,
      "Ġagira": 7741,
      "Ġ43": 7742,
      "Ġboard": 7743,
      "Ġcontemp": 7744,
      "Ġ65": 7745,
      "Ġshown": 7746,
      "Ġbirth": 7747,
      "Ġmeans": 7748,
      "Ġenter": 7749,
      "Ġnganda": 7750,
      "Ġhappened": 7751,
      "Ġtitre": 7752,
      "Ġmwinshi": 7753,
      "Ġubusanzwe": 7754,
      "Ġpowerful": 7755,
      "Ġmiddle": 7756,
      "Don": 7757,
      "US": 7758,
      "kw": 7759,
      "mi": 7760,
      "pinga": 7761,
      "uals": 7762,
      "Ġmibi": 7763,
      "urg": 7764,
      "oranye": 7765,
      "Ġpati": 7766,
      "Ġyiga": 7767,
      "room": 7768,
      "Ġimodoka": 7769,
      "indirimbo": 7770,
      "Ġatari": 7771,
      "ste": 7772,
      "Ġready": 7773,
      "Ġcyag": 7774,
      "Ġsees": 7775,
      "Ġigera": 7776,
      "Ġigipimo": 7777,
      "Ġtrying": 7778,
      "amezi": 7779,
      "Ġbyash": 7780,
      "Ġ54": 7781,
      "ĠStan": 7782,
      "Ġindustri": 7783,
      "Ġbagabo": 7784,
      "ĠIgikombe": 7785,
      "Ġpeace": 7786,
      "Ġgroupe": 7787,
      "Ġapproach": 7788,
      "Ġperman": 7789,
      "Ġconnection": 7790,
      "Ġkubyara": 7791,
      "Ġsecteur": 7792,
      "ĠBoston": 7793,
      "come": 7794,
      "fi": 7795,
      "Ġbake": 7796,
      "Ġcust": 7797,
      "irana": 7798,
      "Ġgic": 7799,
      "ĠAsh": 7800,
      "ukuri": 7801,
      "ĠSince": 7802,
      "Ġyayoboye": 7803,
      "ĠBC": 7804,
      "ĠBubiligi": 7805,
      "ibly": 7806,
      "ĠPop": 7807,
      "kazi": 7808,
      "Ġconna": 7809,
      "ĠWales": 7810,
      "Ġabar": 7811,
      "ĠChris": 7812,
      "Ġdivided": 7813,
      "Ġdistinct": 7814,
      "ĠCharl": 7815,
      "Ġfemmes": 7816,
      "à¸Ģ": 7817,
      "Ġkunywa": 7818,
      "Ġcyclone": 7819,
      "ĠRussian": 7820,
      "Ġressources": 7821,
      "Ġimmediately": 7822,
      "UE": 7823,
      "bl": 7824,
      "har": 7825,
      "jet": 7826,
      "erous": 7827,
      "Ġbushy": 7828,
      "Ġsen": 7829,
      "Ġrifite": 7830,
      "Ġhour": 7831,
      "Ġyih": 7832,
      "Ġtool": 7833,
      "umushinga": 7834,
      "ĠTod": 7835,
      "ereze": 7836,
      "uki": 7837,
      "ĠCle": 7838,
      "ĠConn": 7839,
      "ads": 7840,
      "ĠPO": 7841,
      "Ġforg": 7842,
      "ariat": 7843,
      "ections": 7844,
      "Ġkwisi": 7845,
      "Ġhero": 7846,
      "Ġscience": 7847,
      "Ġ64": 7848,
      "Ġmategeko": 7849,
      "Ġ1979": 7850,
      "Ġ2023": 7851,
      "Ġinternationale": 7852,
      "Ġofficer": 7853,
      "Ġextended": 7854,
      "Ġkibuga": 7855,
      "ibilitÃ©": 7856,
      "Ġcopy": 7857,
      "Ġmesure": 7858,
      "itaraliya": 7859,
      "ubutegetsi": 7860,
      "Ġrespectively": 7861,
      "Ġaccepted": 7862,
      "Ġbushingiye": 7863,
      "Ġseparate": 7864,
      "ram": 7865,
      "ĠÎ": 7866,
      "erce": 7867,
      "Ġajya": 7868,
      "Ġsales": 7869,
      "Ġkim": 7870,
      "asire": 7871,
      "Ġpoll": 7872,
      "Ġlabor": 7873,
      "Ġhaz": 7874,
      "ality": 7875,
      "ingana": 7876,
      "uburengerazuba": 7877,
      "ĠMais": 7878,
      "ĠSir": 7879,
      "ĠSub": 7880,
      "ĠSue": 7881,
      "Ġisuri": 7882,
      "Ġtruck": 7883,
      "Ġactions": 7884,
      "Ġgutema": 7885,
      "Ġinters": 7886,
      "imbirane": 7887,
      "Ġgrass": 7888,
      "Ġactually": 7889,
      "Ġdrum": 7890,
      "ĠPariki": 7891,
      "Ġsuit": 7892,
      "ĠmarchÃ©": 7893,
      "Ġindividual": 7894,
      "ĠStephen": 7895,
      "pe": 7896,
      "rary": 7897,
      "anje": 7898,
      "Ġtor": 7899,
      "enerwa": 7900,
      "Ġwhe": 7901,
      "Ġkumwe": 7902,
      "Ġfeza": 7903,
      "Ġfair": 7904,
      "Ġfiction": 7905,
      "ikira": 7906,
      "ĠKuba": 7907,
      "olika": 7908,
      "ĠLand": 7909,
      "Ġvale": 7910,
      "apfuye": 7911,
      "Ġniwe": 7912,
      "iyeho": 7913,
      "Ġplot": 7914,
      "ĠAmab": 7915,
      "Ġgukorwa": 7916,
      "ĠAlijeriya": 7917,
      "Ġishoramari": 7918,
      "Ġstring": 7919,
      "injiye": 7920,
      "Ġmarried": 7921,
      "Ġmanaged": 7922,
      "Ġsymb": 7923,
      "ĠCommon": 7924,
      "Ġpasseng": 7925,
      "Ġfamil": 7926,
      "ĠKamer": 7927,
      "Ġselon": 7928,
      "Ġdropped": 7929,
      "uruke": 7930,
      "ĠMoz": 7931,
      "struction": 7932,
      "ĠIcyiciro": 7933,
      "ĠSeriveri": 7934,
      "ĠFootball": 7935,
      "ging": 7936,
      "ĠÅ": 7937,
      "inyi": 7938,
      "Ġtrip": 7939,
      "oned": 7940,
      "Ġrishinzwe": 7941,
      "amuka": 7942,
      "Ġoil": 7943,
      "Ġgt": 7944,
      "ĠSisitemu": 7945,
      "Ġzone": 7946,
      "ihango": 7947,
      "ongereye": 7948,
      "ĠJones": 7949,
      "ikazi": 7950,
      "Ġplat": 7951,
      "Ġchannel": 7952,
      "Ġguha": 7953,
      "Ġbakinnyi": 7954,
      "ĠAbak": 7955,
      "Ġngingo": 7956,
      "Ġaccord": 7957,
      "Ġappr": 7958,
      "Ġgushim": 7959,
      "Ġbizwi": 7960,
      "Ġincreasing": 7961,
      "atanyabikorwa": 7962,
      "yapani": 7963,
      "Ġfavorite": 7964,
      "Ġsavoir": 7965,
      "Ġkitchen": 7966,
      "ĠÃ©conomique": 7967,
      "ĠCongress": 7968,
      "Ġparagraphe": 7969,
      "Ġoccurred": 7970,
      "bury": 7971,
      "Ġ#": 7972,
      "ĠØ§ÙĦ": 7973,
      "anse": 7974,
      "Ġmale": 7975,
      "urundi": 7976,
      "Ġdivers": 7977,
      "Ġhyp": 7978,
      "Ġyigihugu": 7979,
      "ĠIv": 7980,
      "Ġtourn": 7981,
      "ĠTime": 7982,
      "ĠSpr": 7983,
      "Ġeg": 7984,
      "termin": 7985,
      "ĠDj": 7986,
      "osing": 7987,
      "Ġzab": 7988,
      "Ġuburebure": 7989,
      "odies": 7990,
      "Ġnotes": 7991,
      "Ġchall": 7992,
      "Ġakomeye": 7993,
      "Ġcool": 7994,
      "Ġgutegura": 7995,
      "ĠUnder": 7996,
      "ĠZeal": 7997,
      "Ġremember": 7998,
      "Ġsmile": 7999,
      "Ġminim": 8000,
      "Ġbright": 8001,
      "Ġinyandiko": 8002,
      "Ġmovie": 8003,
      "Ġmurder": 8004,
      "umuna": 8005,
      "Ġzigera": 8006,
      "ĠSea": 8007,
      "Ġdocuments": 8008,
      "Ġburundu": 8009,
      "Ġmashyamba": 8010,
      "abakobwa": 8011,
      "ĠGlobal": 8012,
      "Ġproblem": 8013,
      "ĠWilson": 8014,
      "Ġinspired": 8015,
      "Ġestimated": 8016,
      "Ġmaximum": 8017,
      "ĠZealand": 8018,
      "ients": 8019,
      "ÙĬ": 8020,
      "eral": 8021,
      "Ġauc": 8022,
      "Ġaura": 8023,
      "Ġmad": 8024,
      "ombo": 8025,
      "ĠGab": 8026,
      "Ġwhy": 8027,
      "ĠVous": 8028,
      "tres": 8029,
      "Ġgukorera": 8030,
      "Ġifumbire": 8031,
      "Ġopportun": 8032,
      "aji": 8033,
      "Ġminute": 8034,
      "Ġbackground": 8035,
      "Ġcharge": 8036,
      "Ġihanitse": 8037,
      "Ġyambere": 8038,
      "Ġnearby": 8039,
      "Ġtypes": 8040,
      "imyidagaduro": 8041,
      "Ġpermett": 8042,
      "Ġlegal": 8043,
      "Ġattempted": 8044,
      "Ġdistrict": 8045,
      "Ġdollars": 8046,
      "Ġvitamin": 8047,
      "ĠNigeriya": 8048,
      "Ġassociated": 8049,
      "Ġrevealed": 8050,
      "ĠBugesera": 8051,
      "Ġndangamurage": 8052,
      "ĠPremier": 8053,
      "isilamu": 8054,
      "ble": 8055,
      "ook": 8056,
      "pfu": 8057,
      "enyi": 8058,
      "iral": 8059,
      "Ġroll": 8060,
      "Ġpan": 8061,
      "ubus": 8062,
      "ubaka": 8063,
      "ĠSn": 8064,
      "akar": 8065,
      "Ġkuwa": 8066,
      "Ġkuyobora": 8067,
      "ĠPier": 8068,
      "istance": 8069,
      "atek": 8070,
      "ateje": 8071,
      "Ġinteg": 8072,
      "Ġwose": 8073,
      "Ġbitera": 8074,
      "umburuke": 8075,
      "Ġweap": 8076,
      "atiques": 8077,
      "ĠAnother": 8078,
      "erts": 8079,
      "urozi": 8080,
      "Ġingingo": 8081,
      "Ġelected": 8082,
      "Ġ1977": 8083,
      "unched": 8084,
      "Ã©nÃ©": 8085,
      "umukara": 8086,
      "ĠannÃ©es": 8087,
      "Ã©lÃ©": 8088,
      "Ġdirectory": 8089,
      "ĠKubona": 8090,
      "ĠDemocr": 8091,
      "abanutse": 8092,
      "Ġkilometres": 8093,
      "ĠMaur": 8094,
      "ĠSecond": 8095,
      "Ġsatisf": 8096,
      "ĠspÃ©cial": 8097,
      "AAF": 8098,
      "SC": 8099,
      "You": 8100,
      "met": 8101,
      "itan": 8102,
      "ampl": 8103,
      "Ġyard": 8104,
      "ĠMommy": 8105,
      "ĠCette": 8106,
      "acu": 8107,
      "actions": 8108,
      "uli": 8109,
      "ĠTheir": 8110,
      "ĠGar": 8111,
      "ĠGames": 8112,
      "ĠPenn": 8113,
      "Ġcyarabu": 8114,
      "Ġbeat": 8115,
      "ushanya": 8116,
      "ĠintÃ©r": 8117,
      "Ġ56": 8118,
      "Ġ57": 8119,
      "Ġ183": 8120,
      "lande": 8121,
      "ĠUruf": 8122,
      "Ġmugaragaro": 8123,
      "umwuzure": 8124,
      "Ġminsi": 8125,
      "anuel": 8126,
      "Ġumunani": 8127,
      "Ġceux": 8128,
      "Ġowner": 8129,
      "Ġstudents": 8130,
      "âĢĿ.": 8131,
      "Ġnyamaswa": 8132,
      "Ġconstructed": 8133,
      "ĠSecret": 8134,
      "Ġsoldiers": 8135,
      "Ġlevels": 8136,
      "Ġkureba": 8137,
      "ĠAthlet": 8138,
      "ĠmaniÃ¨re": 8139,
      "':": 8140,
      "AM": 8141,
      "eraga": 8142,
      "enera": 8143,
      "eseng": 8144,
      "abad": 8145,
      "aging": 8146,
      "uburasirazuba": 8147,
      "urid": 8148,
      "ĠCreek": 8149,
      "ĠRod": 8150,
      "ĠLord": 8151,
      "ĠPor": 8152,
      "ĠPle": 8153,
      "Ġibin": 8154,
      "aval": 8155,
      "ĠWork": 8156,
      "ĠJan": 8157,
      "uzamahanga": 8158,
      "Ġjumped": 8159,
      "intara": 8160,
      "Ġsport": 8161,
      "ĠItalian": 8162,
      "ĠStud": 8163,
      "Ġgrant": 8164,
      "Ġsyn": 8165,
      "Ġanything": 8166,
      "ĠSpanish": 8167,
      "Ġumuti": 8168,
      "Ġicyongereza": 8169,
      "Ġwaters": 8170,
      "Ġdepuis": 8171,
      "Ġlikely": 8172,
      "amabuye": 8173,
      "Ãītat": 8174,
      "Union": 8175,
      "Ġbudget": 8176,
      "ĠBerlin": 8177,
      "Ġpurp": 8178,
      "Ġtraditional": 8179,
      "ĠrÃ¨glement": 8180,
      "Ġreligious": 8181,
      "Ġeducation": 8182,
      "ĠIbikubiyemo": 8183,
      "ĠKameruni": 8184,
      ";.": 8185,
      "BI": 8186,
      "TE": 8187,
      "nement": 8188,
      "oze": 8189,
      "rel": 8190,
      "Ġtun": 8191,
      "Ġnanone": 8192,
      "isoko": 8193,
      "Ġine": 8194,
      "Ġyik": 8195,
      "agenda": 8196,
      "agatif": 8197,
      "ĠTa": 8198,
      "ĠRog": 8199,
      "ĠTheatre": 8200,
      "aped": 8201,
      "essions": 8202,
      "ĠYatsinze": 8203,
      "ĠUmurenge": 8204,
      "teurs": 8205,
      "Ġrelations": 8206,
      "Ġmuby": 8207,
      "Ġ95": 8208,
      "ĠCommittee": 8209,
      "Ġeffort": 8210,
      "Ġbusanzwe": 8211,
      "Ġgikomeye": 8212,
      "Ġannual": 8213,
      "Ġtemper": 8214,
      "Ġanimal": 8215,
      "Ġgishobora": 8216,
      "Ġcombat": 8217,
      "ĠMugihe": 8218,
      "Ġyanditse": 8219,
      "Ġhabaho": 8220,
      "Ġpractice": 8221,
      "Ġenjoyed": 8222,
      "ĠIjambo": 8223,
      "ĠDaniel": 8224,
      "Ġtraffic": 8225,
      "agatifu": 8226,
      "HE": 8227,
      "hab": 8228,
      "Ġbushakashatsi": 8229,
      "Ġnort": 8230,
      "Ġrishingiye": 8231,
      "Ġhino": 8232,
      "ugenge": 8233,
      "ĠMons": 8234,
      "ĠTre": 8235,
      "ĠCorps": 8236,
      "ĠBuhinde": 8237,
      "ĠKwakira": 8238,
      "antage": 8239,
      "Ġonto": 8240,
      "Ġimages": 8241,
      "ĠIns": 8242,
      "Ġikindi": 8243,
      "ĠView": 8244,
      "eshyi": 8245,
      "Ġshiny": 8246,
      "Ġadult": 8247,
      "Ġindi": 8248,
      "Ġingabo": 8249,
      "ĠLee": 8250,
      "Ġthemsel": 8251,
      "Ġincorpor": 8252,
      "umukobwa": 8253,
      "ĠBeat": 8254,
      "Ġlegisl": 8255,
      "ĠpremiÃ¨re": 8256,
      "Ġcurrently": 8257,
      "Ġextra": 8258,
      "ĠOsitaraliya": 8259,
      "ĠEntertain": 8260,
      "Ġmachine": 8261,
      "Ġquarter": 8262,
      "ĠDevelopment": 8263,
      "iriritse": 8264,
      "Ġthemselves": 8265,
      "27": 8266,
      "85": 8267,
      "Aba": 8268,
      "ox": 8269,
      "Ġta": 8270,
      "eranye": 8271,
      "Ġbank": 8272,
      "Ġsources": 8273,
      "Ġcorn": 8274,
      "astr": 8275,
      "Ġpor": 8276,
      "Ġpair": 8277,
      "Ã©ro": 8278,
      "igg": 8279,
      "ĠMuse": 8280,
      "ereje": 8281,
      "ĠCamb": 8282,
      "terambere": 8283,
      "ĠFour": 8284,
      "Ġ1920": 8285,
      "Ġarangiza": 8286,
      "Ġtrue": 8287,
      "ĠâĢ¢": 8288,
      "Ġgutangira": 8289,
      "Ġintara": 8290,
      "ĠdÃ©t": 8291,
      "egek": 8292,
      "ĠArts": 8293,
      "Ġimpinduka": 8294,
      "ublique": 8295,
      "Ġpositions": 8296,
      "ĠClark": 8297,
      "Ġtwenty": 8298,
      "Ġcontrovers": 8299,
      "Ġruhande": 8300,
      "Ġigitabo": 8301,
      "Ġpresented": 8302,
      "ĠMpuzamahanga": 8303,
      "ĠSouthern": 8304,
      "%,": 8305,
      "Ass": 8306,
      "Let": 8307,
      "pri": 8308,
      "ypt": 8309,
      "Ġ`": 8310,
      "orora": 8311,
      "Ġiza": 8312,
      "Ġpu": 8313,
      "Ġhirya": 8314,
      "Ġyimyaka": 8315,
      "ababyeyi": 8316,
      "Ġtoday": 8317,
      "ugako": 8318,
      "igikombe": 8319,
      "Ġyacyo": 8320,
      "Ġyageze": 8321,
      "ĠBad": 8322,
      "Ġthing": 8323,
      "ĠLatin": 8324,
      "ayire": 8325,
      "ĠFe": 8326,
      "Ġubuvuzi": 8327,
      "istan": 8328,
      "answa": 8329,
      "Ġkuburyo": 8330,
      "Ġupper": 8331,
      "Ġuser": 8332,
      "acted": 8333,
      "Ġforms": 8334,
      "coun": 8335,
      "Ġmostly": 8336,
      "ĠCarl": 8337,
      "Ġentreprises": 8338,
      "Ġmajority": 8339,
      "Ġtermin": 8340,
      "Ġpersonne": 8341,
      "ĠInternet": 8342,
      "Ġnshuro": 8343,
      "Ġcomposed": 8344,
      "Ġveh": 8345,
      "Ġsnow": 8346,
      "umuhondo": 8347,
      "Ġdefeat": 8348,
      "ĠService": 8349,
      "Ġfilled": 8350,
      "Ġsuffered": 8351,
      "Ġadventure": 8352,
      "ltimately": 8353,
      "ĠUrufunguzo": 8354,
      "The": 8355,
      "ms": 8356,
      "urt": 8357,
      "Ġnecess": 8358,
      "angur": 8359,
      "yaha": 8360,
      "ĠrÃ´le": 8361,
      "Ġihohoterwa": 8362,
      "ĠIN": 8363,
      "ĠIp": 8364,
      "igis": 8365,
      "ĠMir": 8366,
      "idi": 8367,
      "ĠRÃ©p": 8368,
      "ĠDet": 8369,
      "Ġubumuga": 8370,
      "irizwa": 8371,
      "ĠUmurongo": 8372,
      "Ġagre": 8373,
      "Ġ41": 8374,
      "Ġbakoresha": 8375,
      "Ġbakunze": 8376,
      "Ġremain": 8377,
      "Ġelement": 8378,
      "ĠCla": 8379,
      "Ġbukabije": 8380,
      "anjye": 8381,
      "Ġ250": 8382,
      "Ġattacked": 8383,
      "Ġterms": 8384,
      "Ġfavour": 8385,
      "Ġbelieve": 8386,
      "Ġumunyamakuru": 8387,
      "Ġhabit": 8388,
      "Ġnormal": 8389,
      "Ġamajwi": 8390,
      "Ġkwishyura": 8391,
      "ĠSenegali": 8392,
      "ĠSociety": 8393,
      "Ġtarget": 8394,
      "ĠEntertainment": 8395,
      ".,": 8396,
      "ML": 8397,
      "Rwanda": 8398,
      "rÃ©": 8399,
      "Ġbiza": 8400,
      "Ġcard": 8401,
      "Ġkuruh": 8402,
      "Ġdanger": 8403,
      "ashoboka": 8404,
      "inger": 8405,
      "Ġgiving": 8406,
      "imate": 8407,
      "ikirwa": 8408,
      "ĠAz": 8409,
      "hos": 8410,
      "rot": 8411,
      "ria": 8412,
      "Ġheav": 8413,
      "Ġplaces": 8414,
      "ĠÃ§": 8415,
      "Ġprendre": 8416,
      "Ġchampionship": 8417,
      "ĠAmategeko": 8418,
      "Ġ52": 8419,
      "ancy": 8420,
      "ĠdÃ©fin": 8421,
      "Ġbaza": 8422,
      "Ġformat": 8423,
      "Ġ07": 8424,
      "ĠPrÃ©sident": 8425,
      "Ġ1965": 8426,
      "Ġplusieurs": 8427,
      "ĠIndwara": 8428,
      "Ġmillions": 8429,
      "Ġbihingwa": 8430,
      "ĠColon": 8431,
      "Ġepisodes": 8432,
      "Ġofficers": 8433,
      "Ġbivugwa": 8434,
      "umvire": 8435,
      "Ġreferred": 8436,
      "ĠSelect": 8437,
      "amaraso": 8438,
      "Ġcorresp": 8439,
      "Ġgreater": 8440,
      "Ġlyrics": 8441,
      "ĠBotswana": 8442,
      "ouv": 8443,
      "Ġbungana": 8444,
      "aruwa": 8445,
      "atanije": 8446,
      "Ġcere": 8447,
      "import": 8448,
      "ikuru": 8449,
      "igar": 8450,
      "ĠMot": 8451,
      "ĠOya": 8452,
      "Ġlaunched": 8453,
      "endar": 8454,
      "Ġtrade": 8455,
      "Ġchief": 8456,
      "ĠAmaze": 8457,
      "Ġgutura": 8458,
      "gezi": 8459,
      "Ġgrande": 8460,
      "Uburusiya": 8461,
      "Ġ1971": 8462,
      "ĠProf": 8463,
      "ĠJeff": 8464,
      "umutungo": 8465,
      "Ġyigenga": 8466,
      "Ġyegukana": 8467,
      "yapolitiki": 8468,
      "Ġmuzika": 8469,
      "Ġprivate": 8470,
      "enamiterere": 8471,
      "Ġjusqu": 8472,
      "Ġtant": 8473,
      "Ġbibazo": 8474,
      "itani": 8475,
      "Ġseg": 8476,
      "Ġpurs": 8477,
      "amye": 8478,
      "Ġlake": 8479,
      "Ġgitsina": 8480,
      "iments": 8481,
      "Ġtower": 8482,
      "ubi": 8483,
      "ĠSund": 8484,
      "ĠBec": 8485,
      "ĠBol": 8486,
      "ibicuruzwa": 8487,
      "ĠRE": 8488,
      "ivement": 8489,
      "ĠGard": 8490,
      "Ġunique": 8491,
      "Ġsoul": 8492,
      "Ġbyav": 8493,
      "Ġ58": 8494,
      "Ġsurpr": 8495,
      "Ġgusub": 8496,
      "Ġifasha": 8497,
      "Ġopt": 8498,
      "Ġflower": 8499,
      "ĠIslands": 8500,
      "Ġ1961": 8501,
      "Ġearned": 8502,
      "Ġuhuza": 8503,
      "Ġamahugurwa": 8504,
      "Ġibihingwa": 8505,
      "Ġnshingano": 8506,
      "Ġbuhoro": 8507,
      "Ġreading": 8508,
      "Ġfinancial": 8509,
      "Ġsetting": 8510,
      "Ġpieces": 8511,
      "Ġpouvoir": 8512,
      "Ġpilot": 8513,
      "ĠNIBA": 8514,
      "di": 8515,
      "gar": 8516,
      "Ġtall": 8517,
      "Ġmort": 8518,
      "Ġmoko": 8519,
      "Ġmouse": 8520,
      "Ġdream": 8521,
      "Ġrac": 8522,
      "Ġpuis": 8523,
      "waga": 8524,
      "utch": 8525,
      "ĠAvenue": 8526,
      "iger": 8527,
      "igarag": 8528,
      "igisha": 8529,
      "ĠKenn": 8530,
      "Ġumuvuduko": 8531,
      "Ġimikorere": 8532,
      "ĠvÃ©ri": 8533,
      "Ġamezi": 8534,
      "ĠOf": 8535,
      "Ġikorera": 8536,
      "uziran": 8537,
      "Ġcyak": 8538,
      "Ġsept": 8539,
      "ĠUmurwa": 8540,
      "Ġgukemura": 8541,
      "ĠChamp": 8542,
      "Ġ53": 8543,
      "ĠÃ©qu": 8544,
      "Ġkurangiza": 8545,
      "ĠImir": 8546,
      "Ġbatter": 8547,
      "ujours": 8548,
      "Ġmukinnyi": 8549,
      "Ġmukerarugendo": 8550,
      "Ġteach": 8551,
      "ĠScience": 8552,
      "Ġ1945": 8553,
      "angiritse": 8554,
      "umeka": 8555,
      "Ġprojets": 8556,
      "ĠHolly": 8557,
      "Ġobserved": 8558,
      "Ġfighting": 8559,
      "Ġprimary": 8560,
      "ĠRaporo": 8561,
      "amahoro": 8562,
      "Ġseulement": 8563,
      "aya": 8564,
      "hn": 8565,
      "py": 8566,
      "anota": 8567,
      "Ġbufatanye": 8568,
      "Ġded": 8569,
      "Ġrenseign": 8570,
      "Ġmugezi": 8571,
      "Ġgone": 8572,
      "ĠAC": 8573,
      "eman": 8574,
      "ibikoresho": 8575,
      "ĠRet": 8576,
      "ĠLang": 8577,
      "Ġimbo": 8578,
      "shinzwe": 8579,
      "Ġwait": 8580,
      "ourd": 8581,
      "ĠÃĹ": 8582,
      "ĠprÃ©s": 8583,
      "Ġnothing": 8584,
      "astic": 8585,
      "Ġurw": 8586,
      "aboko": 8587,
      "Ġingano": 8588,
      "Ġoffer": 8589,
      "Ġirenga": 8590,
      "ĠUruk": 8591,
      "ĠÃ©taient": 8592,
      "Ġdemon": 8593,
      "Ġcollection": 8594,
      "ĠGicumbi": 8595,
      "Ġudukoko": 8596,
      "ĠFox": 8597,
      "ĠMichigan": 8598,
      "ĠInkomoko": 8599,
      "Ġjournal": 8600,
      "ministration": 8601,
      "Ġsociety": 8602,
      "ĠSwed": 8603,
      "Ġinvestig": 8604,
      "Ġsilver": 8605,
      "ĠVolleyball": 8606,
      "Ġdeclared": 8607,
      "Ġeconomic": 8608,
      "Ø±": 8609,
      "Ġ|": 8610,
      "Ġmigr": 8611,
      "urube": 8612,
      "eds": 8613,
      "Ġrat": 8614,
      "Ġtoujours": 8615,
      "ĠTop": 8616,
      "ĠCross": 8617,
      "ĠBid": 8618,
      "ĠNya": 8619,
      "ulu": 8620,
      "ĠHor": 8621,
      "Ġbyih": 8622,
      "avutse": 8623,
      "Ġconcl": 8624,
      "book": 8625,
      "enguruka": 8626,
      "text": 8627,
      "ĠcoopÃ©ration": 8628,
      "Ġspread": 8629,
      "ukozi": 8630,
      "Ġadj": 8631,
      "Ġuses": 8632,
      "Ġrough": 8633,
      "Ġyatanzwe": 8634,
      "etsa": 8635,
      "ennye": 8636,
      "Ġfollows": 8637,
      "ĠSeveral": 8638,
      "Ġibyatsi": 8639,
      "ĠIngingo": 8640,
      "Ġsites": 8641,
      "Ġmbonera": 8642,
      "Ġallowing": 8643,
      "ĠRecords": 8644,
      "ĠPatrick": 8645,
      "Ġprimarily": 8646,
      "Ġflying": 8647,
      "ĠNetwork": 8648,
      "ĠGushaka": 8649,
      "Ġunderstand": 8650,
      "Ġkarubone": 8651,
      "uziranenge": 8652,
      "70": 8653,
      "AD": 8654,
      "wami": 8655,
      "Ġcuri": 8656,
      "Ġkav": 8657,
      "anduye": 8658,
      "edd": 8659,
      "aste": 8660,
      "Ġranked": 8661,
      "Ġuherereye": 8662,
      "Ġyisi": 8663,
      "Ġyise": 8664,
      "icungire": 8665,
      "ilande": 8666,
      "ĠMain": 8667,
      "ĠTu": 8668,
      "ĠTechn": 8669,
      "eler": 8670,
      "ĠBern": 8671,
      "akara": 8672,
      "adi": 8673,
      "ĠKim": 8674,
      "Ġimibare": 8675,
      "aria": 8676,
      "Ġiterwa": 8677,
      "Ġiboneka": 8678,
      "ĠFM": 8679,
      "ongerera": 8680,
      "ipaka": 8681,
      "ushake": 8682,
      "Ġuniversity": 8683,
      "ĠYat": 8684,
      "Ġseek": 8685,
      "ighter": 8686,
      "ikorerwa": 8687,
      "ĠChief": 8688,
      "issant": 8689,
      "imbura": 8690,
      "Ġgraph": 8691,
      "Ġmarriage": 8692,
      "ettes": 8693,
      "Ġsomeone": 8694,
      "Ġmatter": 8695,
      "Ġprep": 8696,
      "Ġdrive": 8697,
      "ennent": 8698,
      "Ġcolors": 8699,
      "Ġcontinues": 8700,
      "Ġkwakira": 8701,
      "Ġpublication": 8702,
      "ĠEmpire": 8703,
      "Ġabakobwa": 8704,
      "Ġwavutse": 8705,
      "iyemeje": 8706,
      "Ġpattern": 8707,
      "amajyepfo": 8708,
      "Ġnoneho": 8709,
      "ĠAmashuri": 8710,
      "Abanyamerika": 8711,
      "Ġpicture": 8712,
      "An": 8713,
      "iat": 8714,
      "rah": 8715,
      "ym": 8716,
      "incess": 8717,
      "Ġborder": 8718,
      "urb": 8719,
      "atika": 8720,
      "isÃ©": 8721,
      "ando": 8722,
      "asanga": 8723,
      "Ġru": 8724,
      "Ġhors": 8725,
      "Ġhyd": 8726,
      "âĢİ": 8727,
      "icans": 8728,
      "ĠSimp": 8729,
      "ĠBag": 8730,
      "ĠKit": 8731,
      "ĠLine": 8732,
      "ĠGood": 8733,
      "Ġlaugh": 8734,
      "thur": 8735,
      "Ġalors": 8736,
      "ushond": 8737,
      "Ġprote": 8738,
      "Ġunivers": 8739,
      "Ġencoun": 8740,
      "ĠVide": 8741,
      "onek": 8742,
      "oroka": 8743,
      "ĠThree": 8744,
      "Ġrelatives": 8745,
      "Ġahitwa": 8746,
      "inson": 8747,
      "Ġblood": 8748,
      "echan": 8749,
      "Ġstarting": 8750,
      "Ġbuke": 8751,
      "Ġanymore": 8752,
      "Ġmumash": 8753,
      "Ġrecords": 8754,
      "Ġbinyab": 8755,
      "ĠColumb": 8756,
      "Ġumuhanda": 8757,
      "Ġresulted": 8758,
      "ĠWilliams": 8759,
      "Ġcompris": 8760,
      "Ġkwandura": 8761,
      "Ġcommented": 8762,
      "Ġtells": 8763,
      "Ð°Ð": 8764,
      "ĠTelev": 8765,
      "ĠÃ§a": 8766,
      "Afr": 8767,
      "Ġmibereho": 8768,
      "asse": 8769,
      "Ġrate": 8770,
      "Ġfib": 8771,
      "inguro": 8772,
      "abonye": 8773,
      "enti": 8774,
      "ĠTay": 8775,
      "ĠSave": 8776,
      "eless": 8777,
      "hoye": 8778,
      "ĠLive": 8779,
      "Ġumurwa": 8780,
      "ĠWater": 8781,
      "apes": 8782,
      "ifier": 8783,
      "Ġatatu": 8784,
      "ĠJes": 8785,
      "Ġability": 8786,
      "Ġalone": 8787,
      "izera": 8788,
      "ĠYe": 8789,
      "ĠVers": 8790,
      "ĠIbihugu": 8791,
      "ĠIbidukikije": 8792,
      "Ġsurprise": 8793,
      "imbyi": 8794,
      "Ġflight": 8795,
      "injijwe": 8796,
      "ĠIsra": 8797,
      "position": 8798,
      "akozwe": 8799,
      "Ġ1963": 8800,
      "Ġbegin": 8801,
      "Ġexper": 8802,
      "ĠcontrÃ´le": 8803,
      "Ġ1959": 8804,
      "Ġappropri": 8805,
      "Ġabayobozi": 8806,
      "ikoreshereze": 8807,
      "ĠMadonna": 8808,
      "umutima": 8809,
      "Ġquality": 8810,
      "Ġidentified": 8811,
      "ĠKomisiyo": 8812,
      "Ġtrial": 8813,
      "Ġbecomes": 8814,
      "irimbyi": 8815,
      "ugariro": 8816,
      "Ġsweet": 8817,
      "ĠBraz": 8818,
      "ĠInfantry": 8819,
      "fe": 8820,
      "hi": 8821,
      "nels": 8822,
      "rich": 8823,
      "Ġtag": 8824,
      "onje": 8825,
      "Ġnin": 8826,
      "atumye": 8827,
      "Ġrank": 8828,
      "Ġfail": 8829,
      "ĠIll": 8830,
      "ĠAu": 8831,
      "umaro": 8832,
      "ĠMike": 8833,
      "uriwe": 8834,
      "ĠCAF": 8835,
      "Ġdepression": 8836,
      "iva": 8837,
      "quel": 8838,
      "ĠLong": 8839,
      "ĠLittle": 8840,
      "Ġitariki": 8841,
      "Ġibinyabuzima": 8842,
      "Ġzari": 8843,
      "Ġstations": 8844,
      "Ġconvention": 8845,
      "Ġubuh": 8846,
      "ishw": 8847,
      "unded": 8848,
      "ĠreÃ§": 8849,
      "ĠHejuru": 8850,
      "ĠcoÃ»": 8851,
      "Ġagomba": 8852,
      "anies": 8853,
      "Ġbwakozwe": 8854,
      "Ġshared": 8855,
      "oroheje": 8856,
      "ĠAlb": 8857,
      "ambwe": 8858,
      "ambaga": 8859,
      "arked": 8860,
      "Ġproduct": 8861,
      "Ġbegins": 8862,
      "Ġgiturukiya": 8863,
      "Ġslide": 8864,
      "Ġrequest": 8865,
      "Ġradiyo": 8866,
      "Ġrepe": 8867,
      "amasayi": 8868,
      "Ġcovered": 8869,
      "hodes": 8870,
      "ĠeuropÃ©en": 8871,
      "ibihingwa": 8872,
      "Ġmuhanda": 8873,
      "ceeded": 8874,
      "Ġsiyansi": 8875,
      "Ġdamaged": 8876,
      "mit": 8877,
      "wite": 8878,
      "Ø¯": 8879,
      "Ġmind": 8880,
      "Ġcode": 8881,
      "irit": 8882,
      "Ġiya": 8883,
      "Ġfuel": 8884,
      "Ġinfr": 8885,
      "wavu": 8886,
      "imer": 8887,
      "ĠSu": 8888,
      "ĠBow": 8889,
      "akanye": 8890,
      "ibibazo": 8891,
      "add": 8892,
      "irayi": 8893,
      "ĠGa": 8894,
      "ĠGal": 8895,
      "Ġubuyobozi": 8896,
      "ĠEst": 8897,
      "Ġwahoze": 8898,
      "itewe": 8899,
      "Ġreform": 8900,
      "Ġigamije": 8901,
      "Ġexport": 8902,
      "Ġagace": 8903,
      "wij": 8904,
      "ĠStone": 8905,
      "ĠdÃ©m": 8906,
      "ĠdÃ©termin": 8907,
      "imbuye": 8908,
      "Ġnews": 8909,
      "itaire": 8910,
      "Ġmatches": 8911,
      "Ġending": 8912,
      "Ġcommander": 8913,
      "Ġgisirikare": 8914,
      "ĠprÃ©sente": 8915,
      "ĠValley": 8916,
      "Ġkwagura": 8917,
      "Ġbehav": 8918,
      "angurambaga": 8919,
      "ushondanga": 8920,
      "AP": 8921,
      "aide": 8922,
      "jected": 8923,
      "viziyo": 8924,
      "writ": 8925,
      "Ġbombi": 8926,
      "Ġbushya": 8927,
      "andura": 8928,
      "Ġhospital": 8929,
      "Ġyards": 8930,
      "ĠMun": 8931,
      "ĠCes": 8932,
      "ĠBi": 8933,
      "otic": 8934,
      "ĠLy": 8935,
      "Ġvess": 8936,
      "ĠFA": 8937,
      "Ġstone": 8938,
      "Ġniho": 8939,
      "Ġcomes": 8940,
      "Ġikimera": 8941,
      "ĠYize": 8942,
      "obyi": 8943,
      "trl": 8944,
      "Ġryab": 8945,
      "Ġurugendo": 8946,
      "Ġntiya": 8947,
      "Ġicon": 8948,
      "ereki": 8949,
      "Ġbagiye": 8950,
      "Ġ1969": 8951,
      "Ġkumug": 8952,
      "Ġtransl": 8953,
      "ĠProject": 8954,
      "Ġaccident": 8955,
      "icyatsi": 8956,
      "ishyirahamwe": 8957,
      "Ġmaster": 8958,
      "atically": 8959,
      "ĠBelg": 8960,
      "amatungo": 8961,
      "Ġigihingwa": 8962,
      "ĠRyari": 8963,
      "Ġreduced": 8964,
      "Ġinstrument": 8965,
      "Ġtereviziyo": 8966,
      "Ġmultiple": 8967,
      "Ġcorrespond": 8968,
      "29": 8969,
      "IF": 8970,
      "hamwe": 8971,
      "Ð¾": 8972,
      "Ġtend": 8973,
      "Ġax": 8974,
      "ĠsÃ©": 8975,
      "Ġdit": 8976,
      "Ġdyn": 8977,
      "Ġlock": 8978,
      "Ġhill": 8979,
      "unior": 8980,
      "ĠAbo": 8981,
      "ĠBan": 8982,
      "ivitÃ©": 8983,
      "ĠHit": 8984,
      "ĠHay": 8985,
      "Ġcyu": 8986,
      "ĠFile": 8987,
      "ĠField": 8988,
      "oreye": 8989,
      "izamu": 8990,
      "Ġgutw": 8991,
      "Ġintungamubiri": 8992,
      "Ġbiribwa": 8993,
      "Ġbazi": 8994,
      "ĠrÃ©un": 8995,
      "Ġ1967": 8996,
      "Ġkumurongo": 8997,
      "Ġcaptain": 8998,
      "ĠByongeye": 8999,
      "Ġkigero": 9000,
      "Ġchez": 9001,
      "pedo": 9002,
      "Ġamasegonda": 9003,
      "stitution": 9004,
      "ĠGeorg": 9005,
      "Ġhorse": 9006,
      "ĠEgypt": 9007,
      "Ġyakiniye": 9008,
      "like": 9009,
      "town": 9010,
      "Ø³": 9011,
      "angan": 9012,
      "anges": 9013,
      "atangira": 9014,
      "Ġcam": 9015,
      "iranye": 9016,
      "yah": 9017,
      "Ġdim": 9018,
      "Ġrur": 9019,
      "Ġrif": 9020,
      "Ġrabb": 9021,
      "Ġporogaramu": 9022,
      "Ġgives": 9023,
      "ĠAuthor": 9024,
      "ĠMali": 9025,
      "ĠRuh": 9026,
      "ĠLoi": 9027,
      "Ġcyar": 9028,
      "Ġimag": 9029,
      "Ġitems": 9030,
      "ashini": 9031,
      "Ġhear": 9032,
      "Ġheight": 9033,
      "Ġkugurisha": 9034,
      "tress": 9035,
      "Ġguterwa": 9036,
      "Ġgutakaza": 9037,
      "Ġshall": 9038,
      "ightly": 9039,
      "Ġdiscr": 9040,
      "Ġintera": 9041,
      "Ġimpact": 9042,
      "Ġpeu": 9043,
      "ockey": 9044,
      "mouth": 9045,
      "ĠNews": 9046,
      "Ġassigned": 9047,
      "Ġ1966": 9048,
      "ĠUkr": 9049,
      "ĠElizab": 9050,
      "Ġseront": 9051,
      "ahawe": 9052,
      "Ġoccasion": 9053,
      "ĠMusanze": 9054,
      "ĠBook": 9055,
      "Ġcertains": 9056,
      "Ġumurongo": 9057,
      "ĠUmukinnyi": 9058,
      "Ġkwitabira": 9059,
      "Ġcompetition": 9060,
      "Ã³n": 9061,
      "Ġnouvelle": 9062,
      "That": 9063,
      "eurs": 9064,
      "las": 9065,
      "sons": 9066,
      "iner": 9067,
      "ares": 9068,
      "Ġwel": 9069,
      "Ġsides": 9070,
      "Ġciv": 9071,
      "Ġduto": 9072,
      "asobwa": 9073,
      "Ġpaid": 9074,
      "usiya": 9075,
      "umyo": 9076,
      "ĠSet": 9077,
      "aker": 9078,
      "ĠKong": 9079,
      "ĠNiba": 9080,
      "Ġkuza": 9081,
      "ĠGer": 9082,
      "ashaka": 9083,
      "ĠEp": 9084,
      "Ġababyeyi": 9085,
      "undred": 9086,
      "ĠUmur": 9087,
      "uvug": 9088,
      "ĠIbimenyetso": 9089,
      "Ġ51": 9090,
      "issent": 9091,
      "Ġurwo": 9092,
      "Ġcontain": 9093,
      "Ġizuba": 9094,
      "Ġentry": 9095,
      "isitani": 9096,
      "Ġziz": 9097,
      "Ġdrink": 9098,
      "ĠNiwe": 9099,
      "Ġbrown": 9100,
      "anjemo": 9101,
      "Ġrugero": 9102,
      "ficient": 9103,
      "Ġrealized": 9104,
      "Ġwindows": 9105,
      "ĠsociÃ©tÃ©": 9106,
      "ĠYavukiye": 9107,
      "Ġpromotion": 9108,
      "ashakanye": 9109,
      "ĠSquadron": 9110,
      "Ġyamenyekanye": 9111,
      "Ġbushyinguro": 9112,
      "ĠRÃ©publique": 9113,
      "What": 9114,
      "gt": 9115,
      "wira": 9116,
      "Ġaugment": 9117,
      "Ġmah": 9118,
      "Ġbishanga": 9119,
      "Ġbamaze": 9120,
      "Ġbaturutse": 9121,
      "Ġdire": 9122,
      "Ġryi": 9123,
      "ĠMem": 9124,
      "ĠTang": 9125,
      "ĠCtrl": 9126,
      "ĠBang": 9127,
      "ĠBud": 9128,
      "ĠPan": 9129,
      "Ġstock": 9130,
      "Ġubuhanga": 9131,
      "ahizamu": 9132,
      "ishyamba": 9133,
      "stan": 9134,
      "Ġlaid": 9135,
      "Ġunit": 9136,
      "Ġrein": 9137,
      "ogg": 9138,
      "Ġgutangiza": 9139,
      "Ġukinira": 9140,
      "ijimye": 9141,
      "Ġrelative": 9142,
      "Ġzayo": 9143,
      "Ubwongereza": 9144,
      "Ġngaruka": 9145,
      "Ġproduce": 9146,
      "zamutse": 9147,
      "Ġbuy": 9148,
      "Ġimyenda": 9149,
      "Ġseconds": 9150,
      "ucoup": 9151,
      "ĠBefore": 9152,
      "ĠAndrew": 9153,
      "Ġjustice": 9154,
      "Ġlisted": 9155,
      "Ġportion": 9156,
      "Ġgoodbye": 9157,
      "ereranyo": 9158,
      "Ġcontroll": 9159,
      "Ġactivity": 9160,
      "Ġwrong": 9161,
      "Ġdistribution": 9162,
      "ylv": 9163,
      "umusaruro": 9164,
      "Ġarchitect": 9165,
      "ĠDepartment": 9166,
      "Ġinstitutions": 9167,
      "Ġindependent": 9168,
      "Ġplatform": 9169,
      "CS": 9170,
      "bec": 9171,
      "nelle": 9172,
      "tic": 9173,
      "Äĩ": 9174,
      "Åį": 9175,
      "Ġtired": 9176,
      "Ġmine": 9177,
      "Ġbimeze": 9178,
      "enue": 9179,
      "oration": 9180,
      "Ġwam": 9181,
      "Ġrule": 9182,
      "amafi": 9183,
      "ĠfÃ©d": 9184,
      "Ġokay": 9185,
      "ici": 9186,
      "unika": 9187,
      "adow": 9188,
      "ĠNsh": 9189,
      "othes": 9190,
      "ĠHere": 9191,
      "Ġumaze": 9192,
      "Ġhen": 9193,
      "verse": 9194,
      "oding": 9195,
      "ireb": 9196,
      "Ġbwite": 9197,
      "Ġexerc": 9198,
      "Ġbutter": 9199,
      "ĠAmaj": 9200,
      "zoka": 9201,
      "Ġnda": 9202,
      "heruka": 9203,
      "asty": 9204,
      "ĠUbuyobozi": 9205,
      "Ġbigomba": 9206,
      "erekane": 9207,
      "Ġ76": 9208,
      "Ġappar": 9209,
      "fois": 9210,
      "Ġfilmed": 9211,
      "Ġsubs": 9212,
      "Ġmyugariro": 9213,
      "ĠProv": 9214,
      "Ġprovinc": 9215,
      "Ġdirectly": 9216,
      "Ġmagambo": 9217,
      "Ġarticle": 9218,
      "ĠAgaciro": 9219,
      "Ġsuite": 9220,
[...]
