{
  "abacuruzi": 29291,
  "irable": 25916,
  "Ġ%": 941,
  "ĠYugos": 17966,
  "angero": 27933,
  "ilah": 24824,
  "Ã§": 2227,
  "Ġdevoted": 25596,
  "ugura": 11181,
  "Ġconfiguration": 10058,
  "ĠDram": 30772,
  "ĠTuniziya": 9749,
  "Ġfus": 23305,
  "ĠWind": 6887,
  "Ġyavuze": 4023,
  "ĠLarry": 26386,
  "Ġtalent": 21492,
  "rid": 13333,
  "Ġrest": 1986,
  "imyidagaduro": 8041,
  "Ġishami": 4304,
  "udugudu": 10410,
  "Ġfame": 21617,
  "ĠPrincip": 16538,
  "Ġvalues": 9393,
  "Ġsant": 4328,
  "Ġikiremwamuntu": 30913,
  "EE": 17638,
  "Ġdialog": 3951,
  "MR": 20132,
  "ĠRic": 18186,
  "uwasi": 19729,
  "rom": 532,
  "ibiyobyabwenge": 19255,
  "Ġgukunda": 18764,
  "ĠUmunyarwanda": 19118,
  "Ġtraite": 19777,
  "Ġswe": 5714,
  "Ġclient": 14447,
  "roche": 31320,
  "ĠDocument": 7678,
  "Ġcentr": 16063,
  "aruganda": 13695,
  "Ġredevelop": 31088,
  "uruhererekane": 17489,
  "Ġumupaka": 12430,
  "Ġshipped": 24007,
  "Ġseries": 1979,
  "ĠFalls": 21507,
  "centage": 20346,
  "arg": 5978,
  "ĠMatirise": 25125,
  "Ġexit": 13137,
  "ĠJab": 28869,
  "ĠPossible": 23861,
  "Ġade": 23937,
  "Ġmuko": 15436,
  "umuceri": 11913,
  "Ġdevastating": 31093,
  "Ġlien": 27243,
  "Ġboat": 6992,
  "abere": 15441,
  "ĠCD": 7305,
  "Ġlet": 3067,
  "estic": 11278,
  "iez": 12558,
  "ique": 1135,
  "Ġstable": 14272,
  "ĠintÃ©r": 8117,
  "Ġziv": 16054,
  "Ġdancers": 17176,
  "ĠCritics": 19804,
  "while": 9815,
  "kan": 21175,
  "roit": 9568,
  "Ġdiam": 13931,
  "ĠPuis": 25422,
  "Ġindabyo": 26108,
  "shin": 30508,
  "Ġbande": 27924,
  "Ġibyumweru": 22195,
  "ĠFM": 8679,
  "erior": 10413,
  "actic": 24983,
  "Ġmerchant": 21096,
  "9": 42,
  "Ġneutral": 18650,
  "ĠReed": 27549,
  "veral": 1896,
  "Ġtwo": 935,
  "umunya": 23052,
  "Ġpapa": 21218,
  "ĠTennessee": 16543,
  "Ġiva": 10136,
  "ĠBec": 8485,
  "Ġotherwise": 16455,
  "ĠFONERWA": 26015,
  "Ġprofessionnelle": 19757,
  "ĠInsanganyamatsiko": 21902,
  "ikira": 7906,
  "ĠSalvador": 31099,
  "ellar": 25472,
  "wavu": 8886,
  "Ġautomatically": 15219,
  "Ġikwiye": 25452,
  "ĠIG": 11097,
  "urbed": 25896,
  "Ġzifite": 5511,
  "Ġmugabo": 14304,
  "umut": 2627,
  "ĠElizab": 9050,
  "inyungu": 13990,
  "Ġreluct": 19955,
  "Ġrukoreshwa": 27553,
  "ĠInyam": 18746,
  "Ġcylinder": 30222,
  "anota": 8567,
  "ĠMÃ©d": 22871,
  "ĠRusesabag": 20009,
  "iform": 10276,
  "ĠGrant": 9382,
  "Ġjusqu": 8472,
  "Ġprojet": 5627,
  "Ġkiriya": 13659,
  "olic": 30452,
  "uchi": 23555,
  "Ġreviewers": 21044,
  "Ġsharks": 31011,
  "ĠIcyemezo": 20663,
  "Ġbikab": 18785,
  "hohotewe": 11996,
  "Ġcomme": 2987,
  "yarana": 27450,
  "organisation": 15973,
  "Ġpublished": 4140,
  "Ġseconds": 9150,
  "Ġbehalf": 18343,
  "ĠHelp": 23643,
  "ĠSheikh": 28171,
  "Ġscroll": 27416,
  "Ġmind": 8880,
  "ĠGeor": 2733,
  "Ġveiller": 20351,
  "Ġprior": 5126,
  "Ġapporter": 31580,
  "Ġregardless": 26990,
  "Ġmanaging": 28251,
  "Ġspecified": 9912,
  "itÃ©s": 2132,
  "cred": 13758,
  "?\"": 2663,
  "ĠMas": 4676,
  "Ġibyumba": 19372,
  "ĠMk": 23813,
  "ventions": 11057,
  "Ġbyemejwe": 25895,
  "vutse": 1384,
  "Ġml": 31203,
  "ĠStaff": 16846,
  "Ġibiganiro": 9496,
  "ĠPalace": 15206,
  "Ġbyigihe": 30466,
  "Ġbyatewe": 13123,
  "Ġay": 4218,
  "Ġmeeting": 6697,
  "Ġconseils": 22756,
  "Ġnames": 7274,
  "Ġcelles": 10779,
  "ĠPont": 29628,
  "Ġrepairs": 18807,
  "Ġnyak": 12750,
  "Ġ1789": 30127,
  "Ġrepresent": 3762,
  "Ġfive": 2758,
  "Ġrescue": 17868,
  "etary": 21629,
  "ign": 786,
  "ĠYouth": 18838,
  "Ġregistered": 17628,
  "ierre": 29786,
  "Ġyumupira": 19555,
  "Ġperfectly": 24655,
  "Ġrubuga": 15196,
  "ĠUburusiya": 19640,
  "itch": 4813,
  "Ġbigaragara": 7543,
  "ĠPs": 30471,
  "ĠBufaransa": 6789,
  "yaruguru": 1788,
  "ĠUmwami": 14348,
  "Ġlike": 1544,
  "Ġ117": 21379,
  "Ġimyanda": 5069,
  "teka": 19630,
  "ĠMes": 10197,
  "MI": 12193,
  "Ġimv": 6525,
  "occ": 6061,
  "Ġ76": 9208,
  "Ġazajya": 27673,
  "has": 9409,
  "Ġog": 20841,
  "ĠQuÃ©bec": 15242,
  "net": 24250,
  "ĠManager": 16492,
  "Ã": 145,
  "Ġhah": 10482,
  "clair": 23454,
  "ĠKicukiro": 10869,
  "Stock": 18086,
  "Ġabanyeshuri": 6558,
  "Ġshoot": 7584,
  "ufat": 3190,
  "gs": 9545,
  "ĠLiga": 31357,
  "urier": 24837,
  "Ġyanditse": 8219,
  "Ġkiba": 9617,
  "Ġcomputer": 11297,
  "ĠRobo": 31662,
  "ĠRegiment": 11903,
  "ark": 966,
  "ĠUruganda": 9788,
  "ĠAgasanduku": 14533,
  "ĠJama": 17263,
  "Ġbashobore": 31602,
  "athy": 17092,
  "ĠKan": 5116,
  "YO": 17887,
  "Ġvirtual": 30181,
  "ĠIg": 978,
  "ney": 2551,
  "Ġcl": 728,
  "ĠDesc": 17487,
  "Ġyagarutse": 14303,
  "ikirano": 30868,
  "umye": 2588,
  "Ġbien": 4422,
  "ious": 1626,
  "ĠTimber": 28004,
  "Ġmeteor": 31583,
  "ĠRain": 13249,
  "ailing": 25512,
  "Ġvous": 2264,
  "ĠIX": 27989,
  "Ġkwiy": 9639,
  "izindi": 4463,
  "one": 651,
  "ĠAkazi": 17924,
  "oti": 3978,
  "ĠThey": 803,
  "andik": 4795,
  "Ġforce": 4193,
  "uranzi": 11723,
  "ĠImbar": 28180,
  "ĠDallas": 22911,
  "ĠPropert": 23988,
  "Ġrass": 25333,
  "erie": 19528,
  "imangira": 15776,
  "Ġstrip": 13952,
  "itera": 10328,
  "ĠTh": 799,
  "Ġlots": 5885,
  "Ã©nÃ©g": 28281,
  "ĠDir": 4928,
  "orial": 6495,
  "Ġamatora": 19756,
  "Ġintroduction": 12183,
  "ĠTransport": 12947,
  "Ġ29": 2897,
  "itangazamakuru": 5979,
  "ĠAmashuri": 8710,
  "ĠBugereki": 31910,
  "Ġkump": 25022,
  "Ġryag": 10418,
  "annah": 24467,
  "ĠIkib": 28190,
  "Ġry": 616,
  "ĠÃ": 537,
  "Ġbiganisha": 21341,
  "Ġzigamije": 18280,
  "Ġdernier": 14198,
  "Ġprint": 5682,
  "ĠKaren": 25622,
  "Ã©cole": 24326,
  "rice": 10770,
  "yamb": 16838,
  "Ġ83": 16449,
  "Ġihene": 20507,
  "ĠÃ©": 725,
  "Ġciv": 9071,
  "Ġikagira": 13736,
  "ĠPorts": 22057,
  "ibiyaga": 11101,
  "Ġinyungu": 4153,
  "ą": 211,
  "ls": 12968,
  "Ġgutekereza": 13563,
  "ĠReading": 22201,
  "ĠCreek": 8149,
  "ĠPrem": 6440,
  "Ġhistor": 4726,
  "Ġimprove": 12827,
  "itime": 16568,
  "Ġyasanze": 25069,
  "Ġcaterpillar": 30231,
  "Ġnuit": 21198,
  "ĠCh": 709,
  "ĠFAO": 28523,
  "umaro": 8832,
  "Ġimyitwarire": 12476,
  "Ġalimentaires": 30180,
  "ĠBattle": 5932,
  "osc": 27330,
  "iyandikisha": 28922,
  "ĠDaniel": 8224,
  "Ġiya": 8883,
  "Ġpublish": 15679,
  "Ġwatangije": 29880,
  "ereranyije": 29904,
  "ISI": 21961,
  "ĠChap": 12050,
  "Ġuhagarariye": 15693,
  "ĠdiffÃ©r": 6335,
  "Ġrecordings": 19990,
  "ĠExecutive": 24550,
  "sc": 3503,
  "ien": 1566,
  "anced": 5965,
  "Ġbridges": 19692,
  "Ġumucuruzi": 16202,
  "Ġ91": 13503,
  "intÃ©gr": 16430,
  "Ġmaxim": 6488,
  "Ġrefer": 3689,
  "Ġkit": 5185,
  "ecess": 6143,
  "nut": 27894,
  "Ġhabits": 28394,
  "Ġgusuzuma": 9843,
  "amakara": 18081,
  "Ibidukikije": 12257,
  "onezam": 14601,
  "Ġibishanga": 7188,
  "etic": 7349,
  "Ġseconde": 27522,
  "imore": 13711,
  "Ġvoud": 16081,
  "ĠRishya": 22458,
  "Ġresults": 9736,
  "Ġdirector": 6213,
  "ĠIng": 2043,
  "ĠYunze": 31454,
  "Ġfancy": 30375,
  "Ġyarushanwe": 21378,
  "Ġkinyarwanda": 23047,
  "aram": 26527,
  "ĠâĨ": 23610,
  "Ġcon": 441,
  "Ġaya": 5443,
  "Ġzas": 15304,
  "engur": 20925,
  "Ġsubmerged": 29418,
  "Ġsein": 12223,
  "Ġstreams": 25194,
  "ĠRah": 28033,
  "Ġcapital": 6566,
  "ishimira": 12948,
  "ĠShil": 24481,
  "Ġtrunk": 21708,
  "ĠImbeba": 25266,
  "ĠUk": 1488,
  "Ġvelocity": 29428,
  "Ġ71": 13029,
  "isc": 4070,
  "Ġyelled": 28760,
  "ĠprioritÃ©": 23614,
  "ĠGat": 5080,
  "Ġ194": 1708,
  "Ġumusigiti": 3740,
  "ungiro": 14433,
  "Ġtide": 28691,
  "ĠUbumenyi": 23930,
  "merere": 21382,
  "alc": 26566,
  "ĠRecherche": 31821,
  "CA": 4001,
  "Ġmamm": 18920,
  "Ġwatched": 6718,
  "Ġiyo": 1428,
  "ubutabera": 17341,
  "Ġlandscape": 17331,
  "ĠBerm": 25968,
  "illon": 18754,
  "Ġyahawe": 4574,
  "Ġimpl": 5651,
  "ĠgÃ©nÃ©raux": 27590,
  "ĠHarris": 14363,
  "anic": 21586,
  "ween": 1363,
  "Ġspac": 21722,
  "itions": 1969,
  "Ġwhale": 19932,
  "St": 6120,
  "Ġdir": 1335,
  "Ġzit": 1622,
  "ĠBaltic": 28543,
  "ĠDro": 26664,
  "mel": 16748,
  "ĠAccording": 4057,
  "ĠKip": 23354,
  "Ġrequired": 5988,
  "ĠPract": 31635,
  "isses": 27419,
  "Ġiriho": 20329,
  "Ġyishuri": 19879,
  "Ġiki": 2036,
  "ĠconnaÃ®tre": 23653,
  "ops": 4041,
  "Ġwand": 20830,
  "Ġyubatse": 22623,
  "ĠNil": 18464,
  "ugako": 8318,
  "ĠAsh": 7800,
  "udah": 7540,
  "Ġnkenerwa": 18501,
  "Ġsalari": 26962,
  "Ġskill": 24033,
  "Ġiburengerazuba": 15302,
  "Ġbihenze": 27635,
  "Ġonce": 4565,
  "ĠArabiya": 16520,
  "Ġbyak": 5027,
  "Ġbishobora": 3565,
  "ĠRacing": 27306,
  "owder": 28104,
  "ĠBos": 7571,
  "ĠBrew": 25385,
  "Ġdrag": 15850,
  "Ġthrows": 29312,
  "ÅŁ": 9481,
  "Ġpoll": 7872,
  "Ġicyongereza": 8169,
  "ĠMs": 23814,
  "nesty": 31020,
  "osh": 2298,
  "Ġguhinduka": 10808,
  "Ġhegitare": 30005,
  "onso": 20491,
  "Ġgikomeye": 8212,
  "ĠLions": 25408,
  "Ġpropres": 17710,
  "Ġnarrative": 17621,
  "Ġiz": 1026,
  "Ġon": 412,
  "Ġplantation": 27010,
  "Ġexpect": 14307,
  "Ġtrying": 7778,
  "ows": 4236,
  "ĠAFC": 25359,
  "ĠGihanga": 22320,
  "Ġe": 407,
  "Ġzikenewe": 29865,
  "Ġchemin": 20672,
  "Ġdeme": 31686,
  "amagana": 9969,
  "ĠGrande": 21391,
  "ĠArgentina": 22750,
  "ĠRever": 31732,
  "ayan": 28062,
  "94": 13912,
  "Ġformula": 19047,
  "Ġyakuze": 20627,
  "ĠByzantine": 13673,
  "asons": 6638,
  "ĠTangira": 25374,
  "ingore": 21621,
  "Ġconnect": 11790,
  "otti": 30792,
  "Ġdecl": 5094,
  "Ġaftermath": 24476,
  "ĠGa": 8894,
  "unior": 8980,
  "Ġbackst": 18790,
  "Ġavailable": 4602,
  "Ġcountries": 6467,
  "ĠKuwa": 20649,
  "Ġspin": 17987,
  "Ġste": 4221,
  "car": 21170,
  "ĠWater": 8781,
  "edy": 5996,
  "ĠFur": 9631,
  "Ġreduce": 12486,
  "IRE": 29457,
  "ĠGust": 28051,
  "Ġlegs": 12268,
  "ĠXML": 17783,
  "Ġconfirmed": 9810,
  "ĠSubsequently": 31970,
  "Ġdiagnosis": 27795,
  "RS": 20797,
  "Ġfeet": 4725,
  "Ġkm": 1890,
  "ubufaransa": 18172,
  "Ġsida": 16571,
  "sover": 30583,
  "Ġdesc": 5353,
  "ĠDerek": 26665,
  "ibitabo": 14347,
  "ĠAdichie": 22591,
  "Ġmafunguro": 25244,
  "Ġukina": 2205,
  "Ġquality": 8810,
  "ĠMani": 21247,
  "Ġinyam": 3926,
  "ompl": 9247,
  "ĠRoad": 4387,
  "ĠCulture": 29587,
  "ĠMicha": 20024,
  "Ġbukwiye": 29067,
  "PAC": 26477,
  "ĠDieud": 23673,
  "Ġutile": 27474,
  "ĠControl": 19425,
  "New": 19511,
  "Ġbyangiritse": 30469,
  "fluence": 27113,
  "ĠNziza": 15792,
  "Ġryerekana": 22107,
  "ĠKigali": 1432,
  "ĠFrancis": 6343,
  "erted": 13148,
  "icyumweru": 19077,
  "env": 30331,
  "Ġconcernant": 7002,
  "amaga": 15268,
  "Ġamajyambere": 17828,
  "emic": 10140,
  "Ġpermission": 12817,
  "Ġafatanije": 30585,
  "acte": 20879,
  "ĠIndonesia": 22753,
  "Ġsept": 8539,
  "Ġgutw": 8991,
  "endu": 15630,
  "land": 1004,
  "unganywa": 12217,
  "atre": 4533,
  "ĠKyo": 18181,
  "homme": 9337,
  "ĠenregistrÃ©": 30200,
  "ĠFurthermore": 20100,
  "Ġimvura": 5327,
  "Ġoutf": 22988,
  "Ġacceptance": 25654,
  "ukunda": 13474,
  "ĠKwinjiza": 21029,
  "ĠdÃ©clar": 7683,
  "rient": 23881,
  "Ġhib": 20845,
  "ĠAround": 13243,
  "Ġbigah": 21340,
  "uke": 3288,
  "plication": 24408,
  "Ġdecide": 17758,
  "82": 25278,
  "Ġbyahindutse": 28928,
  "ĠDal": 14940,
  "Ġdowntown": 14472,
  "ĠWords": 28864,
  "acer": 13720,
  "Ġgive": 4247,
  "ĠOnline": 22542,
  "Ġturnpike": 31762,
  "Ġrequest": 8865,
  "ĠZ": 975,
  "Ġumugambi": 21400,
  "Ġubufatanye": 9779,
  "Ġbugomba": 15515,
  "Ġethn": 11661,
  "ugali": 9827,
  "Ġscored": 5331,
  "wara": 1066,
  "ucukumbuzi": 15913,
  "anyany": 10090,
  "Ġ600": 6870,
  "Ġnumus": 31836,
  "Ġpersons": 15681,
  "Ġryabereye": 16434,
  "Ġrac": 8522,
  "ĠF": 429,
  "Ġric": 21611,
  "Ġrub": 3592,
  "Ġvarious": 4466,
  "Ġoperate": 13652,
  "Ġprime": 18493,
  "unga": 967,
  "Ġrar": 13701,
  "Ġrepeat": 29282,
  "ĠKurwanya": 20690,
  "Ġinterviews": 24125,
  "ĠNicolas": 24210,
  "rel": 8190,
  "Ġmilitaires": 25529,
  "ulo": 19265,
  "ER": 3527,
  "Ġlend": 26559,
  "Ġpronounced": 30192,
  "Ġigit": 2724,
  "Ġmpande": 15130,
  "Ġitali": 25427,
  "ĠRail": 7471,
  "ibibaya": 26624,
  "ĠUE": 15610,
  "Ġ58": 8494,
  "Ġincrease": 7177,
  "erera": 4110,
  "ĠRy": 4817,
  "ĠInstitute": 7298,
  "Ġbrilliant": 20120,
  "Ġrelativement": 23946,
  "adresse": 26630,
  "ĠCres": 23343,
  "ĠPatoranking": 29440,
  "ĠMugabo": 18601,
  "d": 85,
  "ĠLimp": 23367,
  "ĠBatter": 30434,
  "amese": 23497,
  "Ġkurwego": 9967,
  "mera": 11169,
  "apha": 28866,
  "urijwe": 22439,
  "Ġihindagurika": 15148,
  "Ġmyuka": 22573,
  "Ġritual": 28455,
  "Ġibihe": 6209,
  "Ġviolation": 29196,
  "emwa": 13718,
  "Ġtension": 19204,
  "77": 14387,
  "ĠdÃ©claration": 16128,
  "ĠSantÃ©": 20742,
  "ĠConstantinople": 27156,
  "Ġidentified": 8811,
  "Ġexplicit": 17776,
  ";?": 20465,
  "olor": 17944,
  "Ġcompr": 3721,
  "Ġconnection": 7790,
  "itaye": 19687,
  "igikorwa": 27268,
  "Ġvolcan": 17795,
  "endaga": 26041,
  "Ġplayers": 5093,
  "Ġwitch": 23070,
  "Ġsurvival": 19129,
  "Ġcaus": 20683,
  "Ġwelcome": 14879,
  "Ġobjectives": 25104,
  "hafi": 21173,
  "ĠBenj": 14996,
  "Ġinhabitants": 24693,
  "tar": 16559,
  "amo": 750,
  "Ġmaz": 19023,
  "Ġuburengerazuba": 22924,
  "ĠUb": 696,
  "Ġbiteye": 18576,
  "urire": 4744,
  "Ġbirometero": 16857,
  "echn": 2345,
  "Ġkin": 1773,
  "Ġpredecess": 17833,
  "Ġbombers": 20728,
  "Ġgarage": 20069,
  "ĠHub": 22469,
  "ĠCont": 4607,
  "Ġbushobozi": 19535,
  "ĠTrin": 31653,
  "Ġurutonde": 11869,
  "shi": 638,
  "vert": 3393,
  "obile": 11038,
  "Umw": 24006,
  "ivers": 1517,
  "Ġprocessing": 26267,
  "igih": 11447,
  "ĠNas": 17685,
  "Ġyubah": 31738,
  "Ġlub": 29538,
  "Ġpassion": 19368,
  "Ġdramatic": 23225,
  "abereye": 25355,
  "anguramo": 19537,
  "Ġbiteganijwe": 9506,
  "ilus": 25361,
  "Ġinkombe": 15345,
  "Ġengaged": 14648,
  "ĠBeck": 19894,
  "Ġkoga": 20592,
  "zamura": 19354,
  "ĠparticipÃ©": 28386,
  "Ġpneum": 29533,
  "ĠFiles": 13766,
  "Ġfin": 1084,
  "Ġclaiming": 17575,
  "Ġbushake": 21867,
  "Ġinst": 1862,
  "oo": 15959,
  "ĠCirc": 11941,
  "Ġzikoresha": 12328,
  "Ġtri": 4202,
  "Ġwacyo": 12414,
  "ĠMax": 3381,
  "ï": 189,
  "Ġforc": 13004,
  "ishwi": 12044,
  "akunda": 20538,
  "yose": 5483,
  "Ġalready": 5352,
  "ĠRosa": 23357,
  "ĠCON": 22028,
  "Ġrwari": 14962,
  "Ġduo": 22517,
  "ĠMutagatifu": 11686,
  "ĠGenesis": 25995,
  "ĠBrow": 24548,
  "ĠIny": 2326,
  "ĠFourth": 22292,
  "ĠArbor": 25518,
  "forme": 17347,
  "ĠRome": 10338,
  "Ġhandled": 21015,
  "ĠSovi": 29240,
  "ĠEss": 20910,
  "infrastructure": 27827,
  "Ġdiplom": 12508,
  "b": 83,
  "ĠUmwand": 5491,
  "new": 26748,
  "ĠLis": 17690,
  "tr": 625,
  "species": 18891,
  "Ġtugomba": 28460,
  "ĠHorn": 20552,
  "86": 22367,
  "Ġmubindi": 17518,
  "ĠBusira": 31861,
  "Ġchapitre": 18632,
  "guk": 18402,
  "iyunge": 30570,
  "Ġuwo": 2994,
  "ĠMin": 1412,
  "Ġgushingira": 29089,
  "ĠBoys": 16122,
  "ĠReddy": 31847,
  "am": 311,
  "Ġif": 922,
  "Ġgouvernements": 17145,
  "Ġntebe": 29513,
  "Ġabay": 22077,
  "bal": 17419,
  "ĠAfite": 5871,
  "rys": 31546,
  "Ġdesktop": 14949,
  "Ġtrading": 30832,
  "Ġaccounts": 14041,
  "ĠWarn": 11281,
  "ĠGirl": 7657,
  "wn": 989,
  "Ġthan": 1357,
  "Ġgusubiza": 15393,
  "Ġdefences": 23031,
  "Ouest": 24749,
  "Ġadult": 8247,
  "obil": 18759,
  "ĠShakespe": 15947,
  "Ġhypothes": 25178,
  "2013": 13537,
  "ĠMandela": 24675,
  "ĠFormat": 27708,
  "Ġtalks": 26345,
  "ubuvanganzo": 26598,
  "Ġobserv": 4088,
  "Ġoverwhelming": 30249,
  "yster": 25578,
  "Ġwiyongera": 24289,
  "idan": 29594,
  "ayed": 6615,
  "ashim": 29659,
  "ĠByahinduwe": 16052,
  "Ġakagira": 26749,
  "irizo": 14434,
  "erageze": 31848,
  "ĠKid": 15998,
  "Ġscreenshot": 18886,
  "Ġvariations": 24029,
  "00": 503,
  "Ġnor": 4416,
  "ĠenquÃªte": 26738,
  "ga": 881,
  "Ġconstituent": 21919,
  "Ġmusic": 2069,
  "ĠLuz": 26650,
  "ined": 2041,
  "Ġriteg": 23780,
  "ĠRun": 9949,
  "Ġkugwa": 16225,
  "...)": 31677,
  "Ġthick": 9777,
  "ion": 340,
  "Ġcyarabu": 8114,
  "Les": 20795,
  "Ġflows": 17753,
  "Ġappl": 3030,
  "Ġrukiko": 16267,
  "Ġenvelop": 29702,
  "Ġjump": 7359,
  "Ġentertain": 17754,
  "Ä©": 18916,
  "Ġneigh": 7029,
  "ĠCampus": 30074,
  "ĠTwenty": 22689,
  "Ġpier": 17449,
  "uzumwe": 26052,
  "ĠSponge": 25564,
  "ake": 800,
  "imiturire": 12499,
  "estre": 28091,
  "ĠHarare": 22633,
  "Ġmotorway": 29295,
  "ophonie": 26952,
  "ĠdÃ©cision": 7146,
  "ancer": 23462,
  "ĠOm": 11751,
  "Ġhasa": 28187,
  "ambye": 4385,
  "ĠAkaba": 12804,
  "Ġbanyam": 18678,
  "Ġmubice": 10216,
  "Ġstead": 29656,
  "ĠimmÃ©diat": 21946,
  "Ġorange": 12780,
  "Ġhidden": 15404,
  "Ñ": 159,
  "Ġamakimbirane": 12088,
  "ĠEast": 4019,
  "alirwa": 27247,
  "Ġpractical": 23139,
  "ĠNorton": 27121,
  "ording": 2630,
  "ce": 452,
  "gezi": 8459,
  "Ġmodule": 15347,
  "Ġapproaches": 22203,
  "Ġfavorite": 7964,
  "ĠÃ©labor": 18824,
  "áĪ": 31190,
  "umuti": 20187,
  "ĠKop": 29599,
  "abaganga": 22225,
  "ĠprÃ©senter": 18310,
  "ĠCovid": 21133,
  "ĠWe": 2170,
  "Ġrats": 28735,
  "ĠSpe": 13161,
  "Ġcelle": 12298,
  "Ġfountain": 31582,
  "ĠEntertain": 8260,
  "engu": 15468,
  "ĠnÃ©gociation": 27748,
  "bonera": 17582,
  "Ġprivately": 28438,
  "ĠEscape": 26700,
  "×": 165,
  "verse": 9194,
  "Ġfle": 3485,
  "ingwamo": 20177,
  "Ġdevenir": 21260,
  "Ġ135": 20654,
  "Ġstri": 15307,
  "ĠKut": 24853,
  "mÃªme": 16972,
  "Ġinkunga": 3099,
  "ukuru": 3578,
  "Ġfibre": 14878,
  "Ġkalindari": 27738,
  "ĠPear": 11745,
  "Ġarrested": 15869,
  "ĠIndwara": 8428,
  "Ġmubisanzwe": 14146,
  "ifies": 16408,
  "Ġmeadow": 26793,
  "ĠNAS": 17687,
  "Ġ-/": 28937,
  "friend": 15621,
  "ĠAgainst": 23679,
  "Ġsuivante": 23125,
  "ĠVide": 8741,
  "Ġgallery": 27093,
  "Ġhakaba": 10170,
  "erwaho": 6289,
  "dom": 3852,
  "lements": 20140,
  "Ġsurviving": 15899,
  "bell": 15414,
  "appro": 13626,
  "cosse": 27880,
  "ship": 1491,
  "ĠAudi": 28775,
  "Ġmise": 5662,
  "ĠGuide": 13877,
  "Ġ1975": 7291,
  "Ġkeretse": 30361,
  "Ġelevated": 27033,
  "ĠSpr": 7983,
  "ĠJerome": 25698,
  "Ġuser": 8332,
  "Ġbushyuhe": 16762,
  "using": 6352,
  "erika": 10932,
  "Ġproduc": 1240,
  "Ġyamut": 26875,
  "Ġrenew": 18597,
  "ĠsociÃ©tÃ©": 9106,
  "Ġmubi": 18522,
  "Ġabonye": 29680,
  "hoboye": 7330,
  "insi": 2284,
  "Ġforever": 17159,
  "Ġkw": 588,
  "Ġentering": 13395,
  "itizi": 9641,
  "Ġvessels": 12504,
  "osis": 14760,
  "ĠGardner": 27063,
  "ĠBrisbane": 31104,
  "ĠJakarta": 25823,
  "Ġargument": 12273,
  "ĠVirginia": 6135,
  "Ġhay": 29545,
  "Ã¨res": 5061,
  "eyer": 18008,
  "stream": 10593,
  "Ġkuguma": 19625,
  "Ġsongwriting": 30174,
  "Ġwiped": 28725,
  "Ġ105": 16654,
  "Ġrefus": 23088,
  "ĠPra": 26000,
  "Ġexperts": 20656,
  "Ġinternationale": 7852,
  "obekere": 24727,
  "uburebure": 10195,
  "ĠTimmy": 2510,
  "Ġjuillet": 13547,
  "aray": 20494,
  "ĠBalk": 26618,
  "Ġrugaragaza": 26872,
  "ĠHave": 30462,
  "ĠAdministration": 14632,
  "ĠKalisa": 31889,
  "Ġexist": 3643,
  "yuze": 2332,
  "Ġkwirinda": 6801,
  "erce": 7867,
  "endant": 5891,
  "itar": 3134,
  "ĠLam": 18977,
  "Ġaside": 10086,
  "ĠMurray": 18174,
  "Ġproduced": 3968,
  "IRO": 21563,
  "ĠDescription": 27816,
  "hejuru": 31201,
  "umuntu": 4248,
  "ĠâĻ": 27646,
  "Ġafternoon": 16048,
  "98": 14540,
  "ĠKir": 7186,
  "ĠRaf": 19259,
  "ĠJenna": 29315,
  "ĠEz": 26029,
  "atutsi": 3726,
  "SI": 2092,
  "ororo": 26536,
  "Ġactual": 15146,
  "ĠprÃ©vention": 16900,
  "ĠDw": 18476,
  "amwe": 704,
  "Ġgukomera": 19946,
  "serv": 3338,
  "Ġbwongereza": 16828,
  "ĠInstitut": 27674,
  "ocket": 14456,
  "Ġappuyer": 25820,
  "Ġgace": 4687,
  "Ġtubiri": 27915,
  "ĠKig": 1317,
  "Ġsquadrons": 26407,
  "ö": 196,
  "ancipation": 30605,
  "endar": 8454,
  "ĠChase": 23931,
  "Ġfired": 11376,
  "Ġcomplete": 6465,
  "Ġindi": 8248,
  "unganira": 13843,
  "Ġprefer": 10106,
  "imbyi": 8794,
  "umufaransa": 31287,
  "Ġ1977": 8083,
  "ĠInteractive": 30862,
  "izweho": 16474,
  "Ġremov": 5435,
  "ushobo": 2256,
  "Ġbakab": 10887,
  "Ġbaba": 5085,
  "ĠTwin": 29223,
  "induzi": 16607,
  "pg": 23257,
  "Ġyanyuma": 23795,
  "ĠAlph": 22534,
  "Ġdecrease": 24187,
  "Ġfires": 24954,
  "Ġumutwe": 7419,
  "Ġkubih": 23413,
  "iniya": 19201,
  "Ġapfa": 22602,
  "Ġinvited": 12924,
  "name": 10558,
  "ĠAten": 23491,
  "Ġrelieved": 17871,
  "Ġumudepite": 25624,
  "Akagera": 17365,
  "Ġmph": 5541,
  "rogen": 18724,
  "ĠMang": 24329,
  "Ġaffecting": 26924,
  "Ġintellig": 9871,
  "Ġamaso": 12146,
  "Cm": 31142,
  "ĠSkanderb": 27025,
  "okie": 20936,
  "Ġbarah": 23481,
  "Ġdev": 2341,
  "ĠInvest": 13134,
  "Ġfollowing": 2399,
  "ĠAprÃ¨s": 20010,
  "Ġspoke": 12454,
  "ĠAugustus": 26906,
  "used": 2391,
  "Ġsponsor": 24173,
  "hou": 12994,
  "Ġizina": 1778,
  "Ġikar": 29687,
  "ogne": 29707,
  "fashe": 13815,
  "Connor": 31084,
  "Ġntsinzi": 29745,
  "Ġbusitani": 22600,
  "Ġexposed": 16527,
  "ĠYatsinze": 8203,
  "Min": 21962,
  "Ġiduka": 24002,
  "Ġprohibited": 29400,
  "umubare": 18952,
  "Ġtelefone": 18888,
  "ĠGihugu": 20555,
  "anyaga": 24923,
  "Ġescaped": 17584,
  "ok": 607,
  "Ã®tre": 9926,
  "ufashije": 28142,
  "ĠDid": 13838,
  "Ġgrows": 27634,
  "ĠUwimana": 23588,
  "ereze": 7836,
  "ĠJets": 28871,
  "Ġarenga": 10802,
  "iller": 5453,
  "obanure": 26844,
  "Ġmuturage": 24564,
  "ĠAzerba": 24221,
  "Ġeducational": 24633,
  "umvo": 28385,
  "Ġnabantu": 18022,
  "Ġkugaruka": 17716,
  "ĠEven": 10797,
  "Ġmud": 4966,
  "mewe": 13493,
  "ĠMuyung": 13266,
  "Ġmpinduka": 18233,
  "Ġendors": 26168,
  "Ġtor": 7899,
  "ĠTommy": 10266,
  "Ġinkingo": 23987,
  "Ġmupaka": 10234,
  "ĠImis": 12901,
  "ĠannÃ©e": 10518,
  "Ġbars": 22561,
  "Ġsubspecies": 19695,
  "Ġsubm": 12472,
  "Ġsoins": 14952,
  "Ġscores": 21737,
  "haje": 26818,
  "Ġcycles": 30896,
  "Ġconducting": 30897,
  "Ġcoordin": 20744,
  "Ġpicture": 8712,
  "Ġmodern": 4538,
  "ĠFlorence": 17585,
  "ĠAbe": 28198,
  "Ġrwar": 19326,
  "ĠIhuriro": 11499,
  "opt": 30538,
  "etti": 16868,
  "utilisation": 11334,
  "cl": 754,
  "Ġnet": 3672,
  "Ġikunda": 12334,
  "Ġama": 13730,
  "Ġtours": 18442,
  "201": 3230,
  "Ð°Ð¼Ð¸Ñ": 29415,
  "ĠTaiwan": 28625,
  "Ġwakozwe": 29517,
  "Ġaccent": 26847,
  "Ġnive": 5863,
  "ifolia": 31415,
  "ĠLisbonne": 28597,
  "ĠIslamu": 29412,
  "ĠDelhi": 25680,
  "Ġadmiss": 22684,
  "Ġclosest": 26251,
  "Ġfaite": 21835,
  "Ã©nie": 21793,
  "Ġhours": 5114,
  "gÄ©": 20801,
  "Ġbwami": 24402,
  "Ġzikiri": 24003,
  "Ġsuccessful": 4244,
  "Ġcoll": 2056,
  "ĠDespite": 5149,
  "Ġ480": 25712,
  "ombaga": 7665,
  "Ġpropert": 6570,
  "Ġspecies": 3421,
  "Ġ\"/": 31341,
  "Ġmammals": 30212,
  "Ġndabo": 31492,
  "ĠLuanda": 29326,
  "Ġprinter": 23420,
  "Ġhepfo": 11468,
  "abakoresha": 21427,
  "Ġnat": 24777,
  "ingana": 7876,
  "Ġyahitanye": 27552,
  "Ġolder": 9917,
  "Ġbelonged": 21501,
  "Ġ1864": 31925,
  "orting": 26060,
  "ĠDialog": 24878,
  "ĠTibet": 25240,
  "iziyo": 3760,
  "Ĝ": 234,
  "irira": 7213,
  "Ġcaps": 15683,
  "ĠvidÃ©": 27334,
  "Ġgreater": 8440,
  "Ġyikinyejana": 25349,
  "ĠKinshasa": 6631,
  "ĠBay": 4281,
  "ĠPlant": 22193,
  "<|eos|>": 2,
  "urray": 16074,
  "ĠAthletics": 11614,
  "ĠdÃ©tail": 27059,
  "ĠSco": 16802,
  "ĠMethod": 23611,
  "Ġbanyamuryango": 20824,
  "ĠLO": 12769,
  "umeny": 17755,
  "Ġvolley": 26246,
  "ĠPedro": 22346,
  "abayobozi": 10877,
  "Ġgeneral": 4941,
  "ĠKarongi": 12492,
  "Ġpil": 5826,
  "Ġswings": 20689,
  "Ġconsumed": 31588,
  "urgence": 18352,
  "ĠMujaw": 22363,
  "ĠGikora": 19595,
  "ĠFranz": 28229,
  "orts": 3621,
  "Ġmoteri": 13779,
  "emia": 19895,
  "Ã©nements": 29066,
  "iyovu": 18012,
  "jav": 25292,
  "Ġwheels": 23178,
  "Ġorganisations": 9918,
  "Ġmuburyo": 4374,
  "ending": 3816,
  "gence": 24245,
  "ĠCort": 25383,
  "Ġsembl": 18693,
  "Ġrun": 1237,
  "throp": 29679,
  "ĠOreg": 12437,
  "Ġgitanga": 16073,
  "Ġgreen": 6706,
  "load": 27602,
  "ĠFerg": 27337,
  "itude": 6400,
  "eing": 15060,
  "Ġconte": 16822,
  "ĠUmwanya": 5683,
  "Ġproven": 21794,
  "sor": 22803,
  "Ġfeder": 7247,
  "ab": 336,
  "ĠrÃ©ex": 31244,
  "38": 13571,
  "ĠMIN": 10489,
  "Ġchallenges": 27091,
  "inding": 14270,
  "Ġwahawe": 24784,
  "ibuka": 20875,
  "Ġwatangijwe": 28316,
  "ĠHawa": 15383,
  "Ġibuye": 26674,
  "Ġbeaucoup": 10089,
  "inye": 12022,
  "gt": 9115,
  "wanashyaka": 28486,
  "ĠWanderers": 21951,
  "Ġsurpr": 8495,
  "zone": 14395,
  "ĠSoon": 10359,
  "urious": 27281,
  "ukuye": 14098,
  "Ġden": 6581,
  "alinÃ©a": 28756,
  "Ġyandika": 19739,
  "wide": 9612,
  "Ġyaso": 5136,
  "uated": 30304,
  "ĠrÃª": 28737,
  "Ġstruggling": 29363,
  "uraya": 20584,
  "ĠWorld": 2099,
  "Ġwages": 24783,
  "ĠCricket": 13776,
  "Ġbattleship": 20429,
  "!": 18,
  "obanura": 3436,
  "Ġ1888": 31860,
  "ĠMountains": 20060,
  "Ġpromises": 28325,
  "hoboraga": 10549,
  "Ġ1960": 4917,
  "ikombe": 2439,
  "emye": 18966,
  "Ġparti": 16036,
  "Ġsud": 7212,
  "ĠÃ©tablir": 26329,
  "ĠÃ©tats": 31609,
  "Ġfictional": 17607,
  "Ġabak": 2888,
  "tain": 3001,
  "Ġyatum": 24470,
  "ĠPete": 17249,
  "Ġmumwaka": 13874,
  "ĠAkad": 15499,
  "Ġrude": 27956,
  "Ġem": 1868,
  "Ġcosm": 24718,
  "ĠThir": 28178,
  "Ġviewers": 10045,
  "Ġchimiques": 26459,
  "Ġthrust": 24135,
  "hew": 10851,
  "Ġbijyanye": 2867,
  "abiranya": 29559,
  "Ġmicungire": 16120,
  "Ġsurveys": 30934,
  "ibu": 5395,
  "yekanisha": 12583,
  "Ġladder": 20444,
  "Ġyumukara": 30390,
  "Ġrebu": 14588,
  "Ġimage": 3767,
  "anika": 19199,
  "Ġgardens": 26294,
  "Ġcontrols": 21435,
  "ĠPark": 3598,
  "Ġdealing": 25158,
  "Ġtourist": 24582,
  "ĠGe": 2255,
  "Ġiterwa": 8677,
  "ĠPictures": 21128,
  "Ġzigizwe": 25053,
  "odic": 25454,
  "Ġmeat": 14298,
  "Ġcanc": 6548,
  "Ibihugu": 19999,
  "Now": 31152,
  "Ġkoko": 22504,
  "Ġdro": 1956,
  "Ġsees": 7775,
  "akurukazi": 28645,
  "Ġtransportation": 28431,
  "ĠHass": 11743,
  "Ġ137": 28274,
  "Ã©rant": 23957,
  "Ġdating": 15075,
  "Ġinyamanswa": 20706,
  "Ġinch": 9699,
  "rafr": 20616,
  "Ġburned": 20756,
  "Ġazam": 25888,
  "wich": 9999,
  "ĠDest": 20563,
  "ĠÃ©trang": 19483,
  "ĠGol": 24869,
  "Ġgasutamo": 21067,
  "ĠWhy": 14585,
  "Ġsoit": 5756,
  "Ġnatural": 7426,
  "len": 27189,
  "fur": 29469,
  "Ġnearly": 6944,
  "ashaka": 9083,
  "Ġattraction": 23127,
  "Ġliterary": 17167,
  "reed": 3650,
  "ĠVol": 4500,
  "ses": 12855,
  "org": 10252,
  "ougou": 25845,
  "Ġpicks": 24077,
  "ibaza": 19656,
  "Ġnone": 4149,
  "Ġassert": 24490,
  "Ġexplicitly": 28598,
  "Ġfinally": 6153,
  "ĠIgik": 16242,
  "Ġholds": 13788,
  "Ġcher": 13014,
  "umuryango": 2288,
  "Ġimprison": 15400,
  "irik": 3524,
  "ANS": 30805,
  "acity": 25397,
  "Ġbyatsi": 19907,
  "omotse": 15270,
  "Ġitabi": 13723,
  "CI": 26472,
  "Ġprote": 8738,
  "ĠBun": 11736,
  "ĠfÃ©d": 9184,
  "Ġattr": 4161,
  "čĊ": 306,
  "Ġsurrounded": 15917,
  "ĠLynn": 28545,
  "Ġgenerated": 14645,
  "Ġmanagement": 10221,
  "ĠWin": 16017,
  "ĠLE": 22467,
  "Ġparticip": 3206,
  "Ġresource": 24964,
  "Ġgushimira": 27716,
  "Ġ79": 11047,
  "Ġbarrel": 28235,
  "Ġreferendum": 30850,
  "ù": 199,
  "feri": 19514,
  "oporora": 12221,
  "onti": 14141,
  "Ġbonus": 30989,
  "Ġdam": 4634,
  "Ġlawyers": 30848,
  "ĠCour": 4100,
  "ĠPri": 6107,
  "wego": 1282,
  "Ġrobust": 30985,
  "Ġaup": 12743,
  "Ġasks": 13841,
  "ĠIGIHE": 19165,
  "Ġarrest": 16080,
  "iam": 2032,
  "ankore": 23463,
  "di": 8515,
  "emption": 28207,
  "asobanutse": 27228,
  "Ġiburyo": 19915,
  "ĠGonz": 27830,
  "ĠOlympic": 13071,
  "ĠBrenda": 31640,
  "Amash": 18283,
  "ĠBeg": 14748,
  "ĠNonetheless": 30130,
  "ateza": 12670,
  "ĠEUR": 26031,
  "ĠorganisÃ©": 29888,
  "ifique": 11752,
  "Ġefficace": 17601,
  "write": 20763,
  "Ġstopped": 6294,
  "eruka": 14909,
  "Ġnyama": 25613,
  "ĠMarc": 11388,
  "ander": 4673,
  "Ġbwerekana": 18492,
  "ĠAbahutu": 28530,
  "ĠNyand": 27473,
  "Ġduring": 1380,
  "Ġgroupe": 7787,
  "atisf": 23284,
  "uzuzo": 31448,
  "Ġmwuga": 11504,
  "Ġkuyikoresha": 27629,
  "Ġexplan": 17542,
  "ĠLebanon": 30239,
  "idage": 25392,
  "Ġexperi": 4692,
  "Ġndangamuco": 18849,
  "wam": 11339,
  "88": 17192,
  "isit": 1116,
  "Ġmilitaire": 21365,
  "Ġibura": 28074,
  "Ġshowed": 5852,
  "Ġindirimbo": 4678,
  "Ġrecurring": 22774,
  "autor": 13995,
  "gajuru": 28984,
  "Ġubukana": 10525,
  "Ġiminyorogoto": 28836,
  "ĠShaw": 15842,
  "ĠIgikorwa": 7141,
  "ĠInnovation": 27097,
  "Ġround": 5760,
  "onent": 10474,
  "Ġwifuza": 24785,
  "Ġbye": 4588,
  "berry": 14664,
  "www": 23216,
  "Ġrefr": 12774,
  "vey": 15492,
  "ĠArgentine": 24700,
  "bo": 450,
  "ĠReserve": 20040,
  "ifashijwemo": 20457,
  "Ġtouchdown": 13792,
  "illeurs": 15161,
  "yana": 9339,
  "hester": 12801,
  "izina": 1465,
  "ĠDevon": 25729,
  "out": 6201,
  "ĠDefense": 27076,
  "Ġizwi": 4022,
  "EL": 16743,
  "ĠGIMP": 25822,
  "anjirije": 9386,
  "ĠFondation": 29320,
  "Ġbiggest": 14960,
  "Ġrinini": 13235,
  "eya": 23247,
  "Ġugereranyije": 11406,
  "Ġrepet": 29911,
  "ĠTrek": 15226,
  "Ġnumugabo": 28714,
  "Ġimipaka": 11274,
  "Ġlabour": 18077,
  "Ġsheep": 18510,
  "Me": 19177,
  "colm": 27044,
  "ĠNIBA": 8514,
  "ĠStudent": 28510,
  "ĠHug": 22898,
  "Ġrutahizamu": 9221,
  "iries": 30528,
  "hological": 30924,
  "Ġayoboye": 21980,
  "ikigereranyo": 29257,
  "Ġsi": 2655,
  "Ġkol": 30359,
  "ĠMetac": 22675,
  "Ġweekend": 16680,
  "ĠRailway": 12188,
  "enson": 20959,
  "Ġusibye": 10215,
  "Ġnin": 8826,
  "Ġautant": 18020,
  "Ġbah": 1522,
  "Ġstate": 2455,
  "Ġinsufficient": 30705,
  "Ġcups": 27740,
  "Ġextinct": 23549,
  "Ġcompromise": 31062,
  "Ġft": 4038,
  "Ġsuiv": 4129,
  "unya": 16365,
  "Ġguhumeka": 17292,
  "Ġobtenu": 30135,
  "Ġryita": 9307,
  "atera": 6477,
  "ĠCrystal": 16321,
  "ueill": 14782,
  "inzuzi": 10308,
  "Ġediting": 24540,
  "AG": 24743,
  "Ġdi": 4353,
  "ĠBÃ©nin": 16955,
  "ĠBrazil": 11417,
  "Ġumutoza": 6707,
  "Ġthe": 295,
  "ct": 1469,
  "ĠFine": 29645,
  "ĠKad": 13594,
  "usaba": 19882,
  "Ġstrength": 9850,
  "bec": 9171,
  "ere": 356,
  "ĠPro": 1464,
  "ĠCambridge": 9541,
  "ĠZone": 13030,
  "ĠHutch": 29617,
  "Ġsu": 1922,
  "ĠAnita": 28175,
  "Ġrwemewe": 30016,
  "ĠReynolds": 30164,
  "o": 96,
  "Ġrevenue": 16825,
  "ĠSquadron": 9110,
  "ucu": 17700,
  "Ġjeunes": 10042,
  "Ġvisits": 26904,
  "ugariro": 8816,
  "umbira": 28157,
  "PP": 10127,
  "ibanire": 13835,
  "Ã©quipe": 16703,
  "Ġreinforce": 31997,
  "Ġmile": 11719,
  "Ġregarding": 14353,
  "Ġwelcomed": 23236,
  "ĠVC": 16229,
  ".\"": 1468,
  "otanyi": 17245,
  "ĠSchool": 4367,
  "Ġmultipl": 15721,
  "ĠRugby": 29219,
  "uous": 24254,
  "ĠCivil": 10653,
  "Ġlane": 14252,
  "Ġextremely": 14703,
  "Ġhelps": 17097,
  "ĠMozambique": 25203,
  "rase": 13093,
  "Ġumutekano": 6211,
  "Ġreel": 29686,
  "Ġitungo": 26671,
  "ĠFam": 10345,
  "Ġamatafari": 26973,
  "Ġinhib": 29543,
  "Ġcalls": 10223,
  "yash": 21608,
  "ĠKle": 28026,
  "Ġutandukanye": 28241,
  "ĠErik": 26939,
  "Ġrestricted": 22308,
  "Ġoperational": 18298,
  "ĠFond": 11107,
  "'.": 6393,
  "Ġstreets": 14065,
  "ĠLÃ©": 20889,
  "ĠMichigan": 8598,
  "wandakazi": 4401,
  "Ġalle": 12441,
  "ĠCas": 10267,
  "ric": 1314,
  "Ġimpinduka": 8294,
  "alion": 7650,
  "Ġyatoranijwe": 11673,
  "ĠFurther": 10922,
  "Ġtouc": 13109,
  "Ġingufu": 3843,
  "wel": 6325,
  "ĠChoice": 17834,
  "Ġbyubuzima": 22053,
  "ĠYashinze": 28534,
  "ĠER": 21682,
  "umunyarwandakazi": 12073,
  "Ġunsigned": 27689,
  "Ġoptim": 17608,
  "Ġagaragara": 11115,
  "Ġappearance": 6214,
  "icuruzwa": 2626,
  "Ġcrosses": 15528,
  "sts": 23402,
  "ĠÑŁ": 31934,
  "ĠChang": 24946,
  "Ġattracted": 17578,
  "Ġseason": 1674,
  "Ġsuspect": 29231,
  "Ġfortifications": 22688,
  "Ġ1897": 16282,
  "ugenge": 8233,
  "nÃ©s": 17644,
  "ablanca": 19370,
  "arimu": 4855,
  "ĠUnit": 22994,
  "sk": 14392,
  "agurisha": 12991,
  "Ġparmi": 19319,
  "ĠIMPINDURAGACIRO": 25840,
  "estle": 22923,
  "Ġengag": 12581,
  "Ġex": 571,
  "Ġyarimo": 26840,
  "ĠVat": 23918,
  "jwi": 24755,
  "ĠBenn": 16187,
  "Ġbwah": 22519,
  "urasira": 1547,
  "Ġbishoboka": 10818,
  "umuna": 8005,
  "ĠThings": 27431,
  "Ġyanduza": 29171,
  "ĠUG": 30449,
  "ĠTravel": 28584,
  "Ġigah": 26734,
  "Ġexpedition": 13084,
  "ĠOR": 27352,
  "Ġgikwiye": 30735,
  "Ġituma": 9357,
  "ilima": 29564,
  "Ġimpfu": 23000,
  "ĠAnton": 18223,
  "ĠArabic": 29230,
  "Ġadopted": 10916,
  "ĠMina": 25367,
  "ĠMitt": 17929,
  "Ġbra": 29499,
  "Ġarranged": 13313,
  "Ã´t": 4548,
  "irabura": 9758,
  "Ġ73": 10675,
  "BC": 3627,
  "ĠLeaf": 28988,
  "isekuru": 18232,
  "Ġkwari": 18496,
  "anyuma": 2096,
  "zam": 1254,
  "Ġdoubles": 28564,
  "esengura": 10383,
  "Ġkugira": 1161,
  "ĠBanglad": 23662,
  "Ġbyagiye": 23571,
  "anziriza": 19338,
  "Ġonline": 11653,
  "Ġshear": 17739,
  "Ġwants": 9910,
  "issipp": 15821,
  "ĠPrior": 14044,
  "hesha": 16731,
  "ĠcompÃ©tence": 22711,
  "andurira": 23294,
  "yahoze": 21609,
  "ĠViet": 7579,
  "ĠAchie": 25358,
  "Ih": 25283,
  "ĠCOM": 14843,
  "ĠÃ©tant": 13154,
  "ĠSiyera": 15943,
  "ĠOlympique": 31923,
  "ĠdifficultÃ©s": 24606,
  "Ġkigera": 20318,
  "Ġnett": 28713,
  "ĠNotre": 15904,
  "Ġbibazo": 8474,
  "Ġabsence": 16926,
  "het": 5748,
  "Ġproduire": 30861,
  "Ġmed": 2596,
  "enywa": 26187,
  "ĠShir": 23974,
  "Ġgovernment": 2789,
  "Ġbaw": 23471,
  "ĠNu": 25982,
  "hest": 5793,
  "Ġflee": 25638,
  "ĠAhantu": 10830,
  "Ġuc": 18155,
  "vements": 12972,
  "ĠNiyon": 24172,
  "ĠbÃ©nÃ©f": 24672,
  "Ġrepr": 2223,
  "ĠCad": 15597,
  "ĠQueen": 7237,
  "ĠFerwafa": 20116,
  "Ġthunderst": 25403,
  "erity": 30316,
  "yejana": 3115,
  "Ġmus": 1471,
  "Ġtechnolog": 13178,
  "Ġachieving": 31939,
  "Ġ000": 1556,
  "Ġfake": 27960,
  "Ġmigr": 8611,
  "ĠGerm": 2241,
  "ĠImikino": 12902,
  "Ġknee": 14840,
  "emple": 6796,
  "ibyo": 3188,
  "Ġproject": 3779,
  "ĠTeddy": 19576,
  "Ġlia": 25343,
  "bird": 22799,
  "Ġbashya": 19728,
  "omereje": 20179,
  "arians": 23869,
  "Ġmettre": 9445,
  "ĠBih": 9773,
  "ĠHanna": 19270,
  "Ġexplanation": 24209,
  "omeka": 19304,
  "orig": 12984,
  "icop": 13108,
  "fin": 4288,
  "ĠStudios": 10097,
  "ĠAug": 2402,
  "Ġyagabanutse": 28233,
  "Ġatangira": 7192,
  "Ġdecay": 29799,
  "Ġretrieve": 25258,
  "az": 1065,
  "emezo": 12929,
  "Ġbubi": 27638,
  "wise": 9613,
  "Ġnsh": 2826,
  "E": 54,
  "engeri": 27380,
  "Ġcoinc": 20597,
  "vest": 6576,
  "apolis": 20421,
  "ĠDeath": 15861,
  "role": 20203,
  "ns": 20142,
  "ĠfinanciÃ¨re": 17343,
  "ĠImy": 4904,
  "Ġspons": 11864,
  "Ġspecimens": 19492,
  "ĠUduc": 13836,
  "Ubusuwisi": 31108,
  "uburambe": 30928,
  "Ġ5000": 13019,
  "ĠBroadway": 21513,
  "Type": 27179,
  "Ġkigira": 16469,
  "oki": 4778,
  "Ġgoing": 4256,
  "ĠliÃ©s": 16933,
  "utu": 5320,
  "ĠLight": 9300,
  "Ġurwanya": 28946,
  "ĠIMA": 14094,
  "urubuto": 24776,
  "Ġanalog": 25161,
  "ĠBrig": 18011,
  "Ġhur": 3432,
  "Ġnormally": 19422,
  "Ġhid": 11093,
  "Ġaccomp": 6798,
  "ĠItorero": 16639,
  "urije": 22019,
  "ĠSteven": 16897,
  "chestr": 22190,
  "ĠÂ».": 11994,
  "Ġbira": 27205,
  "Ġyih": 7832,
  "ĠVegas": 23919,
  "ĠLimpopo": 31097,
  "Ġ116": 21787,
  "Ġpossible": 3805,
  "Ġsounds": 9741,
  "affe": 31805,
  "Ġkwidagadura": 11813,
  "Ġplay": 785,
  "ĠMust": 10718,
  "Ġdoing": 6850,
  "engabitekerezo": 30225,
  "omed": 23314,
  "Ġkuzana": 14649,
  "Ġslot": 18271,
  "reat": 1211,
  "PL": 28654,
  "Ġbushingiye": 7863,
  "ĠNom": 24859,
  "Ġservi": 31624,
  "Ġfound": 1381,
  "Ġtechniques": 9533,
  "Ġubwa": 5844,
  "ĠmÃ©c": 11173,
  "ĠprÃ©sentÃ©": 21428,
  "Ġcompact": 28194,
  "ĠIbit": 10509,
  "inyujije": 21187,
  "Ġfeatur": 2516,
  "Ġsaving": 14556,
  "Ġakenshi": 5105,
  "agarutse": 19702,
  "Ġdesper": 23406,
  "uncan": 26166,
  "Ġ36": 5832,
  "thur": 8735,
  "Ġchor": 11757,
  "Ġimirire": 12491,
  "vester": 29153,
  "Ġamarushanwa": 5462,
  "ĠDrag": 19381,
  "Ġwav": 3148,
  "Ġingoro": 28983,
  "Ġbakunze": 8376,
  "Ġperfect": 7548,
  "Ġterme": 12084,
  "ĠAlexandre": 29364,
  "uss": 3105,
  "Ġcargo": 14157,
  "urer": 5199,
  "ifatanya": 23888,
  "Ġconcentrations": 23642,
  "ĠChoose": 15027,
  "ĠNyabarongo": 10834,
  "Ġplants": 11036,
  "ĠAbakinnyi": 30953,
  "omas": 4302,
  "ĠNatural": 20888,
  "fault": 11986,
  "ĠCraig": 21538,
  "ĠBitewe": 10789,
  "ĠKigo": 28808,
  "Ġchain": 13968,
  "enga": 1193,
  "Ġliste": 13290,
  "<|wiki|>": 12,
  "verin": 2176,
  "Ġdates": 12986,
  "CAR": 28648,
  "Ġbaf": 4508,
  "Ġpaiement": 22331,
  "Ġbiro": 12623,
  "Ġyatumye": 14299,
  "ihuza": 7735,
  "Ġhatch": 23100,
  "Ġbir": 902,
  "Ġinland": 15269,
  "Ġlosses": 14352,
  "EG": 21560,
  "ĠRessources": 29439,
  "c": 84,
  "ĠUduciro": 14384,
  "ĠcompÃ©t": 7546,
  "ogora": 18760,
  "Ġcarefully": 11156,
  "ĠBit": 7694,
  "ikorwaremezo": 18390,
  "Ġdukoko": 16577,
  "Ny": 16154,
  "Ġthoughtful": 29141,
  "Ġkaba": 29523,
  "Ġmonitor": 15349,
  "96": 20464,
  "G": 56,
  "ĠTintin": 29421,
  "Ã´te": 22613,
  "Ġmanda": 16758,
  "izen": 21702,
  "Ġshale": 29729,
  "ĠChamberlain": 22755,
  "Ġrestoration": 23528,
  "Ġbibiri": 3794,
  "Ġnshingano": 8506,
  "ampiyona": 1518,
  "idukikije": 1109,
  "Ġgushyuha": 26209,
  "Ġigice": 3520,
  "eragezwa": 21449,
  "aisance": 31625,
  "ĠIKI": 26580,
  "ĠIcya": 13285,
  "Ġtravaill": 16326,
  "Ġdisliked": 26436,
  "ogan": 28903,
  "Ġimitungo": 19762,
  "ĠUniverse": 23954,
  "Ġmoves": 14468,
  "uremere": 25202,
  "inosa": 12974,
  "ĠLong": 8839,
  "urizo": 25376,
  "ĠThis": 1466,
  "Ġthreatened": 14681,
  "izih": 9264,
  "ubatswe": 6552,
  "Ġcyab": 9436,
  "Ġloses": 27962,
  "ambar": 25501,
  "Ġballet": 22212,
  "Ġclaws": 31521,
  "Ġmikorobi": 27098,
  "izers": 29692,
  "Ã©rations": 12467,
  "arub": 21984,
  "Ġagricole": 23648,
  "Ġesp": 4468,
  "Ġprivileges": 22340,
  "Ġmubit": 17998,
  "Ġroya": 26127,
  "ilibre": 28586,
  "Ġyaturutse": 21232,
  "Æ": 148,
  "ĠBisesero": 28800,
  "omial": 24318,
  "ĠInsp": 24390,
  "Ġspread": 8629,
  "ĠTunis": 16119,
  "oranabuhanga": 12111,
  "Ġformer": 3245,
  "ĠPer": 4698,
  "ĠUruguay": 26140,
  "arizwa": 5781,
  "anuwe": 11056,
  "uriye": 3714,
  "xt": 1591,
  "Ġtickets": 23269,
  "Ġburst": 26884,
  "Ġkwihangira": 11074,
  "imbuza": 14147,
  "ĠLeo": 15664,
  "Ġkugena": 28126,
  "ĠPrim": 14466,
  "erc": 1750,
  "igasira": 23328,
  "udahangarwa": 11081,
  "auc": 17888,
  "ĠYaf": 18489,
  "Ġpanels": 30955,
  "Ġbazi": 8994,
  "à¶": 31189,
  "ĠAkarango": 31076,
  "ĠmatÃ©ri": 12355,
  "ĠGreek": 9429,
  "Ġincomplete": 26445,
  "Ġkubika": 10595,
  "amav": 10716,
  "uble": 4774,
  "angaje": 3551,
  "aragarira": 19046,
  "Ġbikennye": 16861,
  "Ġpress": 3738,
  "abwa": 1929,
  "spec": 13765,
  "Ġhy": 12115,
  "Ġpi": 3674,
  "Ġdegrees": 15911,
  "Ġcouples": 30900,
  "over": 7114,
  "Ġseized": 19302,
  "ĠBrah": 23026,
  "ĠIngoro": 18568,
  "anges": 9013,
  "Ġdr": 1281,
  "Ġcontrat": 15504,
  "Ġnyamara": 10372,
  "ĠSey": 15593,
  "Ġ110": 10817,
  "ĠÃ©viter": 25724,
  "ass": 733,
  "aza": 4826,
  "Ġauxquels": 25549,
  "ĠYakinnye": 6268,
  "ubujyakuzimu": 31294,
  "etball": 6404,
  "ĠAbo": 8981,
  "ĠPoland": 13651,
  "Ġw": 292,
  "Ġprogressive": 24640,
  "utima": 14090,
  "Ġlaps": 24311,
  "Ġyakuriye": 17747,
  "Ġassembled": 23022,
  "Ġrational": 21216,
  "ĠZag": 26791,
  "Ġshamp": 21338,
  "aribonye": 12616,
  "Ġvue": 7023,
  "Ġbisobanura": 13998,
  "ĠRo": 1527,
  "Ġgikorera": 30389,
  "Ġproport": 11283,
  "Ġview": 2776,
  "utirwa": 11095,
  "ĠPoint": 10585,
  "ĠBritney": 30729,
  "Ġstream": 9633,
  "Ġmukino": 3533,
  "Ġumukobwa": 7444,
  "uzuzanya": 30214,
  "Ġ1953": 11684,
  "ported": 19641,
  "ĠJuliet": 26898,
  "okole": 20302,
  "Abad": 11969,
  "Ġagent": 11861,
  "Ġugaragara": 19058,
  "Ġequipped": 14867,
  "ĠNik": 15611,
  "Union": 8175,
  "ubwikorezi": 24015,
  "Ġsoutien": 12490,
  "Ġbene": 6546,
  "ĠMeg": 12422,
  "TW": 20467,
  "ĠpropriÃ©tÃ©": 19157,
  "Ġibitego": 3850,
  "Ġdevelopers": 21398,
  "Î¼": 25300,
  "MB": 29459,
  "ĠSn": 8064,
  "Ġraise": 15576,
  "Ġdispon": 11997,
  "oding": 9195,
  "Ġstir": 20570,
  "Ġumunyamakuru": 8387,
  "umwaka": 4126,
  "Ġtempl": 12517,
  "hyp": 31169,
  "Ġintegral": 31973,
  "hemu": 23117,
  "Ġterre": 22226,
  "bert": 3763,
  "ĠEgiputa": 13186,
  "hobora": 833,
  "Ġsoya": 21325,
  "ĠDeputy": 28456,
  "Ġkay": 30360,
  "Ġumutwaro": 31682,
  "ĠIkiganiro": 5004,
  ":.": 6426,
  "ĠCC": 15596,
  "our": 498,
  "Accord": 26450,
  "ĠVerde": 18843,
  "ĠHorse": 16311,
  "insula": 11492,
  "Ġviewing": 26920,
  "Ġseventeen": 31000,
  "Ġyubushyuhe": 25593,
  "ĠDub": 20562,
  "Ġmubihe": 20282,
  "Ġinguni": 29765,
  "ltimate": 23640,
  "fall": 6098,
  "ulate": 12316,
  "ĠÃītats": 4454,
  "89": 27859,
  "urikiranyany": 11506,
  "ĠMeteor": 31113,
  "orus": 26535,
  "ĠJer": 5558,
  "Ġintent": 17051,
  "ÙĬØ©": 20402,
  "Ġvoted": 13891,
  "Ġtooth": 16584,
  "Ġurubyaro": 19124,
  "Ġumuturage": 16467,
  "bourg": 11910,
  "ĠGaragaza": 17247,
  "Ġplug": 12671,
  "Cy": 31143,
  "ubizo": 4027,
  "yepfo": 1832,
  "...:": 30721,
  "ĠtÃ´t": 28694,
  "Ġwavukiye": 9465,
  "Ġwaste": 20550,
  "idian": 26628,
  "ubano": 16370,
  "ĠIbi": 2870,
  "Ġseem": 7411,
  "fashaga": 27613,
  "Ġfilled": 8350,
  "haw": 19688,
  "Ġmakeup": 20997,
  "Ġpetit": 16706,
  "Ë": 153,
  "ĠBachelor": 14934,
  "ington": 2806,
  "um": 348,
  "unganire": 28106,
  "Ġisot": 27326,
  "ĠThomp": 17513,
  "Ġvoting": 24062,
  "Best": 27168,
  "Ġfixe": 31893,
  "oque": 21576,
  "Ġhelpful": 24501,
  "Ġentrance": 14052,
  "Ġinterrupted": 25251,
  "ĠSoft": 25546,
  "aments": 13581,
  "shuro": 24379,
  "Ø§ÙħØ¹": 22345,
  "Ġahura": 20278,
  "Ġhigh": 1436,
  "Ġcigar": 22836,
  "Ġbujyanye": 20426,
  "oramari": 3653,
  "Ġpursuit": 25184,
  "Ġprofesse": 30787,
  "Ġyib": 3858,
  "%).": 27857,
  "ĠJoint": 24389,
  "Ġgihugu": 1525,
  "identification": 31676,
  "Ġchim": 17979,
  "ĠGot": 16008,
  "SH": 30281,
  "Ġmadini": 29269,
  "ĠOther": 6485,
  "ĠInst": 10147,
  "Ġbyibuze": 10462,
  "Ġkumva": 10222,
  "Ġgushyirwaho": 23531,
  "Ġshe": 731,
  "ibih": 4151,
  "Ġoxidation": 27787,
  "umeniya": 28225,
  "orium": 25571,
  "ĠmÃ¨tres": 29498,
  "eli": 3183,
  "Ġcoaching": 27702,
  "ĠMoritaniya": 19417,
  "Ġrud": 20505,
  "ĠTracy": 18550,
  "Ġselon": 7928,
  "ĠIshami": 5623,
  "indutse": 17701,
  "Ġ96": 10427,
  "ections": 7844,
  "gue": 20472,
  "ĠES": 26697,
  "kira": 2226,
  "Ġibyiza": 12213,
  "Ġscope": 29738,
  "uriwe": 8834,
  "ĠrÃ©": 999,
  "ĠKameruni": 8184,
  "Ġbroke": 6855,
  "umurenge": 23809,
  "Ġfirime": 1991,
  "Ġpasse": 19056,
  "Ġcyateguwe": 28064,
  "ĠFranco": 28429,
  "met": 8101,
  "Ġsout": 2921,
  "Ġram": 26549,
  "anjye": 8381,
  "ocation": 13381,
  "Ġincome": 18796,
  "ĠPanthers": 29434,
  "ĠHog": 21275,
  "Ġmeasuring": 25687,
  "ĠCond": 18177,
  "urikir": 2529,
  "ĠÅĵuvre": 12021,
  "Ġngugu": 18542,
  "ĠRI": 27302,
  "Ġcyihariye": 21285,
  "Ġnationaux": 15386,
  "Ġscoring": 10732,
  "ĠPremiÃ¨res": 30059,
  "ĠMaf": 25366,
  "Abaroma": 18114,
  "ĠApril": 2638,
  "Ġtotally": 31794,
  "Ġunable": 9435,
  "Ġobtain": 18795,
  "Ġtemplate": 17869,
  "itudes": 18687,
  "2014": 19103,
  "ĠBamwe": 12129,
  "uff": 3041,
  "Ġntibishobora": 31803,
  "Ġmothers": 26447,
  "injwa": 29794,
  "Ġcongr": 20903,
  "Ġubuc": 20230,
  "ĠNyungwe": 11216,
  "oline": 25405,
  "orwaga": 17328,
  "ots": 2178,
  "irinda": 10570,
  "Ġ192": 2926,
  "Ġterrestrial": 27136,
  "Ø§": 4003,
  "ingano": 3237,
  ";.": 8185,
  "Ġbuilding": 3761,
  "UB": 18662,
  "mm": 20141,
  "Ú": 168,
  "abilitÃ©": 6648,
  "Ġgutura": 8458,
  "ĠAu": 8831,
  "ĠFat": 13129,
  "ĠBaby": 17468,
  "Intambara": 19769,
  "ĠSonia": 24130,
  "Ġbuvumo": 27769,
  "ĠRece": 26272,
  "ĠThrough": 16850,
  "uvanganzo": 15653,
  "Ġnah": 17949,
  "Ġrempl": 9649,
  "....": 10423,
  "ĠAdamu": 29070,
  "Ġugut": 15676,
  "Ġibirayi": 16396,
  "arra": 30333,
  "Ġukeneye": 23448,
  "ĠGuverinoma": 5610,
  "engthen": 13013,
  "Ġmusicians": 18287,
  "Ġhere": 5291,
  "ms": 8356,
  "onaga": 15425,
  "ĠHop": 14577,
  "ĠGloria": 24566,
  "Ġbagerageza": 31578,
  "Ġtrophy": 28285,
  "Ġagaragaza": 19312,
  "ĠHampshire": 16738,
  "emu": 3619,
  "ĠMath": 21248,
  "Ġtornado": 17631,
  "Ġsevent": 10801,
  "Ã¨ge": 15475,
  "Ġcookie": 30063,
  "oks": 28141,
  "Ġdelays": 31747,
  "Ġverre": 29211,
  "Ġlung": 22844,
  "ĠRomania": 26325,
  "ĠRweru": 29189,
  "Ġplaintes": 25257,
  "¯": 125,
  "Ġagriculture": 21101,
  "Ġparticipation": 10047,
  "ĠdÃ©plac": 29376,
  "Ġguard": 11304,
  "ĠGukoporora": 18303,
  "ido": 7654,
  "Ġcutting": 16109,
  "Ġimibiri": 25425,
  "ĠrÃ©fÃ©rence": 14974,
  "Ġyazanye": 27777,
  "ingoma": 15584,
  "Ġubusumbane": 29140,
  "Ġibiyobyabwenge": 9497,
  "Ġeng": 2410,
  "Ġbegan": 2045,
  "Ġbecome": 3337,
  "Ġorient": 12672,
  "MS": 5564,
  "amasoko": 17335,
  "Ġyuburezi": 24544,
  "Ġmad": 8024,
  "Ġwabaga": 31819,
  "Ġ92": 13274,
  "injiza": 4215,
  "imburanya": 28992,
  "Ġaway": 2207,
  "Iburasirazuba": 4044,
  "Ġtemple": 14330,
  "Ġbiribwa": 8993,
  "Ġjust": 1935,
  "Ġgukorana": 11374,
  "ĠArchives": 30936,
  "ecteur": 24908,
  "ĠMetero": 26308,
  "holic": 10366,
  "ĠIsosiyete": 10434,
  "ibinyabiziga": 21653,
  "ĠLOG": 18112,
  "Ġartific": 23521,
  "ĠmÃªmes": 21192,
  "al": 320,
  "Ġautomatic": 20739,
  "Ġhope": 12420,
  "Ġrunyura": 30670,
  "Ġbutaziguye": 17980,
  "ĠÃ©tabl": 6114,
  "ensions": 13497,
  "iryo": 10134,
  "Ġangles": 28375,
  "ulsion": 25195,
  "ife": 1761,
  "Ġagreements": 30963,
  "ĠLov": 17482,
  "ivid": 3859,
  "inese": 6717,
  "zamutse": 9147,
  "ĠdÃ©sormais": 26321,
  "amps": 15658,
  "held": 30319,
  "iriye": 2349,
  "Ġadolesc": 23938,
  "wabo": 10860,
  "Ġschool": 2731,
  "acted": 8333,
  "Ġcloud": 10419,
  "ophones": 25110,
  "ĠAthen": 26163,
  "ĠVinc": 12895,
  "Ġinvestissements": 22660,
  "Ġ126": 26831,
  "Ġkomisiyo": 9471,
  "Ġsen": 7829,
  "angayikishijwe": 25786,
  "Ġkug": 543,
  "univers": 31281,
  "IC": 6274,
  "Ġoverw": 18530,
  "Ġattrib": 11602,
  "Ġsiganwa": 30354,
  "ĠRio": 10339,
  "Ã¶r": 23615,
  "Ġselect": 10443,
  "ĠPE": 25998,
  "enu": 11822,
  "ĠBry": 13716,
  "lez": 18187,
  "ĠBuri": 10654,
  "Ġmulti": 17580,
  "imbaza": 19092,
  "Ġamashami": 10038,
  "velopp": 3326,
  "Ġcyubatswe": 29631,
  "ĠtÃ©lÃ©": 13922,
  "Ġrusange": 1612,
  "Ġ1862": 23629,
  "Ġterror": 10390,
  "Ġkij": 11934,
  "Ġcrimin": 20988,
  "Ġibarizwa": 15303,
  "angombwa": 9288,
  "Ġready": 7773,
  "Ġ01": 15141,
  "Ġarchipelago": 30866,
  "inois": 11964,
  "imerere": 6057,
  "HR": 13089,
  "ibir": 3218,
  "Ġkwandura": 8761,
  "Ġmaterials": 14798,
  "ĠOak": 15624,
  "ĠBurn": 10268,
  "anganye": 12751,
  "approche": 28570,
  "Ġimplemented": 18104,
  "ingwabikorwa": 15867,
  "icyerekezo": 26200,
  "ĠUbushakashatsi": 6891,
  "ĠIbaruwa": 11569,
  "Ġatteint": 17618,
  "agurika": 26591,
  "Ġcoord": 7030,
  "ĠMonitor": 27621,
  "ĠDJ": 19601,
  "urikira": 3385,
  "ĠRegard": 24578,
  "cont": 30289,
  "Ġkwiruka": 6423,
  "antare": 3021,
  "Ġkurubu": 18772,
  "esis": 31219,
  "Ã¨ne": 9367,
  "ĠIbyatanzwe": 7369,
  "ĠUmunsi": 14501,
  "Ġmatora": 14462,
  "Ġsquadron": 10535,
  "Ġkurya": 3590,
  "Ġgame": 1370,
  "Ė": 228,
  "ĠUbus": 5849,
  "ress": 3378,
  "imitungo": 31917,
  "ont": 727,
  "oca": 13847,
  "iliation": 28352,
  "Ġbukomeye": 11582,
  "akarere": 4816,
  "ĠBlock": 26197,
  "Ben": 25852,
  "Ġkubanza": 25457,
  "$": 21,
  "idence": 3937,
  "ĠCorner": 28529,
  "ople": 1895,
  "Ġ1906": 16500,
  "Ġabura": 31429,
  "ennye": 8636,
  "ĠKeny": 22043,
  "ĠdeuxiÃ¨me": 14345,
  "Ġcomparable": 27705,
  "ĠImyitwarire": 30018,
  "Ġnimwe": 16980,
  "Ġicon": 8948,
  "asure": 10481,
  "Ġinkwavu": 22583,
  "Ġubuhehere": 19978,
  "Ġwacu": 14243,
  "ither": 4075,
  "ĠKank": 31331,
  "Ġje": 2030,
  "Ġmodest": 21792,
  "yavutse": 2948,
  "Ġdome": 28732,
  "ĠJenerali": 29676,
  "Ġsimple": 9404,
  "Ġ1970": 5284,
  "ĠNibura": 28040,
  "ĠFinland": 19748,
  "ĠÃ©duc": 30590,
  "ka": 419,
  "ĠLog": 11187,
  "zira": 2034,
  "ĠSenate": 12182,
  "Ġwithdrawal": 20762,
  "Ġduties": 21073,
  "uriro": 2970,
  "ujuje": 6894,
  "ã": 177,
  "Ġterminus": 16722,
  "arasi": 2690,
  "ashyaka": 19609,
  "Ġyakinaga": 25150,
  "Ġcitoy": 14516,
  "igira": 11546,
  "Ġmukirere": 24990,
  "ĠYoga": 28892,
  "Ġdoctrine": 26452,
  "Ġdestination": 13056,
  "ateganyo": 12258,
  "Ġtack": 16755,
  "Ġonto": 8240,
  "Ġdate": 4338,
  "Ġexcl": 25467,
  "itsa": 28195,
  "Ġroster": 27230,
  "Ġsuffis": 17181,
  "ell": 610,
  "ĠEnable": 18531,
  "Ġlui": 5169,
  "hic": 12196,
  "adier": 22452,
  "fr": 436,
  "yasibwe": 30113,
  "itswe": 3298,
  "Uburusiya": 8461,
  "Ġbikurura": 22152,
  "ani": 644,
  "Ġwigenga": 21602,
  "Ġrepresentative": 17572,
  "Ġtekiniki": 12726,
  "ĠcoÃ»": 8851,
  "idagad": 3755,
  "Ġugomba": 14161,
  "ĠParti": 26278,
  "Ġthree": 1410,
  "Ġgukata": 31499,
  "Ġumugabane": 17774,
  "ĠTank": 28001,
  "angi": 12625,
  "Ġscales": 26766,
  "ulu": 8620,
  "akaba": 15601,
  "Ġvector": 20225,
  "cat": 27877,
  "Ã©curitÃ©": 4631,
  "Ġyik": 8195,
  "Ġindustries": 16641,
  "Ġintambara": 11566,
  "Ġabarimu": 17494,
  "Ġbinyuze": 2784,
  "tera": 5720,
  "ĠNHC": 28820,
  "Ġchocolate": 25064,
  "Ġikorera": 8536,
  "Ġathlet": 14064,
  "ĠLila": 11949,
  "Ġgutembera": 17723,
  "chets": 22606,
  "ĠYanditse": 28893,
  "Ġnew": 1008,
  "Ġmuntara": 25825,
  "Ġgitabo": 9384,
  "Ġikibuga": 11660,
  "athon": 15852,
  "ui": 2523,
  "ification": 3234,
  "Ġikoranabuhanga": 5051,
  "azu": 31597,
  "Ġmanga": 27919,
  "Ġkiboneka": 21828,
  "Ġ86": 11672,
  "erezida": 2193,
  "Ġbitag": 24429,
  "ĠnÃ©cessitÃ©": 16928,
  "ĠIkerene": 22992,
  "Ġsubt": 13868,
  "Ġwitnessed": 24698,
  "Ġtrafic": 23168,
  "ĠÃ©lÃ©ments": 12942,
  "Ġdefinition": 15229,
  "ulture": 7289,
  "bach": 18903,
  "inity": 14076,
  "ĠMucukumbuzi": 19241,
  "ĠMichelle": 22314,
  "mezwa": 28932,
  "iram": 2714,
  "Ġrugamba": 16473,
  "Ġzib": 4212,
  "Ġnord": 20497,
  "Ġcompagnie": 24197,
  "zwi": 1736,
  "arurishamibare": 16963,
  "Ġgarden": 5695,
  "isho": 2477,
  "Ġpossessed": 30774,
  "Ġpleinement": 30207,
  "Ġunexpected": 18384,
  "ĠOC": 28857,
  "Ġairline": 21938,
  "amaboko": 26556,
  "Ġubona": 13954,
  "ĠWisconsin": 20236,
  "Ġactor": 9911,
  "inkingo": 25540,
  "abaturage": 2478,
  "urongo": 4298,
  "ocene": 12555,
  "Ġwumupira": 18690,
  "ibya": 13834,
  "Ġraid": 10258,
  "Ġntir": 13147,
  "Ġtire": 26517,
  "ĠUbusanzwe": 9604,
  "Ġsmooth": 13679,
  "Ġsecond": 1579,
  "hetic": 14359,
  "Ġyahuye": 15870,
  "ĠLaboratory": 22321,
  "ĠFeder": 6819,
  "Ġextra": 8258,
  "Ġstrikes": 30151,
  "Ġnoted": 4366,
  "Ġtir": 10931,
  "Ġturn": 2443,
  "Ġconfused": 17327,
  "bonne": 20712,
  "urwaho": 25528,
  "Ġconvert": 13008,
  "Ġfilename": 19948,
  "orn": 1399,
  "Ġobtained": 13804,
  "Ġamongst": 23583,
  "Ġdiscrimin": 28527,
  "ĠBundes": 26435,
  "Ġmwuzure": 31763,
  "atic": 2691,
  "ĠLap": 25988,
  "Ġbikav": 26801,
  "Ġuk": 717,
  "amount": 19648,
  "P": 65,
  "RE": 5269,
  "Ġbombing": 21088,
  "Ġtrucks": 28504,
  "Ġdesp": 5653,
  "ĠAvuga": 18834,
  "ibonye": 24345,
  "Ġprotect": 9981,
  "Ġkiliziya": 23523,
  "RU": 31156,
  "Ġwerekeza": 18381,
  "Ġfrog": 12523,
  "Ã¯": 5256,
  "orane": 14397,
  "ģĦ": 24264,
  "Ġbakoresheje": 12058,
  "Ġprovisoire": 25834,
  "Ġparc": 17055,
  "Ġfrozen": 30156,
  "ĠVietnam": 11921,
  "oto": 4227,
  "Ġmumaj": 14169,
  "Ġashinzwe": 18066,
  "Abatutsi": 21377,
  "Ġdiver": 25331,
  "Ġpotenti": 28418,
  "ĠFinnish": 30160,
  "erials": 13138,
  "Ġent": 1094,
  "rÃ©e": 18404,
  "Ġperf": 16652,
  "ĠAbdullah": 31932,
  "Ġmari": 11343,
  "Ġyear": 1085,
  "ĠShe": 729,
  "ĠprÃ©al": 26245,
  "ĠOutstanding": 19437,
  "ayero": 15295,
  "Ġeditions": 22617,
  "Ġmoment": 4980,
  "Ġbatanu": 12345,
  "fatanyabikorwa": 27884,
  "ĠLagos": 11620,
  "Ġtier": 31197,
  "Ġpuddle": 25260,
  "ucoup": 9151,
  "uction": 9579,
  "ĠLeta": 1700,
  "ĠSax": 15280,
  "Ġdisrupt": 30612,
  "Ġkuroba": 25500,
  "ĠRest": 14109,
  "Ġcray": 17086,
  "Ġheir": 25445,
  "EI": 28650,
  "Ġguhagar": 5924,
  "iteja": 22075,
  "ĠArist": 22148,
  "gest": 13915,
  "amabanki": 14658,
  "ibimenyetso": 28023,
  "urusu": 23092,
  "Ġuncertain": 23185,
  "ĠÃ©tablissements": 21471,
  "Ġpriority": 25685,
  "Ġsol": 3308,
  "house": 6861,
  "Ġkuvura": 6987,
  "esho": 1873,
  "Ġ1952": 9979,
  "Ãº": 11537,
  "ĠValent": 15015,
  "Ġpushing": 26401,
  "Ġubusharire": 27099,
  "Ġishyira": 29971,
  "Â«": 18138,
  "Ġchecked": 26210,
  "Ã©ral": 10968,
  "Ġpengu": 24803,
  "ĠGr": 1539,
  "Ġbillion": 12185,
  "lege": 3556,
  "arutse": 9411,
  "ĠET": 15804,
  "Ġperception": 26804,
  "ĠVil": 26744,
  "Ġbands": 14175,
  "icuk": 9350,
  "Ġop": 927,
  "ĠKosovo": 25223,
  "ĠGames": 8112,
  "ĠÃ©quipe": 25738,
  "ontre": 16848,
  "ĠBeing": 29869,
  "Ġ124": 28260,
  "amasezerano": 7649,
  "iaux": 7581,
  "jyanye": 7463,
  "etso": 2671,
  "abanywa": 15588,
  "ocy": 28117,
  "Ġpurposes": 16541,
  "Ġconting": 22536,
  "ĠDu": 14117,
  "Ġcriticized": 11999,
  "hekenya": 29494,
  "elle": 1490,
  "ib": 371,
  "Ġsince": 2527,
  "Ġabe": 27367,
  "ĠSeason": 22194,
  "Ġagric": 7286,
  "ĠrÃ©alitÃ©": 26336,
  "ĠGeorget": 29932,
  "Ġbucuruzi": 5535,
  "Ġregister": 11779,
  "ĠJoseph": 5838,
  "ĠIsabelle": 29377,
  "ĠappropriÃ©es": 30095,
  "8": 41,
  "Ġ30": 1634,
  "asing": 4696,
  "Ġrelay": 21351,
  "ĠTre": 8235,
  "Ġukorera": 15324,
  "Ġkwiga": 3792,
  "itted": 4188,
  "avor": 16210,
  "ĠBelf": 30432,
  "Ġukorwa": 29737,
  "Ġtile": 28693,
  "ĠTit": 14929,
  "ĠÄ": 12515,
  "ĠKirehe": 11945,
  "onom": 2061,
  "umwijima": 21636,
  "afford": 18202,
  "Ġtelev": 2974,
  "abilities": 19384,
  "Ġroom": 3328,
  "Ġmiliyari": 5311,
  "Ġdolls": 16108,
  "Ġsheets": 28943,
  "ĠJerry": 15730,
  "ĠBerlin": 8177,
  "orporation": 10179,
  "ĠEugene": 21529,
  "Ġkubamo": 21313,
  "ĠDISIKI": 27853,
  "Ġbitaro": 9368,
  "Ġassez": 19286,
  "ĠÃ©coles": 26286,
  "Ġpolisi": 24475,
  "Ġbwitwa": 19933,
  "Ġtrain": 6357,
  "aze": 1746,
  "uzumwa": 22498,
  "Ġuhoraho": 18569,
  "Ġmargin": 18540,
  "ĠCrane": 20339,
  "Ġdevant": 13420,
  "Ġats": 18996,
  "itage": 12626,
  "ĠNico": 19261,
  "ĠBa": 6583,
  "Ġtheater": 22403,
  "Ġvul": 12434,
  "ondera": 19307,
  "Ġexpanding": 26842,
  "Ġarticles": 10904,
  "ihembo": 2976,
  "Ġchased": 23432,
  "Ã©quip": 26967,
  "ĠÃ©nonc": 24160,
  "Ġradi": 11591,
  "ylv": 9163,
  "ĠGuma": 25418,
  "Ġprinted": 14042,
  "Ġyabantu": 21387,
  "ĠLuxembourg": 20460,
  "ream": 2965,
  "Ġtravail": 3496,
  "Ġbicuruzwa": 11929,
  "Ġtriple": 25177,
  "Ġaide": 14910,
  "Ġkil": 1918,
  "ĠTrip": 14931,
  "Ġgenera": 30823,
  "ĠChinese": 6826,
  "Ġcoat": 15644,
  "ĠCam": 11646,
  "ache": 7280,
  "Ġtexte": 15668,
  "ĠCalc": 19402,
  "ungab": 1834,
  "Ġpopular": 4296,
  "isiyo": 4033,
  "Ġinput": 12419,
  "ochond": 28437,
  "ĠCabin": 29588,
  "Ġiherezo": 26832,
  "crib": 2190,
  "euvre": 9282,
  "Ġleft": 2397,
  "Ġvaried": 21820,
  "Ġanch": 16221,
  "imodoka": 10786,
  "umph": 17672,
  "Ġinvolvement": 16098,
  "Ġbikura": 31593,
  "uzabikorwa": 17879,
  "ĠIz": 18949,
  "anab": 2121,
  "ĠHouse": 4876,
  "Ġproof": 20921,
  "Ġisoni": 29635,
  "Ġpatient": 13200,
  "asis": 23779,
  "Ġsubtropical": 29349,
  "ĠEgyptian": 17174,
  "ĠEngineering": 24192,
  "Ġmutu": 30380,
  "Ġtrial": 8813,
  "Ġrye": 6549,
  "ĠEvery": 4292,
  "ilar": 3106,
  "Ġrobot": 21503,
  "rain": 21973,
  "ĠACC": 22430,
  "ĠVolleyball": 8606,
  "SC": 8099,
  "Ġbaturuka": 28705,
  "ĠprÃ©v": 6899,
  "lange": 18151,
  "ĠcoÃ»t": 20085,
  "akisha": 19252,
  "Ġinterd": 18519,
  "Ġmoon": 14475,
  "urisha": 4561,
  "urwamo": 23275,
  "ĠParsons": 19362,
  "umvikanye": 31944,
  "ihar": 3729,
  "Ġiminota": 12661,
  "anganzo": 13909,
  "Ububiligi": 13035,
  "Ġwiyongereye": 30352,
  "Ġparticular": 3899,
  "Ġ31": 3024,
  "ĠAL": 16586,
  "orter": 5447,
  "ĠCharles": 4611,
  "agera": 4606,
  "amariya": 15978,
  "ĠNation": 17243,
  "onym": 12072,
  "ĠÃĸ": 22944,
  "Ġbikize": 18681,
  "Ġ101": 19347,
  "Ġire": 30310,
  "Ġwho": 851,
  "abah": 5025,
  "Ġkuzirya": 26233,
  "ĠYear": 7164,
  "Ġuhereye": 10524,
  "rows": 24567,
  "abac": 9624,
  "ĠNorvÃ¨ge": 27833,
  "Ġmour": 21589,
  "Ġdescendants": 30208,
  "err": 2128,
  "ĠAur": 14741,
  "Ġvrai": 26392,
  "Ġ81": 12681,
  "Ġconsumption": 22552,
  "Ġgraph": 8691,
  "Ġexamen": 21320,
  "Ġyakinwe": 31936,
  "ĠCountry": 13566,
  "aturanyi": 13619,
  "Ġoblig": 9652,
  "Ġdwar": 19865,
  "ĠCannes": 15992,
  "ĠInkomoko": 8599,
  "Ġ1600": 30697,
  "amber": 10158,
  "erage": 4004,
  "Ġikimenyetso": 13737,
  "Ġiruhande": 22358,
  "arukira": 18685,
  "Ġtanks": 15761,
  "Ġspr": 9308,
  "ĠOwen": 17705,
  "Ġtw": 1706,
  "Ġmesure": 7858,
  "Ġts": 18408,
  "Ġnewspaper": 10182,
  "ĠNgir": 29960,
  "Ġ94": 10426,
  "Ġivangura": 14333,
  "Ġsisters": 21605,
  "ighter": 8686,
  "Ġitukura": 18195,
  "Ġprom": 2088,
  "attle": 11133,
  "ĠDoc": 4357,
  "Ġkwabo": 28310,
  "Ġsafety": 12826,
  "ĠmÃ©dical": 30058,
  "Ġmubitekerezo": 25513,
  "Ġkuz": 2437,
  "Ġensuring": 31899,
  "But": 16338,
  "ĠMcCart": 14679,
  "Ġdamag": 7180,
  "Ġsym": 9378,
  "Ġmonths": 4350,
  "Ġregroup": 29827,
  "ents": 1020,
  "Â°": 7116,
  "Ġlisted": 9155,
  "Ġcitizens": 16323,
  "Ġturbo": 31748,
  "Ġlaughed": 6793,
  "igaye": 5386,
  "aking": 1833,
  "ĠMbar": 24332,
  "iÃ¨rement": 9594,
  "ĠRip": 28034,
  "ollywood": 12606,
  "Ġautomobile": 21890,
  "put": 5993,
  "Ġcontains": 7361,
  "Ġcommission": 5925,
  "oted": 12651,
  "ndetse": 26296,
  "enewe": 2892,
  "Ġrutonde": 7267,
  "ĠHubbard": 25847,
  "Ġvitamine": 18071,
  "Ġhabeho": 26273,
  "Ġsphere": 31496,
  "ĠBBC": 6612,
  "du": 2633,
  "ĠPanth": 27322,
  "Ġas": 430,
  "ĠUkwihuza": 11421,
  "ĠKorean": 13548,
  "Ġsuspected": 23160,
  "Ġtype": 3981,
  "Ġwhatever": 26729,
  "Ġlip": 24310,
  "Ġzina": 13127,
  "Ġbafashe": 22671,
  "ĠAmazu": 18342,
  "vious": 13334,
  "ĠPep": 20216,
  "Ġcoup": 5432,
  "ĠIPRC": 21239,
  "Ġamaboko": 22480,
  "Ġsauf": 28920,
  "Ġryemewe": 23781,
  "umane": 24327,
  "DA": 2674,
  "rand": 16345,
  "afÃ©": 16835,
  "Ġmwana": 16483,
  "ubutaka": 3091,
  "Ġsuperstructure": 29414,
  "Ġtumwe": 11820,
  "Ġnoticed": 7578,
  "ĠnumÃ©ro": 18321,
  "ĠAntarct": 30025,
  "ĠIsland": 6115,
  "Ġubushakashatsi": 3932,
  "ĠdÃ©fense": 19138,
  "Ġmugus": 27472,
  "Ġpauvres": 31037,
  ":%": 10242,
  "ĠKah": 18182,
  "ask": 4167,
  "Ġhistoric": 17824,
  "ĠTina": 22438,
  "Ġnama": 5273,
  "ĠBrother": 21414,
  "omen": 2950,
  "Ġudushya": 11508,
  "ificate": 27487,
  "induwe": 22918,
  "Abaturage": 20303,
  "Ġumuvuduko": 8531,
  "Ġnegoti": 10627,
  "Ġpolar": 28216,
  "ĠLiver": 11027,
  "ĠUrwego": 9867,
  "ĠChol": 29586,
  "Ġcontaining": 10099,
  "Ġabus": 31427,
  "Ġbabana": 29840,
  "Ġhow": 2611,
  "crire": 26158,
  "ERE": 25103,
  "Ġfacult": 16903,
  "Ġmens": 30323,
  "uva": 1964,
  "ĠMonth": 25649,
  "ĠSciences": 14630,
  "ĠScott": 5821,
  "ible": 1543,
  "ĠWestern": 5847,
  "Ġsubsequ": 5575,
  "ĠMcG": 10746,
  "Ġrelocated": 19327,
  "Ġsports": 10154,
  "Ġubuzima": 2741,
  "ĠAmbasade": 25730,
  "Ġngabo": 19051,
  "ĠIgikombe": 7785,
  "Ġrusanzwe": 25547,
  "Ġkeeping": 17141,
  "Ġzab": 7988,
  "ongwa": 22073,
  "Ġarts": 16837,
  "ilty": 19565,
  "fres": 23878,
  "Ġanc": 6187,
  "Ġvirusi": 3652,
  "ĠBarcel": 18593,
  "ĠFlames": 29884,
  "Ġconn": 3033,
  "Ġfinale": 16049,
  "Ġcouple": 11912,
  "Ġrendre": 17219,
  "ĠWes": 16609,
  "ombasa": 19028,
  "omeza": 2210,
  "Ġsociale": 12596,
  "origine": 17872,
  "Ont": 18398,
  "ET": 10635,
  "wuga": 14072,
  "ĠPart": 3506,
  "Ã©g": 1825,
  "ĠKuz": 12879,
  "Ġmoyens": 12719,
  "Ġmbonera": 8642,
  "elt": 1662,
  "Ġchois": 17780,
  "ographical": 17577,
  "ĠSep": 22874,
  "Ġyo": 481,
  "ĠGihing": 28556,
  "ĠIbyabaye": 28540,
  "ĠAÃ¯": 30402,
  "oranye": 7765,
  "mbaga": 16899,
  "ĠEug": 13731,
  "Ġdisable": 31553,
  "Ġretard": 26823,
  "Ġcomplaints": 31693,
  "ĠGold": 4819,
  "Ġhaf": 17665,
  "Ġifeza": 27446,
  "onnÃ©s": 31589,
  "Ġdushyuha": 13323,
  "ĠWith": 3743,
  "Ġga": 12116,
  "Ġtheories": 24293,
  "ashwa": 26028,
  "Ġbay": 5912,
  "Ġbakan": 26779,
  "ĠMaced": 21249,
  "wh": 9237,
  "Ġdurable": 13184,
  "ĠOptions": 18059,
  "GAC": 22794,
  "Ġkwituma": 24088,
  "Ì": 154,
  ":": 43,
  "Ġpays": 3055,
  "Ġeleg": 12797,
  "Ġarriving": 18801,
  "endeye": 27365,
  "Ġbituruka": 19022,
  "opÃ©ration": 7441,
  "ĠtÃªte": 20149,
  "ĠMburabuzi": 7075,
  "Ġbot": 25893,
  "Ġreligion": 15026,
  "ĠMukusanyaKDE": 17553,
  "ĠsÃ©": 8975,
  "ĠNATO": 18896,
  "Ġcooked": 30931,
  "Ġuburozi": 12436,
  "alyse": 15709,
  "Ġdestr": 11229,
  "amato": 28741,
  "yama": 9714,
  "ĠRuv": 21656,
  "ĠMoss": 29576,
  "Ġentre": 2555,
  "TER": 30282,
  "Ġigitaramo": 17797,
  "insp": 26816,
  "Ġmilk": 13989,
  "Ġdois": 21358,
  "Ġilleg": 14810,
  "yss": 28681,
  "Ġnakazi": 29511,
  "Ġgaf": 31260,
  "Ġtracked": 28363,
  "Ġrange": 4290,
  "Ġbrev": 30783,
  "Ġmbrola": 28331,
  "Ġmart": 17647,
  "Ġtort": 12742,
  "Ġpurpose": 11082,
  "ĠIsle": 25542,
  "ĠKarl": 18050,
  "ĠGame": 5045,
  "overs": 12154,
  "ĠHouston": 16954,
  "venir": 11135,
  "200": 2452,
  "Ġsyst": 1798,
  "ĠClarke": 26363,
  "ĠHeg": 14937,
  "ility": 5212,
  "ĠKwihuza": 18048,
  "Ġexact": 10956,
  "Ġzif": 6417,
  "Ġshort": 2772,
  "ĠOpera": 26275,
  "Ġgrant": 8164,
  "ficient": 9103,
  "Ġtaxes": 18613,
  "OTA": 27173,
  "Ġpublicity": 25590,
  "ĠUganda": 1558,
  "Ġunn": 19616,
  "ubwicanyi": 26880,
  "Ġubuyobozi": 8896,
  "ĠTyp": 20532,
  "unganyijwe": 29673,
  "otic": 8934,
  "obligation": 30553,
  "Ġarab": 22098,
  "rome": 13135,
  "Ġashaka": 20358,
  "Ġbizatuma": 28370,
  "Ġyihuta": 19143,
  "Ġobserved": 8558,
  "Ġense": 21319,
  "hors": 26491,
  "Ġdemander": 14187,
  "ukiram": 3640,
  "ĠEkwatoriya": 27158,
  "atirwa": 15766,
  "ereya": 15279,
  "iful": 5158,
  "ĠWinter": 20578,
  "ur": 282,
  "ĠIbanjirije": 28934,
  "Ġdeclined": 15898,
  "imboga": 14817,
  "Ġchall": 7992,
  "Ġfollows": 8637,
  "Ġempl": 7672,
  "ĠYaound": 25149,
  "abe": 4798,
  "Ġeg": 7984,
  "Ġcalculated": 27023,
  "utezimbere": 20642,
  "Ġyijimye": 24316,
  "ĠSt": 716,
  "Ġdifference": 15698,
  "Ġscient": 6489,
  "Ġteaching": 15922,
  "Ġubukwe": 20328,
  "ĠCA": 27287,
  "ively": 2796,
  "ĠJin": 24388,
  "Ġsuch": 1598,
  "ped": 2059,
  "Ġlamp": 24805,
  "Ġwoke": 21205,
  "ĠBuenos": 26307,
  "Ġaged": 17279,
  "Ġlitiro": 16301,
  "Ġshook": 21356,
  "Ġnavir": 31388,
  "Ġprotests": 28317,
  "anada": 28688,
  "Ġwenda": 25322,
  "Ġuniversal": 19793,
  "Ġitariki": 8841,
  "Ġconnects": 28379,
  "Ġcovered": 8869,
  "ĠSinema": 16378,
  "Ġranging": 22748,
  "Ġdosiye": 23293,
  "ikoresho": 1926,
  "Ġkuringaniza": 15659,
  "uts": 3195,
  "aruramari": 25762,
  "hai": 22564,
  "Ġreconc": 27418,
  "umbo": 25364,
  "Ġibitabo": 12176,
  "Ġprompted": 21524,
  "Ġaround": 1555,
  "Ġimpos": 18529,
  "ĠGeneration": 22232,
  "Ġchicken": 22758,
  "ĠBey": 9566,
  "Ġibitonyanga": 29100,
  "Ġaccompl": 12923,
  "inyabuzima": 2269,
  "Ġitangazamakuru": 10019,
  "imijyi": 11835,
  "nes": 6395,
  "amaye": 11961,
  "uzab": 15633,
  "ĠEnterprise": 17367,
  "nelle": 9172,
  "Ġmoto": 19403,
  "ĠProcess": 27505,
  "Ġridge": 22416,
  "Ġincre": 2946,
  "aged": 3446,
  "ĠRoosevelt": 17316,
  "ervoir": 18229,
  "ĠWollstonecraft": 23232,
  "oles": 5276,
  "ĠNiy": 11740,
  "zera": 26511,
  "Ġwaters": 8170,
  "ĠAustri": 10401,
  "Ġassurer": 14626,
  "Ġ180": 7479,
  "Ġmihogo": 25637,
  "oraga": 3625,
  "utira": 31268,
  "Ġkurushaho": 9371,
  "ĠEA": 31410,
  "Ġyawe": 17678,
  "Ġgucika": 21020,
  "Ġsubmarine": 17632,
  "Ġcase": 4672,
  "Ġallerg": 31545,
  "Ġconsidered": 3596,
  "Ġlev": 23898,
  "ĠT": 355,
  "umutuku": 17557,
  "ukiranya": 11184,
  "Ġhull": 18704,
  "Ġ1966": 9048,
  "lande": 8121,
  "Ġhano": 9620,
  "ĠIngabire": 16676,
  "Ġenthusiastic": 24709,
  "ars": 1824,
  "ĠAndrÃ©": 17771,
  "burg": 3773,
  "Ġ1905": 16691,
  "Ġinternet": 15169,
  "ternet": 22559,
  "Ġsiy": 5917,
  "ĠFo": 2839,
  "Ġabar": 7811,
  "Ġindustry": 7628,
  "uvugizi": 12099,
  "Ġultimate": 28745,
  "Ġbwaho": 23441,
  "eriya": 2296,
  "Ġagamije": 17050,
  "ĠCtrl": 9126,
  "isl": 4404,
  "ĠSse": 31310,
  "Ġikina": 12554,
  "Ġbab": 1483,
  "Ġmachin": 27679,
  "autorisation": 25782,
  "Ġsommes": 13466,
  "asted": 17725,
  "ĠHend": 15456,
  "imb": 899,
  "Ġlakes": 22845,
  "eri": 581,
  "55": 16336,
  "Ġmikor": 12296,
  "Ġtekinoroji": 24643,
  "Ġinterineti": 6226,
  "Ġvag": 29642,
  "ĠbÃ©nÃ©": 9287,
  "Ġlyric": 7555,
  "akazi": 3296,
  "ĠEmin": 31411,
  "A": 50,
  "angers": 10250,
  "Ġthey": 791,
  "Ġmurwego": 12926,
  "Ġdetermined": 11159,
  "Ġuburobyi": 24097,
  "ikaya": 24398,
  "Etat": 24746,
  "aro": 1047,
  "Ġcritique": 26156,
  "orana": 5011,
  "ĠFab": 14764,
  "zeza": 23375,
  "undwa": 12552,
  "alked": 5749,
  "ubururu": 17158,
  "ushinwa": 5015,
  "Ġkwigira": 25659,
  "Ġlis": 13706,
  "Ġalert": 24391,
  "Ġgukurura": 16231,
  "interuro": 17808,
  "ĠIhitamo": 5803,
  "Ġdamaging": 28495,
  "Ġfloods": 30940,
  "Ġwhile": 1353,
  "Ġserver": 7671,
  "imibanire": 26574,
  "Ġsouv": 19631,
  "Ġanal": 6989,
  "Ġdeterior": 25074,
  "Ġflame": 24478,
  "ĠDick": 16205,
  "ĠNkuko": 12487,
  "registr": 12940,
  "600": 20462,
  "Ġcorruption": 19431,
  "Ġyavukiyemo": 28428,
  "onek": 8742,
  "bourne": 12717,
  "Î±": 14233,
  "ĠMenu": 25731,
  "Ġsense": 9939,
  "ĠValley": 8916,
  "ĠTi": 18958,
  "Ġespagn": 29999,
  "Ġinjury": 12600,
  "ĠProtection": 22705,
  "ĠBuhinde": 8237,
  "Ġtekinike": 13797,
  "ĠsÃ»r": 25226,
  "ĠSound": 10896,
  "SA": 5910,
  "Ġbazajya": 25737,
  "Ġbyashyize": 28502,
  "embre": 4736,
  "Ġsp": 662,
  "Ġhanze": 3478,
  "Ġcommitment": 25231,
  "Ġbikomeye": 6563,
  "Ġlawsuit": 22316,
  "ubiko": 3318,
  "Ġfitting": 27239,
  "ungabanya": 13375,
  "ĠMr": 5703,
  "Ġjudges": 24118,
  "Ġinher": 16360,
  "ĠBrain": 31639,
  "wanda": 544,
  "tive": 31178,
  "Ġdescriptions": 29213,
  "ĠBasil": 27030,
  "ĠMarine": 13506,
  "iputa": 12886,
  "Ġhttp": 14923,
  "Ġlacking": 28454,
  "Ġyaras": 24498,
  "ĠNear": 19589,
  "Ġcommanding": 20013,
  "Ġcontenu": 23461,
  "IA": 10060,
  "Ġyakiriwe": 10354,
  "amasegonda": 16091,
  "ĠKnight": 15028,
  "Ġabayobozi": 8806,
  "Ġconjunction": 25779,
  "Ġfeud": 18539,
  "ĠEff": 17706,
  "Ġubunararibonye": 30507,
  "Ġdupl": 22412,
  "ways": 2434,
  "oreshaga": 17071,
  "Ġpitch": 11351,
  "abal": 23801,
  "angaza": 6915,
  "angirwa": 15427,
  "Ġapprent": 30086,
  "imenyetso": 2773,
  "ĠGÃ¶": 19272,
  "ory": 979,
  "accept": 23838,
  "enge": 1241,
  "Ġisuzuma": 20560,
  "ĠXI": 26221,
  "ĠdÃ©ta": 21350,
  "angamiye": 17562,
  "option": 15313,
  "sha": 20231,
  "ĠYorkshire": 24023,
  "Ġworship": 16117,
  "ĠComputer": 22238,
  "Ġrwat": 20612,
  "Ġbatuye": 6046,
  "Ġsmiling": 22164,
  "osiye": 2696,
  "uÃ©": 9610,
  "Ġeffets": 15502,
  "ĠFollowing": 6075,
  "Ġfishing": 10857,
  "Ġyanditswe": 10177,
  "ĠInyandikorugero": 26440,
  "Ġpublications": 16476,
  "Ġmukarere": 11771,
  "ĠWindsor": 27031,
  "ĠForest": 13518,
  "ĠHurley": 29246,
  "Ġcolorful": 16288,
  "Ã¨lement": 28923,
  "Ġ62": 12905,
  "Ġbatangira": 15129,
  "Ġzag": 6913,
  "ĠNyirag": 31911,
  "fatwaga": 22375,
  "ĠCritical": 24164,
  "Ġnabaturage": 29084,
  "Ġornament": 31471,
  "Ġuganda": 29815,
  "Ġpert": 11435,
  "ĠCami": 12764,
  "Ġgroupes": 11887,
  "ble": 8055,
  "Ġabakiriya": 14655,
  "ĠPolytechn": 21409,
  "Ġrester": 26776,
  "Ġtrue": 8287,
  "umw": 1181,
  "Ð°Ñı": 29380,
  "itate": 23283,
  "Ġconfronted": 25198,
  "ĠNyampinga": 11326,
  "ukurwa": 26606,
  "ĠOF": 21296,
  "ĠEllen": 19449,
  "Ġrecycl": 29741,
  "Ġnearby": 8039,
  "Ġitangiye": 28839,
  "ĠProfessor": 21107,
  "akh": 14750,
  "Ġdop": 19864,
  "yino": 10323,
  "ĠImbe": 22987,
  "Ġumuceri": 10180,
  "ĠRelations": 31998,
  "Ġkuzuza": 23071,
  "Ġ1941": 9975,
  "ikoreshereze": 8807,
  "Ġsaid": 850,
  "ĠAswan": 31667,
  "angamiwe": 19857,
  "Ġigitero": 24561,
  "Ġsubstitute": 26426,
  "inka": 7156,
  "ĠJa": 26706,
  "ĠLieutenant": 13000,
  "ĠIradukunda": 19826,
  "icip": 6608,
  "ombe": 1407,
  "Ġapparently": 19148,
  "abara": 5553,
  "ĠYaje": 12834,
  "Ġgutegura": 7995,
  "Ġbass": 10775,
  "ĠIshyaka": 21385,
  "ifashisha": 13660,
  "Ġaccompanying": 21153,
  "Ġgrandmother": 28402,
  "Ġprecip": 19130,
  "ĠLithuanian": 28602,
  "Ġpost": 3530,
  "Ġmieux": 11928,
  "Ġbasctl": 20290,
  "Ġelections": 18826,
  "Ġguteg": 13613,
  "Ġdossi": 15401,
  "EM": 27866,
  "is": 297,
  "umunyam": 5005,
  "ĠBurkinafaso": 29405,
  "Ġkumyaka": 25023,
  "ĠHamb": 23852,
  "uga": 706,
  "Ġrope": 19868,
  "wohereza": 30512,
  "ĠnÃ©e": 26530,
  "erezo": 1743,
  "endez": 21061,
  "ĠIMISUSIRE": 23723,
  "ukoresha": 12127,
  "Ġmunyu": 29780,
  "Ġgucunga": 6133,
  "Ġspeech": 11151,
  "ines": 1623,
  "ension": 4255,
  "Ġum": 406,
  "ited": 969,
  "Ġkugirango": 1291,
  "ift": 3420,
  "unaux": 26582,
  "unyu": 13472,
  "ĠStein": 28350,
  "Ġbanze": 27923,
  "abayisilamu": 20184,
  "ource": 4343,
  "Ġmo": 1667,
  "ĠRihanna": 17877,
  "Ġ(%": 11454,
  "BS": 12105,
  "Ġtower": 8482,
  "Ġstolen": 28090,
  "astructures": 24665,
  "ubwigenge": 24530,
  "umurwa": 7725,
  "gezweho": 12565,
  "anywe": 6849,
  "Ġenc": 3179,
  "Ġariko": 1067,
  "echt": 13404,
  "otyp": 18976,
  "view": 5038,
  "ĠmÃªme": 4005,
  "oroba": 14143,
  "Ġkitar": 16356,
  "Ġ(&": 24860,
  "iction": 3944,
  "ĠX": 2168,
  "Ġbeings": 31425,
  "ylvania": 9606,
  "ĠconcernÃ©s": 27599,
  "ĠResp": 23841,
  "idium": 23834,
  "Ġcertains": 9056,
  "bis": 31160,
  "hinduye": 29144,
  "Ġpunish": 25200,
  "ĠHoldings": 25784,
  "Ġyamuhaye": 30748,
  "Ġmerely": 24713,
  "amasayi": 8868,
  "Ġpredominantly": 28620,
  "Ġguha": 7953,
  "ĠGishinzwe": 28053,
  "Ġubwenegihugu": 13764,
  "Ġeconomy": 12949,
  "Ġrig": 3504,
  "amiya": 24304,
  "changes": 17040,
  "Ġ1879": 27652,
  "GACIRO": 24226,
  "ĠKomandi": 15201,
  "Ġforests": 18194,
  "fite": 1714,
  "Ġabantu": 1429,
  "ĠAutom": 16298,
  "Ġoptions": 10292,
  "icht": 21330,
  "Uburundi": 10970,
  "inoti": 27912,
  "ĠNouv": 13174,
  "Ġexhibit": 25468,
  "Ġengage": 21824,
  "ignment": 12786,
  "ĠÅ": 7937,
  "Ġvertical": 14856,
  "entreprise": 16526,
  "Ġi": 309,
  "ĠImyaka": 21746,
  "Ġabikorera": 12440,
  "ĠIby": 3988,
  "ayijani": 24214,
  "ĠparticuliÃ¨rement": 15217,
  "urikiwe": 28472,
  "ledge": 9524,
  "Ġinitiated": 26921,
  "Ġcrossed": 12274,
  "ĠBeyoncÃ©": 14212,
  "asts": 13742,
  "par": 2194,
  "Ġtoolbar": 20400,
  "eed": 18904,
  "ĠShift": 11772,
  "WAS": 25859,
  "ulement": 27310,
  "Ġguests": 29829,
  "ĠPle": 8153,
  "agarariwe": 29851,
  "Ġwumva": 18930,
  "Ġmonster": 13451,
  "uja": 11487,
  "ĠUshinzwe": 24350,
  "ĠRag": 27304,
  "Ġntera": 12201,
  "oy": 1187,
  "Ġrevenus": 30116,
  "Ġcolours": 22181,
  "azi": 1346,
  "Ġ2002": 2716,
  "LO": 18397,
  "Ġumukara": 13032,
  "Ġpalace": 17381,
  "Ġbounc": 23932,
  "emera": 13359,
  "pi": 14713,
  "Ġcharset": 18791,
  "Ġbombs": 23622,
  "ĠUsing": 16505,
  "nest": 12969,
  "Ġowing": 26384,
  "ĠMonsieur": 14210,
  "ialog": 3482,
  "Ġter": 3262,
  "Ġbagombaga": 27447,
  "IT": 5596,
  "ÃŃk": 30022,
  "ĠSullivan": 18451,
  "Ġibitaramo": 11981,
  "ĠSkinner": 25155,
  "ĠMozamb": 10838,
  "imaire": 22527,
  "Ġovers": 18158,
  "Ġute": 20840,
  "abaz": 17717,
  "Ġimisozi": 9495,
  "uvement": 22113,
  "ĠRemera": 15539,
  "Ġ\"%": 5523,
  "Ġphoto": 15941,
  "iminota": 18830,
  "ishoramari": 11279,
  "ĠIP": 11443,
  "ps": 5168,
  "Ł": 271,
  "Ġmishya": 18411,
  "Ġinv": 1540,
  "Ġumuringa": 24036,
  "Ġdifficulties": 19121,
  "ĠKA": 26631,
  "Ġspl": 6883,
  "Ġbases": 13277,
  "ĠsantÃ©": 5074,
  "ite": 472,
  "Ġrwanda": 18153,
  "ĠAnth": 10511,
  "ĠAngels": 29131,
  "weight": 19886,
  "ĠAngela": 24557,
  "ĠSenateri": 29173,
  "ĠWander": 21300,
  "Ġyagutse": 29796,
  "ĠSuite": 23183,
  "umiÃ¨re": 25602,
  "Ġindiqu": 9310,
  "abanije": 17223,
  "ako": 1324,
  "uweho": 29866,
  "Ġoutstanding": 26778,
  "ulg": 18729,
  "ĠReturn": 15040,
  "Ġanyone": 11885,
  "Ã¢te": 22616,
  "ĠAward": 4985,
  "Ġkitwa": 16167,
  "ĠCollege": 4628,
  "ĠKugeza": 4377,
  "ongereye": 7948,
  "ushake": 8682,
  "Ġ1997": 3540,
  "ĠJ": 479,
  "approbation": 26412,
  "Ġwanted": 1683,
  "Ġprimary": 8560,
  "Ġkigereranyo": 24518,
  "ikurire": 15273,
  "ĠUnies": 6969,
  "ĠSP": 24840,
  "port": 699,
  "non": 25868,
  "ĠdÃ©termin": 8907,
  "arts": 29693,
  "ingly": 16991,
  "Ġyarangiye": 25553,
  "Ġfusion": 29536,
  "forc": 6492,
  "Ġadditional": 5990,
  "izo": 2984,
  "inzobere": 12516,
  "ĠMac": 4524,
  "ouc": 23256,
  "Ġuyobora": 25342,
  "oze": 8189,
  "Ġabana": 2723,
  "ĠVlad": 19309,
  "ĠEdward": 6536,
  "Ġbwe": 3585,
  "ĠService": 8349,
  "Ġigishanga": 10955,
  "ĠNigeriya": 8048,
  "Ġcapac": 5496,
  "espace": 26882,
  "anasi": 13818,
  "ĠBush": 11549,
  "ĠMichaels": 27137,
  "ĠAllied": 11588,
  "Ġlaunch": 10594,
  "Le": 12017,
  "ĠHarr": 6220,
  "vuga": 6238,
  "Ġcolony": 15155,
  "Ġhagati": 1120,
  "ĠCrescent": 31096,
  "Ġ1978": 7446,
  "ĠJim": 5159,
  "rift": 18991,
  "ĠRDB": 21265,
  "ĠMala": 9890,
  "Ġintoki": 22524,
  "irishya": 4472,
  "Ġearlier": 5967,
  "and": 301,
  "ibusamo": 28611,
  "ĠImpamyabumenyi": 14019,
  "1996": 22256,
  "1995": 28447,
  "ubug": 11265,
  "Ġvocal": 10696,
  "zweho": 3644,
  "ifashe": 23401,
  "Ġbatewe": 29503,
  "ĠScottish": 10698,
  "eds": 8613,
  "Ġstepped": 15731,
  "Ġakajya": 17112,
  "ĠEva": 21683,
  "ĠIkoreshwa": 28978,
  "Ġpath": 6205,
  "Ġirangwa": 27460,
  "ĠsupplÃ©mentaires": 21879,
  "ĠParker": 19110,
  "ĠMoney": 24331,
  "Ġconstruction": 4599,
  "Ġsevere": 9437,
  "ĠKansas": 18183,
  "Ġlocation": 6068,
  "Ġre": 509,
  "Ġec": 3398,
  "Ġngufi": 5986,
  "izera": 8788,
  "ahura": 28854,
  "Ġsettlement": 14841,
  "Ġscen": 23449,
  "Ġproper": 11198,
  "Ġwrites": 15163,
  "ĠMonaco": 25108,
  "Ġcyaro": 10405,
  "ĠIshyirahamwe": 10167,
  "ibishanga": 11737,
  "Ã©tabl": 11127,
  "terdam": 29634,
  "ĠYv": 16621,
  "Ġdedicated": 11416,
  "irana": 7798,
  "Ġmet": 974,
  "Ġcompetition": 9060,
  "ĠRuguru": 20548,
  "ĠEgypt": 9007,
  "Ġmic": 6099,
  "Ġrather": 5240,
  "ujyi": 1844,
  "ishimishije": 30877,
  "ĠMadag": 9863,
  "neath": 28143,
  "Ġleading": 5609,
  "Ġcollaboration": 11916,
  "ĠRaid": 23358,
  "Ġkwitwara": 29991,
  "Ġyari": 1040,
  "unde": 22937,
  "ĠConc": 14158,
  "ĠHeroes": 25207,
  "I": 58,
  "undred": 9086,
  "2010": 14980,
  "Ġradius": 24546,
  "ĠForbes": 16674,
  "Ġbat": 862,
  "ĠEric": 7736,
  "Ġgushyigikira": 11317,
  "Ġnabagore": 29860,
  "etheless": 19559,
  "Ġbegins": 8862,
  "Ġengine": 4836,
  "Ġrom": 9759,
  "Ġuharanira": 12366,
  "neum": 20937,
  "ĠIsesengura": 23020,
  "h": 89,
  "Ġuwari": 29537,
  "hed": 819,
  "Ġrap": 1976,
  "Ġjuridique": 16535,
  "INDURAGACIRO": 25816,
  "ĠFinanc": 18828,
  "Ġfreestyle": 28436,
  "Ġstraw": 20572,
  "TR": 16340,
  "İ": 254,
  "osure": 28837,
  "ĠLouise": 19128,
  "Ġzashyizwe": 28845,
  "Iny": 19710,
  "Ġbamb": 30327,
  "Ġcelebrate": 22708,
  "Ġparish": 19318,
  "Ġbumenyi": 9684,
  "Ġbakag": 24967,
  "iral": 8059,
  "ĠHist": 6790,
  "Ġconven": 16015,
  "Ġkubikorwa": 20249,
  "ĠFernando": 30196,
  "Ġrugana": 22188,
  "ĠDesktop": 29201,
  "ouest": 31592,
  "ĠMoment": 30851,
  "Ġhav": 11353,
  "Ġcensus": 27775,
  "umuro": 20519,
  "ĠGufunga": 21863,
  "Ġsoldier": 17342,
  "Ġbakinnye": 27436,
  "Ġconduite": 28567,
  "BE": 12736,
  "Ġababyeyi": 9085,
  "icity": 26575,
  "wamo": 2941,
  "Ġengineers": 30885,
  "Ġinc": 1462,
  "ĠdÃ©cl": 6359,
  "ĠÃīt": 3639,
  "ison": 2015,
  "Ġadvis": 17336,
  "Ġdeliver": 18806,
  "ĠRÃ©": 11647,
  "Ġfurry": 20019,
  "Ġdistingu": 12489,
  "Ġbirthday": 13317,
  "ĠBeginning": 20445,
  "Ġaccr": 17049,
  "Ġmanini": 11393,
  "Ġdropping": 29879,
  "Ġbakoze": 12904,
  "Ġbushakashatsi": 8229,
  "Ġaltern": 7699,
  "Ġtent": 11819,
  "Ġishy": 3757,
  "Ġunve": 22940,
  "ĠPourquoi": 24624,
  "Ġstar": 5157,
  "Amer": 29450,
  "eraient": 23385,
  "Ġarrangement": 15540,
  "ĠprogrÃ¨s": 14636,
  "Ġcou": 22108,
  "ername": 30677,
  "Ġmark": 3031,
  "Ġpartial": 19650,
  "fire": 15955,
  "ked": 1648,
  "Ġami": 30510,
  "embe": 6332,
  "Ġ1936": 13524,
  "ĠShakespeare": 16333,
  "urezi": 2495,
  "Ġa": 279,
  "Ġspend": 19638,
  "iaire": 10286,
  "Ġperdu": 31596,
  "Ġprovince": 10224,
  "ĠKin": 3913,
  "agarariye": 4258,
  "ĠCalifornia": 6344,
  "ĠVar": 24410,
  "Ġpsychiat": 22775,
  "inwa": 3561,
  "ĠqualitÃ©": 10233,
  "enn": 1292,
  "ĠMana": 20526,
  "Ġdesired": 24913,
  "Ġpassenger": 14372,
  "ĠBatman": 14366,
  "orth": 1331,
  "Ġfallen": 20708,
  "igize": 3336,
  "ologique": 17533,
  "ishikarije": 26353,
  "Ġawa": 27202,
  "ubahwa": 20361,
  "³": 129,
  "iceri": 16181,
  "Ġumupira": 2695,
  "ĠAho": 6036,
  "Ġimpact": 9042,
  "arwanda": 2546,
  "Ġbikoreshwa": 12109,
  "ĠRam": 10079,
  "Ġyav": 1808,
  "iennent": 15061,
  "usine": 30395,
  "ZWE": 5767,
  "Ġsin": 19862,
  "Ġikiri": 22941,
  "Akarere": 6600,
  "Ġgrabbed": 10612,
  "asabwa": 21214,
  "Ġmpuzamahanga": 1247,
  "ĠNdoli": 21043,
  "ĠStruth": 28412,
  "Ġcharges": 15340,
  "Ġush": 2580,
  "Ġcan": 1108,
  "ĠAmategeko": 8418,
  "Ġhide": 11354,
  "imisozi": 6955,
  "ĠSonic": 19781,
  "Ġzashyizweho": 31394,
  "ĠNASA": 23702,
  "Ġabona": 11282,
  "ĠMontgomery": 20126,
  "ĠKongera": 20208,
  "ĠNote": 21268,
  "Ġzitangwa": 18555,
  "Ġchar": 1330,
  "Ġover": 993,
  "Ġtouched": 17873,
  "ĠBiteganyijwe": 31015,
  "ino": 832,
  "ĠAkina": 13401,
  "ĠProp": 29057,
  "Ġspeed": 5148,
  "abashoramari": 24691,
  "ĠvÃ©rific": 27064,
  "onda": 4383,
  "ĠArabian": 30910,
  "ĠHann": 15614,
  "Ġfournir": 14039,
  "Ġhero": 7846,
  "Ġass": 1301,
  "angane": 31214,
  "ĠAtal": 26827,
  "igish": 22434,
  "injiramo": 26812,
  "Ġlanguages": 16700,
  "onezamubano": 17189,
  "Ġsomewhat": 19351,
  "Ġkrd": 27949,
  "amphetamine": 25493,
  "Ġgashinzwe": 18708,
  "Ġubwe": 17257,
  "Ġ14": 1573,
  "ĠOverall": 27688,
  "forced": 19408,
  "ancel": 20270,
  "ĠiTunes": 28641,
  "Ġintegrated": 28508,
  "Ġbaturiye": 31559,
  "ĠGem": 26655,
  "ĠRwamagana": 11798,
  "Ġrecords": 8754,
  "ĠMuhinduzi": 19772,
  "Ġreviews": 7108,
  "enyerewe": 25565,
  "Ġmibereho": 8768,
  "Ġurugero": 5640,
  "ĠHoly": 16917,
  "Ġpostponed": 27838,
  "Ġkumera": 16466,
  "Ġkane": 4814,
  "ĠEs": 6108,
  "Ġyarang": 20652,
  "Âº": 11341,
  "Ġevacu": 18538,
  "Ġeven": 2339,
  "Ġeventually": 4919,
  "Ġcould": 1200,
  "Ġcommunautaire": 13192,
  "kaga": 29474,
  "Ġmu": 317,
  "Ġoccur": 12077,
  "ĠAg": 1919,
  "HD": 27171,
  "ĠCar": 2184,
  "Ġbagaragaza": 19962,
  "Ġumuhango": 17548,
  "ĠÃ©lectronique": 22768,
  "erk": 15422,
  "ary": 741,
  "Ġab": 488,
  "ibanda": 9569,
  "bow": 11850,
  "Ġministers": 26820,
  "Ġbyamazi": 30037,
  "Ġcircum": 16285,
  "reak": 6816,
  "Ġbelie": 3096,
  "ÙĪØ±": 29316,
  "ĠSmall": 17355,
  "ĠSeven": 20765,
  "play": 2964,
  "ĠAMA": 28776,
  "Ġpain": 6605,
  "Ġphilos": 11246,
  "ĠHar": 2512,
  "atiya": 30343,
  "ĠWashington": 4156,
  "eship": 25477,
  "ĠEurope": 2813,
  "ĠGushoboza": 24873,
  "Ġmiriyoni": 18897,
  "ĠCrus": 28372,
  "ĠLabrador": 29290,
  "ubwongereza": 29881,
  "atabase": 14530,
  "ĠLou": 5000,
  "organisme": 28542,
  "ĠHaving": 14579,
  "mund": 19838,
  "inf": 14075,
  "Ġtes": 26516,
  "Ġguf": 1787,
  "wak": 10263,
  "ĠUmukobwa": 29969,
  "Ġlast": 2468,
  "Ġtraditional": 8179,
  "ĠIndirimbo": 23501,
  "ĠdemandÃ©": 16281,
  "irish": 17908,
  "esc": 3246,
  "Ġshampiyo": 27142,
  "Ġkama": 23291,
  "Ġigik": 11859,
  "Ġpromise": 17107,
  "otse": 7251,
  "aland": 22421,
  "Ġaccepts": 31853,
  "Ġprogression": 30723,
  "ĠBangladesh": 24738,
  "iott": 31170,
  "ym": 8716,
  "shore": 17957,
  "ĠJud": 6916,
  "Ġailleurs": 15763,
  "ĠKuri": 991,
  "angange": 25317,
  "ĠElumelu": 31129,
  "Ġkitari": 21210,
  "adi": 8673,
  "Ġcyib": 20220,
  "Ġstages": 15101,
  "Ġsimilarly": 17349,
  "Ġ1912": 14487,
  "ĠMovie": 12288,
  "Ġmental": 17434,
  "Ġamenya": 29663,
  "umanaho": 5562,
  "Ġinstruction": 29544,
  "ules": 4525,
  "Ġkinds": 22663,
  "ibonano": 6016,
  "Ġnubukungu": 22825,
  "very": 1532,
  "Ġcyiswe": 20558,
  "tail": 30303,
  "ĠGir": 20215,
  "Ġkut": 4418,
  "}": 110,
  "Ġtariki": 4954,
  "annette": 19041,
  "Ġpouvoirs": 21904,
  "ĠWhile": 3682,
  "Ġmumijyi": 22593,
  "akuruka": 28022,
  "Ġenjoy": 5490,
  "ĠPly": 19908,
  "Ġdesignated": 10226,
  "atoranijwe": 10618,
  "udirishya": 22087,
  "ĠUburasirazuba": 31507,
  "ĠAlice": 12462,
  "Ġkwibasira": 30030,
  "ugment": 7351,
  "Ġbyumweru": 24359,
  "Ġdays": 3181,
  "wite": 8878,
  "2016": 13060,
  "ĠEditor": 20331,
  "Abanyafurika": 25706,
  "¬": 123,
  "Orient": 30280,
  "col": 7598,
  "ĠMoon": 13649,
  "Ġmarch": 4081,
  "ĠSyd": 10913,
  "els": 1311,
  "Ġninganda": 29512,
  "Ġdefeating": 20362,
  "ĠRBA": 21263,
  "ĠNorthwest": 27577,
  "Ġloyal": 14978,
  "akoresha": 12996,
  "zing": 19840,
  "Ġwith": 473,
  "ĠSebast": 30121,
  "Ġbamus": 31875,
  "Wow": 13812,
  "Ġfourth": 5285,
  "ĠprÃ©fÃ©r": 28362,
  "Ġcommander": 8913,
  "YANDI": 23715,
  "Ġelevation": 24648,
  "ororombya": 5626,
  "abanyijemo": 24820,
  "Ġmeasur": 22681,
  "Ġheritage": 22959,
  "Ġapology": 31700,
  "Ġpursued": 27721,
  "Ġsecret": 7232,
  "Ġibihumbi": 5032,
  "ĠClarisse": 25234,
  "imiyoborere": 19557,
  "Ġtiny": 15760,
  "Ġbub": 4507,
  "ĠCongo": 4210,
  "Ġmizi": 25890,
  "Ġinyoni": 4704,
  "ubwonko": 18284,
  "imo": 664,
  "Ġburengerazuba": 6428,
  "Ġreinforcements": 21947,
  "Ġvidewo": 16901,
  "Ġdelta": 29531,
  "Ġumurimo": 10747,
  "Ġflu": 13753,
  "anto": 22908,
  "Ġgushakisha": 15235,
  "Ġhonour": 15382,
  "uku": 3800,
  "Ro": 27870,
  "ett": 1153,
  "Ġinstrumental": 17394,
  "jo": 4191,
  "Ġkumen": 3570,
  "Ã§u": 20677,
  "Ġcostumes": 26972,
  "iate": 17196,
  "Ġbunny": 12715,
  "craft": 3862,
  "Ġimposed": 27453,
  "waye": 5342,
  "haye": 10432,
  "Ġweekly": 21825,
  "Ġakarusho": 29327,
  "ĠMi": 9420,
  "Ġbanywa": 22823,
  "Ġikura": 19002,
  "Ġnubuhanga": 23556,
  "ĠTerritory": 22343,
  "Ġzikora": 12927,
  "ĠRon": 14420,
  "ose": 1021,
  "ugarijwe": 21080,
  "Ġbikar": 24992,
  "ĠGukuraho": 16487,
  "Ġ7": 919,
  "ĠKwizera": 22639,
  "ĠUTC": 13598,
  "ĠDetroit": 17172,
  "ĠUbutumwa": 3636,
  "enes": 5210,
  "ĠBlu": 15685,
  "orohereza": 12235,
  "isab": 27223,
  "ereko": 19243,
  "Ġhaba": 3525,
  "Ġbigezweho": 17505,
  "ĠFuture": 20447,
  "And": 29451,
  "amini": 5614,
  "Ġdepending": 18573,
  "Ġparagraph": 22696,
  "Ġmale": 7975,
  "ĠUmwanditsi": 23154,
  "ĠSag": 24842,
  "abab": 15778,
  "Ġinterven": 16443,
  "Ġproduction": 2973,
  "ecked": 22879,
  "ujyakuzimu": 16450,
  "Ġbeginning": 6067,
  "Ġbrigade": 16870,
  "Ġkenya": 25911,
  "uest": 21581,
  "Ġikan": 13735,
  "2004": 12816,
  "araba": 20827,
  "ather": 1812,
  "itting": 6384,
  "Ġukinira": 9140,
  "standing": 12884,
  "Ġoutl": 20273,
  "ĠSmart": 29967,
  "Ġaccess": 4475,
  "Ġcompetent": 29996,
  "ĠMorgan": 13427,
  "Ġvot": 3448,
  "avuze": 27341,
  "Ġgenerally": 5689,
  "Ġpot": 4017,
  "ocks": 11965,
  "ĠcrÃ©er": 16295,
  "ĠHebrew": 30245,
  "ĠRod": 8150,
  "Ubukungu": 19685,
  "Ġugabanuka": 30673,
  "Ġscar": 20264,
  "Uburenganzira": 22158,
  "Ġub": 444,
  "oa": 20143,
  "Ġlittle": 1303,
  "irizi": 19290,
  "Ġnick": 11253,
  "Ġexam": 24404,
  "Ġkonti": 21607,
  "Ġinvestigate": 19462,
  "Ġmoins": 5902,
  "Ġdimensions": 24154,
  "Ġplut": 15314,
  "hyth": 11585,
  "Ġcatastrop": 30240,
  "Ġwhich": 730,
  "rated": 13216,
  "Ġinches": 11308,
  "ĠMINIJUST": 22778,
  "Ġimproved": 11605,
  "Ġcommand": 2542,
  "Ġnationale": 9686,
  "enyine": 11310,
  "agateganyo": 13352,
  "umped": 7433,
  "Ġfield": 3550,
  "Ġdcop": 29530,
  "jug": 11083,
  "uduko": 4575,
  "Ġtrend": 23424,
  "Ġseal": 22096,
  "anze": 1142,
  "CEE": 17357,
  "Ġofficial": 4586,
  "ubwiza": 14567,
  "Ġumusatsi": 25552,
  "Ġfungus": 21931,
  "Ġtherefore": 11124,
  "Ġestablish": 9328,
  "andukanya": 7033,
  "acitÃ©": 11025,
  "Ġbireb": 12520,
  "Ġcircuit": 25647,
  "onze": 7529,
  "oroheje": 8856,
  "ova": 12452,
  "ipped": 14435,
  "Ġaugmentation": 22724,
  "Ġdon": 3272,
  "ases": 5503,
  "Ġbuz": 6908,
  "Ġforest": 5939,
  "igera": 22016,
  "ustri": 4821,
  "Ġbakomeje": 19033,
  "Ġcataly": 26907,
  "vana": 31180,
  "Ġedited": 24539,
  "Ġnoble": 24395,
  "Ġrespect": 3547,
  "<|bos|>": 1,
  "inyoni": 4863,
  "Ġ72": 11484,
  "Ġholiday": 22777,
  "ĠBre": 17932,
  "Nk": 26475,
  "Ġogisij": 28614,
  "ĠHell": 14755,
  "uguruye": 28283,
  "anirwa": 10064,
  "Ġconsisted": 10625,
  "Ġaspir": 26338,
  "Ġoperation": 6830,
  "iness": 3175,
  "ertension": 30600,
  "ĠUnited": 1725,
  "Ġdio": 11831,
  "ĠHugh": 19269,
  "ĠThro": 15825,
  "Ġrec": 723,
  "erar": 2498,
  "rough": 1285,
  "Ġigihingwa": 8962,
  "¶": 132,
  "Ġyashinzwe": 6975,
  "Ġine": 8194,
  "ĠMark": 4635,
  "erts": 8079,
  "aked": 13360,
  "eniyeri": 18924,
  "umuga": 6248,
  "Ġwose": 8073,
  "ĠVel": 26745,
  "oreshejwe": 4130,
  "ĠArr": 27448,
  "yura": 22810,
  "dal": 18133,
  "ĠKharto": 31879,
  "igo": 968,
  "Ġreliable": 21150,
  "rons": 10639,
  "Ġsuivre": 20363,
  "aturutse": 5509,
  "ĠNations": 4818,
  "abled": 10678,
  "Ġpermettent": 20403,
  "ĠAge": 14259,
  "keep": 14819,
  "ĠHud": 23368,
  "ĠIS": 4900,
  "ĠUkwezi": 20659,
  "onsin": 19653,
  "Ġrainbow": 19125,
  "cribe": 29897,
  "Ġrel": 836,
  "Ġmirire": 29908,
  "Ġkuzura": 29915,
  "usu": 29556,
  "Ġdepend": 13293,
  "iced": 5505,
  "Ġverses": 26888,
  "ĠFinance": 24589,
  "hiswemo": 4825,
  "ĠsÃ»retÃ©": 29352,
  "AMA": 30274,
  "Intwari": 27664,
  "ĠLeg": 7612,
  "ĠRAB": 22047,
  "oku": 21328,
  "eld": 12035,
  "ris": 5238,
  "YA": 1559,
  "Ġyakuwe": 18526,
  "ĠMujyi": 9258,
  "ishi": 10144,
  "Ġ\",": 14574,
  "ki": 4549,
  "Ġbidah": 27608,
  "inÃ©e": 27911,
  "ĠQString": 12474,
  "Ġeighteenth": 30136,
  "Ġfell": 5584,
  "Ġostr": 28749,
  "isive": 20167,
  "ĠVit": 10596,
  "ĠMississippi": 16151,
  "Ġprofits": 29917,
  "bridge": 14668,
  "Ġbehav": 8918,
  "Ġbagiteri": 13501,
  "Ġukunzwe": 28168,
  "ĠProvince": 23664,
  "ĠCopen": 29237,
  "Ġencompass": 27834,
  "Ġserves": 16058,
  "ugan": 14742,
  "Ġastr": 13005,
  "igue": 6679,
  "film": 21126,
  "ĠUbwiyongere": 20379,
  "Ġtransparence": 28582,
  "Ġrecueill": 22979,
  "ĠMiles": 27274,
  "Ġmunota": 19674,
  "Ġquote": 31447,
  "andura": 8928,
  "alph": 19226,
  "Ġdoc": 2039,
  "Ġoccurs": 13526,
  "ĠAbaturage": 6192,
  "he": 278,
  "ĠOakland": 29373,
  "Ġndi": 27403,
  "funguzo": 23735,
  "Ġtraitement": 12287,
  "hower": 28007,
  "Ġsupposed": 15846,
  "Ġmbo": 12744,
  "nyuma": 28397,
  "atta": 14473,
  "-@": 470,
  "Ġikiz": 20922,
  "ĠprocÃ©dure": 12500,
  "istr": 1688,
  "ondekanya": 16961,
  "pres": 10962,
  "wr": 11249,
  "oses": 14941,
  "urebure": 3661,
  "Ġorientation": 31017,
  "ĠstratÃ©gies": 18855,
  "urop": 3829,
  "ĠBarn": 14415,
  "Ġavoided": 22353,
  "ĠWright": 15222,
  "Ġrip": 26550,
  "ĠDh": 16393,
  "Ġkanini": 14246,
  "watini": 20480,
  "Ġrwabaye": 27456,
  "vura": 1983,
  "Ġcompos": 3444,
  "ultan": 11211,
  "Ġfox": 16650,
  "me": 679,
  "ĠMTN": 16798,
  "fun": 22374,
  "Ġspun": 22523,
  "Ġusabwa": 28965,
  "ĠCoalition": 28634,
  "orns": 17529,
  "unyungugu": 16479,
  "Ġjog": 22518,
  "ijyi": 3722,
  "Ġcasualties": 15052,
  "Ġmumashyamba": 31984,
  "Ġcenturies": 14989,
  "ĠdÃ©tails": 31976,
  "irire": 28730,
  "ingenzi": 3587,
  "Ġkongerera": 16168,
  "Ġfurika": 18941,
  "ĠKarag": 22883,
  "Ġkwakira": 8701,
  "ĠFis": 21290,
  "onium": 19335,
  "Ġmagufi": 23520,
  "é": 183,
  "Ġinyubako": 10742,
  "olk": 9571,
  "Ġdeclaration": 30027,
  "engab": 21309,
  "yari": 18915,
  "pop": 25871,
  "mid": 29475,
  "Ġbog": 25307,
  "Ġaspects": 9673,
  "duction": 14616,
  "ĠOx": 6662,
  "Ġushingiye": 26912,
  "wind": 16560,
  "Ġforgive": 27048,
  "Ġ68": 9372,
  "ĠJTW": 29675,
  "agize": 10486,
  "ĠDor": 16010,
  "ĠGarden": 16529,
  "Ġthemed": 26810,
  "ĠTerr": 19575,
  "cle": 4495,
  "ĠMy": 4721,
  "Ġresidence": 19954,
  "onyi": 13100,
  "arded": 16623,
  "ement": 555,
  "Ġyinjira": 7105,
  "Ġfalse": 20764,
  "ĠYari": 6865,
  "Ġconsultation": 19450,
  "ĠcomprÃ©hension": 30268,
  "prises": 6225,
  "Ġlimits": 18054,
  "ĠThompson": 17636,
  "Ġenlar": 31464,
  "Ġabarwayi": 13261,
  "Ġpetits": 25132,
  "Ġcyamb": 23415,
  "Ġhear": 9032,
  "ĠFest": 28082,
  "Ġumuganga": 14813,
  "uctu": 29651,
  "à¬": 18139,
  "Ġguhingwa": 19330,
  "Ġmonde": 7720,
  "ĠObserv": 23155,
  "Ġdisl": 19657,
  "Ġbwakozwe": 8854,
  "Ġsoutheast": 10684,
  "Ġumuryango": 3158,
  "ĠJake": 18997,
  "Ġ2005": 2197,
  "Ï": 157,
  "1997": 18078,
  "ĠOlivier": 19479,
  "ĠÃħ": 26058,
  "Ġbigenda": 11206,
  "color": 25171,
  "ĠHaz": 24866,
  "ĠIzina": 3963,
  "Ġlake": 8479,
  "ĠlÃ©g": 6450,
  "ĠOliver": 17109,
  "Ġprogramme": 4376,
  "Ġwithout": 3351,
  "Ġvisi": 22062,
  "arangira": 18925,
  "Ġbyibanda": 25691,
  "Ġthriller": 29255,
  "Á": 143,
  "ĠMex": 4753,
  "Ġloan": 15487,
  "itezweho": 22074,
  "Ġkarere": 1960,
  "Ġbirebire": 18649,
  "Ġabaguzi": 30835,
  "Ġmusical": 6829,
  "Ġgutuma": 7227,
  "Ġmbuga": 13768,
  "ved": 1934,
  "Ġincreases": 19730,
  "Ġmaterial": 7196,
  "ĠIzindi": 21238,
  "ĠUmujyi": 4498,
  "Ġplate": 11754,
  "Ġcoule": 20941,
  "ĠIgiti": 18780,
  "Ġdebris": 23570,
  "Ġyamen": 7673,
  "Ġkira": 31230,
  "amavuta": 16784,
  "Ġwash": 4073,
  "Ġmaximum": 8017,
  "Ġturns": 10369,
  "Ġyanduye": 15711,
  "Ġpouvons": 22690,
  "Ġakurira": 17047,
  "medi": 5125,
  "B": 51,
  "ĠfÃ©vrier": 14919,
  "ĠMurphy": 22679,
  "ĠBalt": 10490,
  "ingwe": 30384,
  "ĠinformÃ©": 29927,
  "ĠVas": 31473,
  "Ġsafely": 29188,
  "Ġconsisting": 14505,
  "Ġkamera": 30853,
  "Ġduk": 7246,
  "ĠWell": 9499,
  "Ġpeek": 24469,
  "ĠconsÃ©quences": 22738,
  "Ġcolour": 9855,
  "ablement": 13516,
  "appl": 6252,
  "Ġtell": 4015,
  "ĠColin": 21003,
  "Ġsurface": 5964,
  "Ġvillage": 6366,
  "ixon": 15669,
  "ĠCyrus": 22196,
  "Ġmenu": 9525,
  "ouss": 31481,
  "rag": 21578,
  "ungabunga": 2097,
  "ithecus": 28610,
  "Ġreef": 31441,
  "Ġpaix": 12093,
  "Ġsail": 10282,
  "Ġtut": 10850,
  "Ġyigisha": 20023,
  "Ġsituated": 16524,
  "orps": 5822,
  "ĠYerekanwe": 24920,
  "Ġpowerful": 7755,
  "Ġjeep": 30763,
  "politiki": 26501,
  "itiro": 12861,
  "è": 182,
  "Ġphysical": 11332,
  "Ġlang": 3885,
  "MRCA": 31077,
  "Ġaccident": 8955,
  "ĠAbandi": 16042,
  "hib": 6514,
  "ĠLane": 17017,
  "Ð°": 4090,
  "Ġlink": 6244,
  "Ġconsistently": 24603,
  "abya": 14409,
  "ashyigikiye": 30685,
  "ĠGl": 2998,
  "Ġorbit": 20254,
  "Ġinnocence": 30228,
  "wiriza": 5881,
  "track": 10960,
  "theless": 31179,
  "ĠCot": 15598,
  "rÃ©g": 18912,
  "Ġcampus": 15186,
  "asiwe": 12470,
  "abanyuka": 24685,
  "Ġproperty": 9539,
  "Ġobserve": 27628,
  "Ġgathered": 17627,
  "Ġkumeny": 20028,
  "Ġterrain": 13440,
  "coming": 14023,
  "Ġbombardment": 30236,
  "Ġmeas": 5217,
  "anguramoko": 19829,
  "ĠIdi": 31717,
  "ĠRear": 25979,
  "ĠImyidagaduro": 21460,
  "Ġyemeye": 13190,
  "Ġumug": 1914,
  "Ġyabayeho": 24543,
  "ĠKiss": 27300,
  "greg": 19836,
  "Ġdemand": 3702,
  "Ġchangement": 21424,
  "Ġstructur": 24082,
  "Ġmyster": 12356,
  "Ġubugari": 27346,
  "udios": 9922,
  "obyi": 8943,
  "Ġaf": 694,
  "wen": 11084,
  "interpr": 26933,
  "Ġunderground": 14471,
  "Ubushinwa": 13153,
  "Ġitwara": 21287,
  "ĠLie": 29614,
  "ĠCapital": 13892,
  "%": 22,
  "Ġpenn": 30367,
  "Ġexpected": 7591,
  "oting": 18728,
  "ĠGihinguranya": 29438,
  "Abanyarwanda": 11305,
  "ongoro": 17033,
  "ĠWay": 9305,
  "ĠRadiyo": 21850,
  "Ġmanages": 29812,
  "ĠDaily": 12286,
  "Ġang": 2975,
  "ĠFa": 12142,
  "lyn": 12141,
  "Ġ04": 10164,
  "holandi": 7103,
  "Ġiteganya": 30949,
  "Ġimyenda": 9149,
  "Ġbashoboraga": 30656,
  "ĠFlag": 21403,
  "Ġresign": 17993,
  "jwe": 971,
  "uringanire": 5434,
  "ĠTa": 8198,
  "Ġlib": 3543,
  "ĠBug": 5680,
  "ĠPolicy": 22622,
  "amutse": 15435,
  "ate": 527,
  "ĠStre": 21736,
  "hell": 20485,
  "ĠBernard": 20408,
  "outs": 21577,
  "ĠMario": 14181,
  "Ġikigega": 15109,
  "esses": 25451,
  "ĠWall": 7309,
  "Ġwis": 29516,
  "Ġrehears": 23410,
  "ĠWerurwe": 2910,
  "Ġmetric": 26790,
  "Ġitegeko": 7282,
  "Ġisland": 6039,
  "Ġwindow": 3252,
  "Ġbwagutse": 25693,
  "ukuntu": 31309,
  "ily": 805,
  "Ġtight": 12857,
  "ÓĻ": 20814,
  "Ġ1900": 12772,
  "ĠCL": 23340,
  "Ġmater": 15070,
  "Ġrecurr": 18219,
  "ĠIraki": 29870,
  "apf": 12439,
  "qu": 396,
  "Ġkal": 9690,
  "Ġzose": 3995,
  "To": 31158,
  "Ġny": 681,
  "Ġthank": 11453,
  "Ġurwo": 9092,
  "ĠCF": 16379,
  "ais": 1250,
  "ivo": 28821,
  "ĠPolonye": 26226,
  "aws": 14637,
  "Ġbivura": 29119,
  "Ġrecommand": 9601,
  "ĠHTTP": 16320,
  "jets": 20475,
  "Ġcam": 9015,
  "Ġibyago": 6802,
  "Ġnode": 18747,
  "Ġzero": 15619,
  "Ġcivile": 17395,
  "Ġyakin": 6361,
  "lar": 12406,
  "Ġyigihugu": 7979,
  "ew": 936,
  "Ġpod": 31247,
  "ingufu": 6884,
  "Ġ196": 1383,
  "Ġkaremano": 11505,
  "Ġmigano": 31957,
  "Ġufata": 22301,
  "ingamba": 13936,
  "Ġtail": 7342,
  "Ġaccommod": 17315,
  "inal": 1854,
  "Ġbool": 29735,
  "astr": 8275,
  "Ġresponse": 6070,
  "Ġbal": 7721,
  "fashanyo": 20352,
  "Ġibasha": 29641,
  "¥": 116,
  "ĠMbarara": 29416,
  "em": 366,
  "HC": 13455,
  "Ġfilter": 12158,
  "umush": 22859,
  "ugufi": 15112,
  "enues": 19209,
  "<": 45,
  "Ġestates": 29776,
  "Ġzihariye": 25662,
  "ĠBull": 12424,
  "Ġlighting": 21051,
  "Ġ1945": 8553,
  "clus": 6315,
  "ĠUbwo": 3466,
  "Ġshortly": 10827,
  "utisha": 16582,
  "Ġbrought": 4379,
  "Ġtelle": 14908,
  "ĠtÃ¢che": 31074,
  "ĠPatrick": 8645,
  "ĠTests": 23338,
  "anyarazi": 2465,
  "ĠKul": 28027,
  "Ġagents": 11962,
  "Ġmpanuka": 25509,
  "ĠrÃ©uss": 20284,
  "ea": 15954,
  "Ġreservoir": 29753,
  "Ġmirimo": 10565,
  "intwaro": 29722,
  "Ġkose": 19305,
  "ĠColombie": 19994,
  "Ã°": 19195,
  "ipol": 22080,
  "Ġnkunga": 14776,
  "syst": 30020,
  "lad": 12512,
  "Ġlost": 3472,
  "ĠLond": 2874,
  "Ġgukurikizwa": 17498,
  "uits": 9236,
  "Ġmubucuruzi": 26125,
  "ĠAlbum": 10606,
  "ĠMargaret": 21546,
  "VV": 28656,
  "Ġdetachment": 30224,
  "Ġbwawe": 31494,
  "Ġveget": 12214,
  "vi": 10711,
  "olution": 2485,
  "Ġchampion": 13740,
  "ĠFu": 26679,
  "Ġmort": 8518,
  "uming": 21635,
  "Iterambere": 19507,
  "ĠNoh": 28817,
  "ĠHockey": 15091,
  "Ġinfo": 25931,
  "Ġspecial": 2686,
  "Ġsend": 12628,
  "Ġworn": 21204,
  "amashusho": 15862,
  "Ġconsommation": 16733,
  "Ġenvironnement": 13850,
  "uger": 18718,
  "Ġpigs": 29323,
  "Ġgouver": 31536,
  "indag": 2055,
  "ĠFel": 13727,
  "Ġproclaimed": 28114,
  "igÃ©": 31296,
  "Ġpartners": 26771,
  "ceeded": 8874,
  "Ġcrayon": 31047,
  "Ġstudios": 29883,
  "rÃ©es": 26504,
  "Ġkwis": 13384,
  "ĠWid": 20235,
  "Ġabag": 3403,
  "Lily": 25284,
  "ĠInsert": 18863,
  "Ġyahoze": 7160,
  "aguruka": 26593,
  "ishim": 4513,
  "ĠWik": 20577,
  "ĠOriginal": 17622,
  "&": 23,
  "icyitegererezo": 19078,
  "Ġmucyaro": 25197,
  "Ġand": 335,
  "wed": 22808,
  "space": 20668,
  "Ġcho": 2129,
  "Ġimih": 30480,
  "ĠFilip": 25050,
  "pet": 13461,
  "ĠWas": 22929,
  "Ġseptembre": 11808,
  "ĠapprouvÃ©": 30217,
  "Ġbavugaga": 31743,
  "ü": 202,
  "Ġnyigisho": 24938,
  "ibihumbi": 15720,
  "hui": 10846,
  "Ġimpossible": 17078,
  "set": 6237,
  "stance": 14125,
  "Ġgushak": 11439,
  "ĠKwir": 26918,
  "Ġris": 2614,
  "Abafaransa": 16528,
  "Ġmerg": 14554,
  "Ġcha": 5430,
  "ĠHang": 31360,
  "ĠreprÃ©sente": 24109,
  "ĠCentury": 20680,
  "Ã©tais": 20297,
  "ĠSwitzerland": 18123,
  "ĠFan": 28081,
  "ĠLow": 22468,
  "Ġnke": 5817,
  "ĠArrow": 26787,
  "ĠServ": 5471,
  "itten": 24986,
  "Ġicyicaro": 7550,
  "Ġspoon": 21723,
  "ashinze": 14432,
  "urutse": 4885,
  "Ġacross": 4032,
  "Ġbiherereye": 13644,
  "Ġ1971": 8462,
  "ĠAll": 1928,
  "Ġlesser": 30822,
  "ibihe": 4160,
  "ĠVictor": 4443,
  "ĠAmakuru": 14439,
  "ĠBeijing": 12806,
  "Ġinteko": 14735,
  "Ġkwe": 3060,
  "artment": 5429,
  "Ġpublication": 8702,
  "Ġ1893": 21856,
  "Ġwarnings": 20114,
  "idend": 25391,
  "Ġporogaramu": 9022,
  "ĠUm": 597,
  "Ġby": 404,
  "ĠNyandungu": 30261,
  "ĠIcyegeranyo": 25034,
  "Ġvint": 26677,
  "Ġbaho": 11048,
  "ĠLiverpool": 11166,
  "Ġtogether": 2240,
  "erekanaga": 28192,
  "fast": 21172,
  "Ġepid": 27525,
  "Ġstrict": 22151,
  "ÊĶ": 18672,
  "Ġamac": 15102,
  "Ġiyob": 19982,
  "ipation": 22936,
  "emps": 17074,
  "Ġintensity": 10918,
  "Oh": 15245,
  "ÃĩÃ": 24712,
  "ĠutilisÃ©e": 29226,
  "ĠKant": 14935,
  "ĠSy": 3014,
  "Ġvol": 2699,
  "ĠCl": 1283,
  "Ġavoid": 9905,
  "Ġyard": 8104,
  "istence": 19001,
  "ĠColon": 8431,
  "ĠConn": 7839,
  "ĠÃ©crit": 18068,
  "ĠMak": 5647,
  "Ġtenu": 14831,
  "Ġressort": 25708,
  "Ġconduct": 13794,
  "Ġmarem": 11879,
  "Ġexplo": 15692,
  "Ġautobiography": 27810,
  "Ġmembers": 3508,
  "atem": 24288,
  "ĠYakiriye": 18053,
  "ĠPartie": 25639,
  "itaho": 21368,
  "Ġbafata": 16511,
  "Ġorigins": 24526,
  "Ġsmiled": 2751,
  "ĠKent": 6862,
  "ĠLewone": 16126,
  "Ġimbere": 1295,
  "ishwe": 13253,
  "Ġzirindwi": 25617,
  "cene": 30290,
  "Ġac": 628,
  "Ġtargeted": 24146,
  "ĠInk": 3121,
  "Ġgufasha": 5071,
  "rog": 6376,
  "Ġstock": 9130,
  "itary": 3628,
  "omes": 18161,
  "imbuwe": 20972,
  "Ġindiri": 28952,
  "amajyambere": 9924,
  "ĠGab": 8026,
  "Ġgit": 1600,
  "ĠIhuza": 22192,
  "Ġagat": 16429,
  "Ġwins": 18689,
  "ĠEx": 2404,
  "Ġvenue": 18740,
  "Ġmultilat": 29413,
  "angamutima": 17803,
  "Ġubuhanzi": 12548,
  "Ã©sil": 26754,
  "Ġinters": 7886,
  "Ã©r": 917,
  "ĠGrove": 26919,
  "Ġexclus": 10957,
  "ĠAssociation": 5673,
  "Ġwabaye": 7430,
  "Ġaware": 16977,
  "Ġmategeko": 7849,
  "ÏĤ": 23265,
  "Ġnzu": 5772,
  "ĠPadiri": 21282,
  "ĠMusanze": 9054,
  "Ġamong": 3580,
  "End": 31146,
  "Ġca": 2400,
  "ĠNs": 10203,
  "ĠplutÃ´t": 17407,
  "ĭ": 251,
  "Ġthirty": 14528,
  "Ġturbines": 29395,
  "zed": 17204,
  "ĠBelgium": 16312,
  "ĠPr": 1341,
  "Ã©dant": 30737,
  "inis": 31192,
  "Ġlayer": 11177,
  "ent": 354,
  "olid": 9831,
  "ĠgÃ©nÃ©ral": 6629,
  "urirwa": 6017,
  "Ġizuba": 9094,
  "ĠMatthias": 28639,
  "orage": 12862,
  "acht": 21751,
  "Ġsecure": 13864,
  "dessous": 21115,
  "ĠMinisiteri": 3651,
  "H": 57,
  "importance": 17391,
  "Ġenvironmental": 13557,
  "ĠJohann": 30689,
  "Ġplayed": 2162,
  "Ġbapfuye": 17899,
  "ĠAzerbaij": 25271,
  "ĠCranes": 30814,
  "export": 19694,
  "uites": 25630,
  "amenyekana": 17339,
  "agaho": 26067,
  "ged": 3536,
  "Ġusers": 13746,
  "Ġcarn": 29806,
  "Ġproposals": 23564,
  "Ġcalling": 9381,
  "Ġba": 925,
  "ĠDer": 14118,
  "Ġapproxim": 6898,
  "Ġmeur": 27454,
  "Ġhouses": 9537,
  "Ġnubundi": 25085,
  "Ġkwiz": 24406,
  "inzira": 11818,
  "ĠTR": 27276,
  "cuts": 26484,
  "Ubuzima": 18004,
  "Ġrush": 7432,
  "igitabo": 31891,
  "Ġamaz": 3434,
  "Ġuw": 7566,
  "imangiye": 22008,
  "Ġhu": 31257,
  "Ġarchitectural": 24669,
  "iat": 8714,
  "È": 150,
  "abirwa": 31276,
  "ĠSmy": 28006,
  "Ġquit": 19619,
  "embabuzi": 22966,
  "Ġrukora": 7202,
  "inzwe": 980,
  "impyiko": 26190,
  "ĠIkiraro": 24659,
  "Ġnourriture": 29429,
  "Ġintege": 10283,
  "Ġabagera": 17136,
  "Ġsection": 5183,
  "ĠZayire": 11301,
  "ĠChine": 18508,
  "uriya": 31306,
  "Ġshared": 8855,
  "ĠÃītat": 17569,
  "Ġtears": 23752,
  "ĠJord": 10023,
  "ĠBing": 30430,
  "Ġbyash": 7780,
  "Ġmpuz": 1167,
  "ĠIC": 10942,
  "Ġpay": 5300,
  "abagore": 2672,
  "itiÃ©": 20942,
  "ype": 5495,
  "Ġ02": 10613,
  "Ġmoder": 14310,
  "ĠdÃ©veloppement": 3807,
  "Ġbrand": 18255,
  "kurya": 26495,
  "Ġslow": 5416,
  "uzum": 21698,
  "igenamigambi": 25956,
  "Ġzir": 2844,
  "Ġibisobanuro": 9595,
  "Ġcrew": 4991,
  "Ġneither": 16028,
  "Ġcorps": 12631,
  "antle": 31378,
  "Ġfourni": 24614,
  "irise": 23776,
  "Ġpixels": 21934,
  "ols": 5938,
  "Ġmath": 23487,
  "emejwe": 26870,
  "Ġbatunzwe": 22990,
  "sy": 4943,
  "Ġnombreuses": 18073,
  "Ġrib": 7400,
  "Ishami": 25752,
  "Ġmaison": 14783,
  "Ġcanadiennes": 19774,
  "imarike": 24812,
  "nd": 4276,
  "ibutsa": 14018,
  "Ġkurema": 28958,
  "reek": 4537,
  "Aut": 24744,
  "ĠMP": 14746,
  "Ġbinyuranye": 15071,
  "ĠWant": 21299,
  "av": 431,
  "izewe": 19025,
  "igarag": 8528,
  "omeretsa": 28466,
  "ain": 487,
  "imbitse": 14148,
  "Ġob": 1382,
  "Ġupr": 24309,
  "ĠDes": 4764,
  "ĠTimes": 5461,
  "so": 686,
  "ayij": 18193,
  "ĠWal": 6434,
  "Ġnini": 4059,
  "Ġpremiere": 14180,
  "Ġmakipe": 11402,
  "Ġ2006": 2078,
  "Ġbyiganjemo": 28590,
  "opsis": 31851,
  "ererwa": 17897,
  "Ġbyihariye": 17693,
  "Ġpartner": 11043,
  "Ġups": 24956,
  "Ġ1909": 16692,
  "Ġkimeza": 18696,
  "ĠnÃ©cess": 5658,
  "wanye": 14903,
  "ario": 7187,
  "Ġbackyard": 17089,
  "ongeraho": 13037,
  "ĠMarquette": 30654,
  "uhinzi": 1695,
  "amenyekanye": 6649,
  "ikiribwa": 31863,
  "Ġparad": 25483,
  "ĠCambod": 27289,
  "Ġgifasha": 17574,
  "Ġdep": 2155,
  "FI": 14224,
  "Ġapple": 20976,
  "enamigambi": 9602,
  "ĠDod": 15095,
  "Ġbakar": 27435,
  "Ġukizana": 27415,
  "Ġpoorly": 17382,
  "ikig": 7533,
  "Ġmarched": 20643,
  "Hg": 25282,
  "Ġpharm": 22222,
  "Ġwasn": 11649,
  "Ġnimug": 22325,
  "Ġtravels": 18277,
  "Ġbyingenzi": 14580,
  "ĠFilimi": 22605,
  "Ġyawo": 17464,
  "yem": 20518,
  "ĠSatur": 14569,
  "ront": 15251,
  "Ġnkoranya": 15645,
  "ĠGordon": 14889,
  "ĠTown": 5812,
  "ifuzwa": 27359,
  "Ġperiodic": 30836,
  "ĠIM": 10193,
  "ĠMail": 17461,
  "Ġkunshuro": 31884,
  "Ġah": 864,
  "omi": 27256,
  "entissage": 24830,
  "LS": 31149,
  "Ġbirashobora": 6227,
  "ĠAw": 26584,
  "Ġcaught": 9273,
  "ĠDyl": 24879,
  "ĠMumba": 25369,
  "Ġbib": 1687,
  "aping": 20581,
  "Ġkwirwanaho": 28388,
  "Ã©rieures": 18842,
  "uru": 438,
  "Ġstreet": 9953,
  "Ġballoons": 31771,
  "ĠprÃ¨s": 12560,
  "ĠEnc": 10428,
  "herereye": 3871,
  "Ġepit": 26195,
  "ĠCBS": 28797,
  "Ġpersistent": 30683,
  "Ġresulted": 8758,
  "hology": 13666,
  "Ġafata": 17287,
  "ĠdÃ©tention": 27060,
  "Ġmeantime": 31963,
  "Ġir": 1035,
  "ĠÃ©g": 3848,
  "Ġtram": 30554,
  "iman": 18162,
  "Ġahitwa": 8746,
  "ĠKit": 8731,
  "Ġbyatanze": 27600,
  "urishwa": 11428,
  "Ġdeveloper": 19708,
  "Ġbiga": 14604,
  "Ġ%.": 12241,
  "ĠÂ±": 31612,
  "Ġguilty": 20991,
  "Im": 4012,
  "cod": 28659,
  "Ġrepubl": 25599,
  "Ġguk": 671,
  "Ġnote": 6824,
  "Ġuniquement": 22491,
  "untu": 1374,
  "ĠCrit": 10403,
  "ĠSports": 6880,
  "yemezo": 4240,
  "Ġrendu": 26341,
  "Ġarticle": 9218,
  "ĠCOMESA": 22342,
  "Ġumudugudu": 20698,
  "Ġdis": 845,
  "ĠOrt": 23536,
  "ĠComb": 16593,
  "Ġwenyine": 11540,
  "Ġpaths": 23632,
  "anyuze": 11472,
  "ukanwa": 12640,
  "Ġorganized": 10526,
  "Ġshift": 16032,
  "Ġmbere": 783,
  "Ġmanaged": 7922,
  "Ġyibanda": 10752,
  "Ġsticks": 24657,
  "anseri": 5140,
  "Ġrepl": 2623,
  "Ġrimwe": 2123,
  "Ġmucyo": 28750,
  "ital": 2257,
  "witse": 16347,
  "Ġ2020": 2234,
  "illing": 16622,
  "aste": 8660,
  "inkunga": 16871,
  "Ġkeys": 11696,
  "Ġgutyo": 22964,
  "ikorana": 29709,
  "Ġsouthern": 5691,
  "ĠRhodesia": 23218,
  "Ġkwihuta": 29990,
  "ĠSof": 29039,
  "ĠBerg": 14414,
  "sea": 10791,
  "akaza": 5305,
  "ĠMulti": 31025,
  "Ġline": 2539,
  "Ġcrossing": 10538,
  "Ġibyishimo": 29878,
  "ĠvisÃ©e": 28349,
  "Ġwidget": 19746,
  "Ġreass": 27375,
  "Ġcyijimye": 29632,
  "ijyanye": 1903,
  "ĠdÃ©m": 8906,
  "Ġtransit": 26843,
  "Ġpizza": 29534,
  "Ġsemi": 12390,
  "ĠJimmy": 10236,
  "usho": 1235,
  "Ġinstitutions": 9167,
  "ĠDrive": 16890,
  "ĠconsÃ©qu": 11051,
  "agers": 12875,
  "Ġzigize": 20321,
  "Ġfifty": 19127,
  "ĠQ": 1444,
  "Ġhect": 19612,
  "Ġdissip": 16124,
  "ĠProf": 8463,
  "ĠYoung": 7238,
  "alt": 3664,
  "ĠVer": 5279,
  "Ġkwih": 4313,
  "ĠCatholic": 12002,
  "Ġlinked": 16299,
  "ĠEveryone": 11603,
  "enateri": 27930,
  "Ġntiy": 12233,
  "Ġvan": 6555,
  "ifiant": 26035,
  "Ut": 27180,
  "Ġculture": 7490,
  "Ubushakashatsi": 29793,
  "Ġpopul": 19079,
  "atri": 18419,
  "ĠCharl": 7815,
  "ĠRSS": 31010,
  "Ġbanyeshuri": 25310,
  "Ġpolit": 1689,
  "Ġinsc": 13040,
  "Ġubwiyongere": 14003,
  "Ġshall": 9038,
  "ĠRadio": 4612,
  "Ġunderneath": 30711,
  "ĠMama": 12125,
  "Ġ2018": 2025,
  "Ġ61": 11767,
  "ĠHitler": 12505,
  "Ġmaster": 8958,
  "Ġuruhushya": 11781,
  "Ġamasosiyete": 24025,
  "Ù": 167,
  "Ġmuyoboro": 18943,
  "epfo": 2780,
  "ĠÏ": 16161,
  "Ġimpuzandengo": 18782,
  "Ġbukunze": 22588,
  "acles": 14419,
  "ungira": 15628,
  "ibitekerezo": 15602,
  "Ġrecl": 21738,
  "Ġnyuguti": 12784,
  "ogwe": 15114,
  "iyumu": 9902,
  "Ġbindi": 7646,
  "cer": 15561,
  "by": 1842,
  "ĠexÃ©c": 23913,
  "Ġknocked": 21137,
  "ĠAmendment": 24205,
  "ĠImpera": 13885,
  "Ġballoon": 15702,
  "Ġflooded": 27039,
  "ĠTod": 7835,
  "Ġyohereza": 31423,
  "Ġprogress": 6388,
  "Ġinto": 1073,
  "Ġ1989": 4882,
  "ezo": 3357,
  "ĠIfoto": 26259,
  "ists": 2260,
  "ĠTemple": 16372,
  "Ġentitled": 17304,
  "ĠSoul": 21782,
  "abat": 4648,
  "ĠJune": 2583,
  "Ġimijyi": 12547,
  "ongerewe": 20237,
  "abayeho": 9460,
  "Albert": 30992,
  "ĠFront": 12915,
  "Ġprepared": 13669,
  "Ġsuspic": 31919,
  "ĠUmuyoboro": 17615,
  "Ġkintu": 11636,
  "ĠGi": 10340,
  "ĠZambia": 30028,
  "Ġlesson": 11069,
  "Ġadafite": 24959,
  "Ġfen": 31253,
  "never": 20938,
  "Ġphysique": 24705,
  "Ġbwakorewe": 27075,
  "ĠBr": 1360,
  "ritÃ©": 17740,
  "Ġopens": 19670,
  "airs": 5282,
  "ubwubatsi": 11140,
  "Ġyatang": 30638,
  "Ġbarag": 21594,
  "ĠTeta": 17675,
  "ĠcatÃ©g": 17117,
  "Ġikozwe": 23782,
  "Ġyimyaka": 8315,
  "enseign": 6443,
  "ny": 3514,
  "ĠVous": 8028,
  "quet": 22463,
  "fund": 21964,
  "inÃ©a": 21121,
  "Ġfairly": 26361,
  "ĠShah": 25002,
  "Ġgri": 22003,
  "argent": 19435,
  "igwa": 9701,
  "ĠBinagwaho": 22306,
  "Ġarengera": 26064,
  "arirwa": 9242,
  "ĠSan": 3965,
  "ocr": 4364,
  "ĠSystem": 9931,
  "Ġresponsible": 9329,
  "Ġihuriro": 7292,
  "eals": 20471,
  "Ġrwa": 1007,
  "imiryango": 6900,
  "âĢĻ.": 15586,
  "inde": 3290,
  "Ġht": 25932,
  "ĠHib": 31361,
  "ĠTree": 25373,
  "Ġamakipe": 11327,
  "ĠJeff": 8464,
  "Ġgitaramo": 16667,
  "ivate": 16388,
  "ĠDiffer": 28073,
  "Ġnitrogen": 31038,
  "ĠIteka": 28770,
  "ĠArabs": 31918,
  "issors": 24433,
  "Ġdemolished": 19703,
  "ĠGiant": 18732,
  "ĠChristianity": 23623,
  "Ġgukinira": 6149,
  "Ġvaste": 27333,
  "ugurura": 5602,
  "Ġsupplies": 12284,
  "ĠKwandika": 14704,
  "resse": 13979,
  "ateurs": 4973,
  "older": 17689,
  "to": 1742,
  "Ġcolonists": 30938,
  "ĠBus": 4311,
  "Igihugu": 4307,
  "Ġgather": 11440,
  "Ġsolo": 11231,
  "ĠintitulÃ©e": 29382,
  "ĠExped": 26903,
  "iraho": 2183,
  "Ġunsuccessfully": 27785,
  "Office": 17417,
  "Ġpictures": 12605,
  "ĠMbon": 21641,
  "Ġpension": 17664,
  "unj": 15276,
  "Ġinterf": 31566,
  "Ġwafashwe": 29670,
  "asiye": 10135,
  "ĠStage": 26765,
  "ĠNili": 9297,
  "liament": 6882,
  "yakora": 5543,
  "ĠStockholm": 25781,
  "Ġkindi": 17446,
  "ayisumbuye": 15296,
  "Ġmaintenant": 10998,
  "mg": 25294,
  "ĠExp": 19093,
  "qa": 25296,
  "irth": 25915,
  "Ġimport": 2048,
  "Ġcub": 14084,
  "Ġdemons": 28292,
  "ĠUbug": 18767,
  "antly": 12880,
  "Ġsoon": 3559,
  "ĠBuzima": 19248,
  "ury": 768,
  "Ġaccusations": 27805,
  "Agence": 16945,
  "Ġwrong": 9161,
  "Ġmusore": 21791,
  "asse": 8769,
  "Ġduke": 24798,
  "Ġkugabanuka": 9841,
  "Ġgushy": 2011,
  "Ġgrand": 3582,
  "ĠâĢĿ": 11202,
  "Ġmonthly": 27582,
  "Ġikurura": 31442,
  "angije": 2419,
  "Ġstructural": 21860,
  "ongayire": 26032,
  "Ġisn": 18473,
  "pl": 594,
  "ĠJob": 28870,
  "ius": 7113,
  "Ġfif": 4958,
  "ĠCommun": 5286,
  "ĠVo": 10416,
  "ĠBrown": 5595,
  "ä": 178,
  "Ġuburibwe": 27347,
  "Ġcyerekana": 15093,
  "Ġmuto": 4050,
  "ozi": 1771,
  "Ġbyab": 5266,
  "Ġrwatangiye": 19027,
  "Ġ1951": 11497,
  "onetse": 6809,
  "Ġbiteganyijwe": 19807,
  "ĠLuxem": 19496,
  "ĠMaleziya": 28592,
  "ĠDead": 17320,
  "Ġubus": 2790,
  "Ġcyumukinnyi": 20221,
  "Ġsho": 886,
  "Ġreviewer": 19105,
  "Ġrestored": 13166,
  "iye": 524,
  "ĠMel": 6374,
  "pit": 27191,
  "vine": 26508,
  "Ġbahinzi": 19075,
  "odes": 5506,
  "icyuma": 20315,
  "lington": 21177,
  "Ġbishingiye": 11722,
  "ĠAthens": 23023,
  "ľ": 268,
  "abenegihugu": 17456,
  "Ġzish": 22912,
  "Ġuncom": 22489,
  "ends": 6002,
  "Ġpubliques": 19977,
  "ĠAlc": 26770,
  "anyagihe": 30197,
  "Ġheav": 8413,
  "ex": 1279,
  "ethe": 24814,
  "Ġruh": 2645,
  "Ġyats": 2201,
  "Ġtowards": 4675,
  "ĠIbikurikira": 19438,
  "ubahirizwa": 23124,
  "autoritÃ©": 24189,
  "Ġyayize": 22024,
  "ugudu": 4168,
  "rooms": 22447,
  "Ġingana": 11670,
  "Ġranked": 8661,
  "Ġimbaraga": 3836,
  "ented": 15446,
  "Ġtells": 8763,
  "Ġcomed": 18200,
  "imukiye": 15271,
  "Ġceremonies": 26432,
  "Ġpict": 5997,
  "ĠPed": 15294,
  "Ġuh": 2071,
  "ĠKongo": 2370,
  "ĠAzer": 19564,
  "Ġyifuza": 22852,
  "Ġrice": 24800,
  "Ġ1950": 6597,
  "eline": 11940,
  "Ġbyat": 3243,
  "ĠAgnes": 21401,
  "Ġhak": 2158,
  "Ġdiv": 2379,
  "anas": 23750,
  "ĠMine": 25368,
  "Ġkwisiga": 28568,
  "ĠBrit": 1789,
  "ę": 231,
  "urred": 24512,
  "Ġanalyses": 28533,
  "ĠBols": 27291,
  "arike": 16765,
  "ĠSolomon": 21480,
  "Ġaugmenter": 31996,
  "ĠDivuwari": 16905,
  "ĠWalter": 10760,
  "aining": 2218,
  "Ġgoals": 7138,
  "Ġbaturage": 5464,
  "Ġkwi": 15639,
  "Ġfront": 3856,
  "Ġconfusion": 18291,
  "Ġimyidagaduro": 13284,
  "ency": 3922,
  "Ġumukozi": 15459,
  "iyeme": 3435,
  "Ġcourse": 5532,
  "Ġher": 615,
  "Ġumuvugizi": 24362,
  "Ġreasons": 12889,
  "Ġyazamuwe": 25241,
  "Ġbabikora": 29062,
  "ĠMetacritic": 27148,
  "Ġkonqueror": 16721,
  "Ġtune": 18675,
  "Ġnderabuzima": 14705,
  "ĠCome": 16592,
  "ĠLeader": 18234,
  "Ġreconnaissance": 13803,
  "Ġsweep": 25702,
  "ĠMrs": 16929,
  "Ġdeposits": 29365,
  "ĠSilva": 22269,
  "ipimo": 3123,
  "amashyaka": 27533,
  "umunyamuryango": 17369,
  "Ġpromised": 13048,
  "Ubuholandi": 21518,
  "Ġchef": 15516,
  "Ġmudugudu": 11329,
  "atsi": 1146,
  "Ġapplications": 15369,
  "Ġcyibanze": 30479,
  "ĠFriedrich": 24199,
  "ĠfondÃ©e": 28430,
  "ĠMort": 16590,
  "Ġyimukiye": 7675,
  "ungubu": 30524,
  "Ġupper": 8331,
  "Ġingamba": 5415,
  "ĠPick": 18470,
  "Ġmito": 16759,
  "uteurs": 23479,
  "hend": 10964,
  "Ġpetites": 25133,
  "ĠNzeyimana": 31349,
  "Ġgiteganijwe": 29850,
  "izihizwa": 25188,
  "Ġing": 878,
  "âĢ¦": 15980,
  "iyemeza": 16693,
  "Ġloaded": 26803,
  "Ġtakes": 6397,
  "Ġbyagaragaye": 10120,
  "ibi": 3020,
  "Ġhave": 825,
  "ĠJesus": 13670,
  "enesis": 20724,
  "yaranye": 25521,
  "Ã¨vement": 23440,
  "itike": 10251,
  "ĠSk": 6610,
  "Ġintelligence": 15230,
  "aces": 3777,
  "ĠKla": 23836,
  "Ġtruth": 13963,
  "odie": 31445,
  "orms": 18222,
  "Ġdefenses": 25025,
  "ĠGav": 21278,
  "ĠNI": 7308,
  "ĠRayon": 11521,
  "angajwe": 9837,
  "iale": 6176,
  "ĠNdangamurage": 19400,
  "ĠLuc": 4206,
  "Ġ'\"": 31400,
  "Ġbakiri": 9844,
  "ururu": 12979,
  "ĠTheir": 8110,
  "Ġkagoma": 25163,
  "Ġishyirahamwe": 10454,
  "Ġcultiv": 21055,
  "Ġemb": 5129,
  "Ġplanification": 19391,
  "30": 3948,
  "Ġhariho": 12688,
  "ishozi": 30790,
  "amahirwe": 19123,
  "ikiye": 18713,
  "imm": 12526,
  "phone": 13762,
  "Ġdeath": 3341,
  "list": 13092,
  "rich": 8823,
  "ĠBimwe": 13475,
  "ment": 680,
  "Ġyazam": 16804,
  "Ġrece": 2079,
  "ĠCarr": 19581,
  "Ġtraitements": 27687,
  "Ġprisoners": 14868,
  "Ġarmor": 20026,
  "ĠBurezile": 25802,
  "ĠRoyal": 4585,
  "Ġdog": 3066,
  "~": 111,
  "Ġphil": 9865,
  "Ġimpano": 9447,
  "Ġibibaya": 28075,
  "ONU": 18312,
  "ĠKerr": 27301,
  "ĠSwe": 17676,
  "ĠvÃ©rification": 17609,
  "Ġaddition": 3000,
  "ĠBea": 19996,
  "ĠSchol": 23492,
  "Ġinfection": 20031,
  "ĠNewton": 20646,
  "Ġurged": 24441,
  "Ġproc": 4848,
  "ĠGitega": 28569,
  "ken": 4843,
  "issaire": 22533,
  "inzi": 1261,
  "ov": 643,
  "evin": 10971,
  "Ġhabamo": 27609,
  "Ġtasty": 21587,
  "Ġkamaro": 29524,
  "ĠAirport": 14340,
  "etswe": 19691,
  "Ġpenet": 27666,
  "mo": 1224,
  "Ġbikoze": 26524,
  "ĠAkagera": 16662,
  "otting": 27568,
  "Ġakunze": 22958,
  "ĠlibertÃ©": 18651,
  "ical": 884,
  "Ġrenewed": 24215,
  "Ġibitanda": 31723,
  "ĠMing": 23330,
  "Ġsunny": 19113,
  "ĠUmubare": 4975,
  "Ġsettled": 16278,
  "Ġmajwi": 24486,
  "ĠLivingstone": 25236,
  "Ġikorwa": 10412,
  "assium": 21926,
  "gaho": 28197,
  "ategura": 19379,
  "Ġsecurity": 10972,
  "Ġigifaransa": 17970,
  "Ġobsc": 23494,
  "Ġcompete": 17997,
  "nament": 14391,
  "Ġashaje": 28084,
  "borough": 21571,
  "Ġresolve": 30608,
  "ĠIbikoresho": 21336,
  "umup": 24825,
  "ĠBowl": 18097,
  "uels": 11248,
  "Ġdestroying": 21545,
  "Ġdread": 23778,
  "Ġfera": 31254,
  "ishyurwa": 19369,
  "sky": 16558,
  "unganya": 3040,
  "uvern": 3868,
  "ĠconfÃ©rences": 24708,
  "û": 201,
  "iranya": 7119,
  "Ġpurp": 8178,
  "iranye": 9016,
  "Ġbamwe": 4550,
  "Ġmillimetres": 31688,
  "Ġbarashobora": 12351,
  "ĠrÃ©seaux": 18103,
  "Art": 21883,
  "ĠJennifer": 23671,
  "Ġresemb": 24963,
  "ĠMost": 6956,
  "ente": 4363,
  "ĠItalian": 8162,
  "Ġadvoc": 31782,
  "abaya": 29698,
  "ĠNyuma": 1762,
  "eleased": 23135,
  "Ġtransition": 11220,
  "yak": 1515,
  "Ġikinamico": 5830,
  "Ġkubakwa": 13441,
  "Ġbukabije": 8380,
  "ys": 1880,
  "Ġkutagira": 21070,
  "ĠKon": 10078,
  "Ġ": 238,
  "ropol": 12589,
  "imvura": 4773,
  "½": 139,
  "Ġfriends": 2077,
  "Ġyap": 9564,
  "Ġok": 20842,
  "Ġgusenga": 28184,
  "Ġplaces": 8414,
  "Ġadvised": 18812,
  "are": 565,
  "uvais": 20948,
  "Ġyaho": 6432,
  "ĠIsra": 8797,
  "OS": 10709,
  "Ġprefix": 29817,
  "Ġuncon": 26721,
  "ugamba": 28780,
  "ĠToute": 14483,
  "UN": 5859,
  "ĠMcK": 13176,
  "ĠMali": 9025,
  "unce": 16999,
  "Ġcollaborated": 27028,
  "Ġicyamamare": 21347,
  "Ã©l": 1845,
  "%)": 16334,
  "ĠMoscou": 23686,
  "ĠGicumbi": 8595,
  "Ġexterior": 29411,
  "ĠKwinjira": 29931,
  "ĠKÃ©rÃ©": 19258,
  "Ġguhuzwa": 25504,
  "Ġinternationally": 26403,
  "ered": 1405,
  "anj": 1690,
  "ĠRaw": 17473,
  "Ġ21": 2072,
  "ĠCat": 5649,
  "Ġisukari": 12324,
  "Ġagre": 8373,
  "Ġigezweho": 15811,
  "ĠZimbabwe": 5124,
  "etsa": 8635,
  "oned": 7940,
  "imbabwe": 4905,
  "urenganzira": 1501,
  "Ġibir": 2779,
  "Ġplatforms": 18869,
  "ĠDCOP": 21670,
  "ĠPengu": 27323,
  "abaf": 9502,
  "Ġownership": 21901,
  "impact": 26189,
  "Ġfille": 22971,
  "araz": 29683,
  "ĠGw": 22901,
  "Ġdue": 2820,
  "ĠYarushanwe": 16121,
  "Ġmem": 5444,
  "Ġdisplaced": 25199,
  "Ġgikoreshwa": 18944,
  "Ġcontamin": 19654,
  "entiel": 12992,
  "iders": 15604,
  "ĠFame": 14428,
  "erez": 1909,
  "Ġmugoroba": 30662,
  "Ġsuffered": 8351,
  "ĠAba": 5866,
  "ĠPrint": 14803,
  "ĠBusch": 24599,
  "Ã¨nes": 26086,
  "Ġdiamond": 28733,
  "oire": 5659,
  "Ġcapabilities": 26180,
  "issons": 21739,
  "Ġgushaka": 4940,
  "DRC": 11423,
  "Ġimportantes": 19727,
  "urishije": 26526,
  "Ġchances": 23433,
  "ĠMTV": 12534,
  "Ġfix": 5131,
  "yal": 2721,
  "ĠAko": 25946,
  "ushushondanga": 22085,
  "ĠcoÃ»ts": 13908,
  "Pro": 15952,
  "ifi": 6455,
  "Ġizaba": 16046,
  "comm": 20469,
  "Ġbanned": 18414,
  "ĠUbuyapani": 26960,
  "Ġspok": 14779,
  "Ġillustr": 11154,
  "ĠAn": 764,
  "Ġcancer": 13439,
  "ĠMoz": 7931,
  "ikino": 1244,
  "ingiro": 7568,
  "ed": 302,
  "Ġdiverses": 19458,
  "Ġfig": 4219,
  "ĠAG": 25944,
  "intebe": 9536,
  "Ġdiving": 31752,
  "ĠOut": 6060,
  "ĠKingdom": 5254,
  "Ġ220": 17470,
  "Ġtemps": 6156,
  "angizwa": 12752,
  "Ġmazina": 18217,
  "Ġprepar": 15848,
  "ecr": 10077,
  "Ġbook": 2179,
  "ji": 6165,
  "ĠCard": 10652,
  "Ã©t": 1202,
  "Ġrejected": 12333,
  "Ġsnacks": 30857,
  "Ġignore": 30980,
  "ý": 203,
  "Ġbald": 27926,
  "Ġlessons": 26932,
  "ĠLeeds": 20625,
  "ubujyanama": 28783,
  "ubutwari": 24056,
  "ĠBill": 4395,
  "Ġparl": 28160,
  "Ġtitulaires": 31742,
  "ivalent": 11227,
  "Ġhagas": 30630,
  "Ġgusimbuka": 13622,
  "Ġspeaking": 16499,
  "lob": 24248,
  "ĠWales": 7810,
  "arth": 17212,
  "Ġindagi": 23942,
  "ĠAmsterdam": 17983,
  "ance": 758,
  "ĠTanzaniya": 3257,
  "ĠQue": 4559,
  "Ġgraceful": 31065,
  "UV": 22371,
  "Ġepisode": 2027,
  "iza": 830,
  "aint": 2589,
  "irl": 1392,
  "ĠForce": 5926,
  "ĠWMA": 31413,
  "Ġdiscrimination": 13801,
  "Ġisuku": 9356,
  "eka": 7011,
  "Ġaqu": 15762,
  "Ġprovinces": 16531,
  "ĠIkibazo": 14968,
  "Ġbundi": 21595,
  "Ġ1965": 8426,
  "ĠOn": 892,
  "Ġcharge": 8036,
  "athan": 11883,
  "ulation": 2469,
  "DS": 25853,
  "Ġrooms": 14839,
  "Ġmond": 7157,
  "wered": 25877,
  "Ġconstr": 17490,
  "Ġclairement": 20267,
  "Ġpolic": 11575,
  "ĠcomprÃ©hens": 28409,
  "zu": 1898,
  "Ġprinting": 19771,
  "Ġinitially": 6157,
  "ollow": 1325,
  "yaka": 818,
  "Ġfaces": 16902,
  "Ġnta": 2351,
  "Ġbuboneka": 26969,
  "imisemburo": 27739,
  "ĠNicole": 22357,
  "Ġenemy": 9503,
  "Ġyafatwaga": 26981,
  "Ġmuziki": 12714,
  "Ġeverywhere": 13648,
  "umutoza": 13940,
  "33": 10318,
  "iburyo": 19254,
  "erait": 11558,
  "inari": 11087,
  "ubako": 4650,
  "Ġsait": 24934,
  "Ġconvain": 24579,
  "oker": 14135,
  "ĠGaye": 31370,
  "Ġguca": 10171,
  "Ġwarn": 15684,
  "ĠDean": 16668,
  "ename": 15260,
  "Ġrate": 8770,
  "Ġcomposed": 8344,
  "Ġparler": 17730,
  "Ġbintu": 7467,
  "ĠdÃ©mocr": 15042,
  "Epfo": 3404,
  "ĠPaste": 20218,
  "ĠGI": 20213,
  "umud": 17925,
  "Ġbwerekanye": 15315,
  "red": 2487,
  "ĠSingapore": 10385,
  "Ġindabo": 23941,
  "Ġtekin": 6515,
  "Ġnubushakashatsi": 31776,
  "Ġmachines": 23161,
  "Ġhier": 19876,
  "Ġpenser": 27085,
  "ĠIgenzura": 18781,
  "og": 596,
  "ĠMean": 10453,
  "ĠrÃ©glementation": 18646,
  "Ġmibonano": 17433,
  "Ġconstat": 22702,
  "Ġdied": 4204,
  "uc": 432,
  "Ġbyinshi": 1611,
  "uste": 19558,
  "Ġslower": 29859,
  "ÃŁ": 23748,
  "ĠWeekly": 15742,
  "ĠPologne": 27324,
  "re": 372,
  "ĠBert": 22030,
  "Ġmeans": 7748,
  "ĠEP": 16403,
  "Ġcast": 3537,
  "ĠWake": 23398,
  "Ġsquare": 7524,
  "icted": 6644,
  "ĠsÃ©ance": 24153,
  "Ġcartoon": 23165,
  "ĠCaroline": 29253,
  "Ġtime": 835,
  "Ġaba": 2180,
  "Ġboring": 20490,
  "Ġtorpedo": 9475,
  "Ġbusy": 15508,
  "ĠFais": 30495,
  "abami": 28769,
  "Ġservice": 3075,
  "ĠspÃ©cifiques": 20716,
  "Ġnc": 31212,
  "Ġmobile": 13665,
  "ĠAmanota": 31482,
  "Ġregards": 26167,
  "ubutumburuke": 28389,
  "ĠLut": 15088,
  "Ġcyumba": 27325,
  "ĠPOP": 27712,
  "obanutse": 13511,
  "Ġà¦": 29259,
  "enya": 1474,
  "Ġappreci": 21900,
  "ungugu": 12216,
  "Ġubukene": 11786,
  "ĠStan": 7782,
  "Ġrecapt": 31516,
  "Ġbasuye": 27466,
  "ereranyo": 9158,
  "Ġbakagira": 31556,
  "Ġadministered": 30250,
  "ĠInitially": 18639,
  "idus": 29596,
  "ĠpÃ©trole": 31095,
  "ĠAir": 3238,
  "Ġbyahoze": 26090,
  "Ġgutunganya": 5280,
  "Ġbishop": 26172,
  "Ġbwite": 9197,
  "Ġfull": 3678,
  "unzwe": 4125,
  "Ġimyitozo": 10363,
  "Ġord": 5492,
  "Ġnubuzima": 26243,
  "Ġizamu": 28214,
  "Ġyarangirije": 25826,
  "Ġencoder": 29949,
  "Ġhaje": 26282,
  "Ġsomeone": 8694,
  "Ġmumajyepfo": 23221,
  "Ġuwa": 5465,
  "Ã´les": 31726,
  "ess": 511,
  "ĠSometimes": 20433,
  "Ġusually": 6712,
  "Ġfest": 25339,
  "arto": 23417,
  "ĠImbo": 24962,
  "wand": 2143,
  "Ġseriv": 2536,
  "ully": 6613,
  "ĠDud": 28070,
  "ĠUkw": 11062,
  "usanyije": 21628,
  "ogera": 28904,
  "ĠManor": 26249,
  "ĠPo": 5815,
  "Ã¥": 13918,
  "ĠUretse": 11387,
  "itement": 20162,
  "irije": 3481,
  "Ġyears": 1728,
  "Ġbuzima": 4069,
  "Ġcompte": 6260,
  "urika": 738,
  "ĠNoneho": 24714,
  "Ġadministrative": 16708,
  "Ġavons": 7478,
  "<|lang_en|>": 8,
  "ĠTurner": 17177,
  "Ġkiz": 4471,
  "à¦": 11426,
  "ikora": 4142,
  "Ġitunganya": 25428,
  "ege": 937,
  "yirahamwe": 6785,
  "Ġcommentary": 24590,
  "u": 102,
  "Ġwife": 5501,
  "Ġpump": 21999,
  "Ġbitangiza": 30579,
  "ifuza": 9251,
  "ĠImmedi": 30606,
  "Ġbinyam": 30727,
  "Ġloading": 15838,
  "arya": 21599,
  "Ġsing": 1749,
  "iyani": 6223,
  "Ġsteep": 20228,
  "ubiye": 3083,
  "abakuru": 27983,
  "iro": 592,
  "Ġplumage": 22361,
  "uge": 4072,
  "Â²": 11009,
  "Ġparallels": 29318,
  "iyongere": 7554,
  "zana": 13095,
  "Ġmotiv": 18056,
  "isters": 10855,
  "ĠTogether": 16374,
  "ĠPeters": 19780,
  "Ġbihagije": 11314,
  "Ġyi": 5319,
  "Ġirindwi": 14621,
  "Ġkujugunya": 29612,
  "Ġyiy": 16789,
  "Ġviewed": 11510,
  "Ġants": 24261,
  "Ġamash": 1154,
  "Ġyarag": 16581,
  "Ġhello": 21940,
  "ĠProm": 14115,
  "Ġfunctions": 15979,
  "ĠOver": 6618,
  "itanu": 22829,
  "ĠMap": 19238,
  "Ġpes": 22843,
  "Ġburiho": 31647,
  "ĠreprÃ©sentants": 14678,
  "ĠAmazone": 24120,
  "Ġrole": 3475,
  "Ġfrequ": 6803,
  "Ġacid": 11476,
  "Ġbanana": 27001,
  "DL": 21958,
  "etum": 27258,
  "ĠMuslims": 27773,
  "Ġyemerewe": 20740,
  "Ġuruganda": 4781,
  "alions": 23309,
  "Ġyet": 6982,
  "Ġrendez": 25334,
  "Ġkmyap": 31708,
  "Ġsuff": 11933,
  "Ġzihagije": 24087,
  "Ġboilers": 22531,
  "Äĥ": 15758,
  "uju": 19341,
  "BA": 3427,
  "wad": 27972,
  "Ġ1892": 25644,
  "ambara": 2884,
  "iteza": 14277,
  "Ġengineer": 20049,
  "umaga": 16368,
  "ĠIndi": 23500,
  "ĠEmmy": 18805,
  "Ġibishyimbo": 17251,
  "Ġzisa": 26250,
  "Ġsky": 5578,
  "ĠrÃ¨gles": 14699,
  "ĠIzo": 19561,
  "ĠSerb": 11789,
  "ĠBi": 8933,
  "Ġmuguh": 18006,
  "uls": 9894,
  "ĠYar": 6129,
  "shaw": 28096,
  "Ġndetse": 744,
  "ĠOber": 22927,
  "ĠByumba": 23042,
  "Ġcongo": 4410,
  "Ġisolated": 16732,
  "ĠGulf": 12138,
  "dire": 25861,
  "Ġahag": 6023,
  "ĠSingle": 21455,
  "Ġspring": 10094,
  "ĠÂ£": 7065,
  "Ġkitchen": 7966,
  "old": 1133,
  "Ġbound": 9964,
  "Ġstaying": 29993,
  "Ġindic": 4579,
  "Ġscreen": 4976,
  "Ġbright": 8001,
  "Ġcreature": 18074,
  "Ġabashoramari": 23217,
  "Ġwindows": 9105,
  "umburuke": 8075,
  "Ġyabaye": 2278,
  "Ġnizo": 17036,
  "Ġdozen": 25516,
  "uruk": 2035,
  "Ġos": 23790,
  "ĠYears": 28123,
  "÷": 197,
  "Ġofficials": 10693,
  "Ġmunicipal": 17183,
  "Ġbwag": 5455,
  "urane": 13230,
  "Ġidirishya": 31695,
  "ĠGut": 3383,
  "Ġtrouvent": 25031,
  "Ġcharacterized": 20008,
  "Ġ\\\\": 30922,
  "Ġbutatu": 24416,
  "Ġnyirasenge": 30918,
  "Ġgukin": 29725,
  "orum": 20498,
  "ĠHus": 28047,
  "ĠFrederick": 15744,
  "ĠDISI": 27329,
  "ĠBrooke": 26899,
  "Ġ2007": 1924,
  "les": 903,
  "Ġyasobanuwe": 31741,
  "\":": 22790,
  "Ġkwitwa": 14133,
  "ĠBure": 7279,
  "Ġiyicarubozo": 31125,
  "ĠSev": 11548,
  "isuzuma": 24297,
  "umugore": 3823,
  "arurisham": 16950,
  "ĠArc": 24985,
  "Ġcanceled": 22279,
  "imber": 12164,
  "ufaransa": 3374,
  "Ġkinyejana": 4918,
  "Ġngarukamwaka": 17412,
  "Ġuranium": 27425,
  "Ģ": 240,
  "angamo": 12024,
  "fata": 19515,
  "ĠMc": 2385,
  "zegovina": 21443,
  "aka": 656,
  "mation": 15415,
  "Ġ1000": 13114,
  "ariza": 12664,
  "Ġhears": 20580,
  "Ġcategories": 18100,
  "ĠNyamirambo": 20344,
  "Ġcyambere": 18090,
  "ivan": 17012,
  "usalem": 20774,
  "Ġdrunk": 31631,
  "wanaho": 23120,
  "Ġcand": 4660,
  "ĠGeneric": 25634,
  "ĠAfghan": 18769,
  "Ġacknowledged": 19495,
  "43": 15949,
  "Ġkumasoko": 29407,
  "amakuru": 12302,
  "Ġleaving": 6847,
  "ĠGutema": 17809,
  "Ġentier": 29792,
  "ĠPic": 18469,
  "UT": 13811,
  "Ġdecides": 19050,
  "Ġ230": 25068,
  "Ġsides": 9070,
  "Ġyakomeje": 9906,
  "Ġibib": 11029,
  "less": 4263,
  "Ġubuz": 28851,
  "ĠDanemark": 25718,
  "istant": 26049,
  "Ġcr": 1215,
  "Ġsoul": 8492,
  "uption": 12447,
  "go": 633,
  "ĠâĨĴ": 27152,
  "Ġutil": 3681,
  "ĠVictorian": 22667,
  "Ġcommercial": 4601,
  "ĠfÃ©lic": 24308,
  "ĠNixon": 20887,
  "Ġbyihuse": 17610,
  "Ġ09": 13629,
  "ukozi": 8630,
  "Ġexigences": 16138,
  "83": 22366,
  "ork": 809,
  "Ġimideli": 20399,
  "aminer": 28213,
  "ĠMcCl": 24630,
  "Ġgipimo": 11179,
  "Ġvacc": 19284,
  "Ġcreates": 26192,
  "Ġsem": 5151,
  "ububiko": 26597,
  "ona": 876,
  "Ġsegments": 24147,
  "ĠScreens": 27500,
  "ĠKurt": 20017,
  "Ġjar": 17986,
  "Ġdos": 10571,
  "enera": 8143,
  "Ġdestin": 17796,
  "Ġmuhanda": 8873,
  "Ġcry": 5423,
  "amin": 1003,
  "Ġyanze": 23794,
  "ubwiyongere": 23530,
  "2008": 15176,
  "ĠIngoma": 22612,
  "ĠTer": 6762,
  "Ġagrees": 27719,
  "Ġsuggesting": 22744,
  "Ġumuhungu": 12080,
  "inaires": 16424,
  "Ġconsultations": 26354,
  "Ubumenyi": 26143,
  "enzi": 1917,
  "uages": 15566,
  "Ġmariage": 22741,
  "Ġprompting": 30150,
  "imitekerereze": 27977,
  "amagara": 13865,
  "ĠTraf": 30695,
  "ĠGy": 31366,
  "75": 11004,
  "ĠLyn": 10950,
  "ĠMir": 8366,
  "Ġns": 14241,
  "aration": 17441,
  "Ġcoverage": 14842,
  "Ġbeh": 6501,
  "ĠAlbanian": 28518,
  "akam": 12646,
  "Ġquantaplus": 27164,
  "Ġte": 1068,
  "ĠOngera": 19662,
  "Ġtales": 31198,
  "iganwa": 4018,
  "ĠFerd": 22915,
  "ford": 2803,
  "Ġcer": 28727,
  "mpangano": 20342,
  "ĠSection": 19578,
  "lymp": 5798,
  "hens": 9719,
  "Ġbodies": 10567,
  "Ġexploration": 31722,
  "Ġ26": 2494,
  "ĠEigh": 26699,
  "Ġdram": 15849,
  "cyangwa": 11792,
  "Ġsnow": 8346,
  "akintu": 20539,
  "Ġ_": 3414,
  "Ã¡n": 10377,
  "ĠrÃ©pond": 10692,
  "Ġremoved": 7456,
  "ologiya": 10616,
  "Ġhanging": 25204,
  "The": 8355,
  "anganyamatsiko": 9542,
  "Ġinternation": 12260,
  "ĠpÃ©riod": 31909,
  "retÃ©": 15193,
  "Ġhappily": 12250,
  "Ġcoc": 17906,
  "inda": 962,
  "Ġchimpanze": 28913,
  "Ġbwazo": 22520,
  "Ġwita": 18421,
  "ZI": 15248,
  "tz": 31176,
  "Ġhugged": 5365,
  "AR": 2113,
  "Ġubukoloni": 25062,
  "zeyimana": 25423,
  "Ġikomoka": 11110,
  "ĠExtr": 29912,
  "Ġrebuilt": 22757,
  "Ġexiste": 18319,
  "Ġrifle": 31992,
  "Ġseventh": 16946,
  "efficacitÃ©": 16327,
  "Ġuplo": 31255,
  "Ġoffres": 29342,
  "----": 22309,
  "ĠDen": 7613,
  "Ġservices": 3017,
  "abari": 18948,
  "Ġpromoted": 10309,
  "Ġdemanded": 20032,
  "Ó": 161,
  "ĠThird": 16037,
  "Ġrutanga": 15699,
  "endera": 5959,
  "Ġhistorians": 18894,
  "ĠmÃ©decin": 31073,
  "anzuro": 11049,
  "Ġakore": 30567,
  "Ġkoroshya": 26544,
  "ĠSue": 7881,
  "Ē": 224,
  "Ġpm": 23783,
  "ibuga": 5044,
  "ĠMong": 15082,
  "Ġassume": 31633,
  "Ġzacyo": 28202,
  "ĠNone": 16811,
  "onnÃ©": 21762,
  "ĠBri": 21648,
  "Ġcyakozwe": 23906,
  "itre": 17901,
  "ĠIII": 5927,
  "Ġndangag": 28151,
  "Ġcredit": 14362,
  "ĠMon": 3865,
  "Ġsilver": 8605,
  "Ġacting": 10973,
  "Ġfly": 4796,
  "ĠCyongereza": 14005,
  "lete": 27891,
  "ĠHerm": 17691,
  "ĠKnox": 24110,
  "Ġkmplot": 30747,
  "Ġnibintu": 21795,
  "chester": 31817,
  "Ġbit": 683,
  "umv": 3187,
  "Ġgloom": 31766,
  "Ġthrown": 25116,
  "ables": 3278,
  "eti": 2959,
  "ĠIbitaro": 16537,
  "Ġmesures": 5297,
  "Ġntiz": 9643,
  "Ġindepend": 6111,
  "urima": 24279,
  "ĠIslands": 8500,
  "ubwenge": 21402,
  "Ġhuit": 28753,
  "ulant": 22893,
  "Ġscol": 15657,
  "Ġkom": 4391,
  "Ġinfrastructures": 28519,
  "Ġprogressed": 30057,
  "anner": 11384,
  "Ġdix": 23777,
  "Abaminisitiri": 23986,
  "Ġbushy": 7828,
  "ĠUburayi": 18214,
  "Ġrwiza": 16171,
  "urikiyeho": 9376,
  "ĠIkinyarwanda": 28191,
  "ĠCE": 7469,
  "ycl": 20144,
  "Ã©n": 1506,
  "ĠCemetery": 25967,
  "Ġmaso": 14079,
  "imin": 4279,
  "COP": 15203,
  "iting": 4562,
  "Ġvessel": 18636,
  "Ġlem": 11640,
  "Ġimyunyungugu": 26183,
  "Ġheads": 11502,
  "urikiranyanyuguti": 11528,
  "Ġwidth": 11995,
  "Ġdossiers": 27118,
  "2001": 15873,
  "igence": 20860,
  "ĠLanka": 24355,
  "Ġzerekeza": 30494,
  "Ġunited": 27374,
  "Ġbust": 27922,
  "Ġlecture": 18377,
  "Ã©ch": 25362,
  "ishami": 10087,
  "Ġtransformed": 25757,
  "Ġconducted": 9228,
  "Ġbipimo": 22390,
  "oneka": 2220,
  "ĠInterior": 29191,
  "aritÃ©": 25900,
  "ĠImyuka": 26982,
  "ĠBlood": 15507,
  "amus": 12301,
  "uwa": 3892,
  "Ic": 19835,
  "Thank": 9538,
  "ĠGlasgow": 20459,
  "ĠFaw": 31397,
  "Ġibik": 6354,
  "Ġkid": 5981,
  "Ġkivuga": 14726,
  "Ġzivuye": 29807,
  "fura": 14709,
  "Ġcamps": 21031,
  "Ġinclud": 1126,
  "Ġikag": 27377,
  "95": 11531,
  "Ġyibyo": 23312,
  "Ġreview": 3269,
  "ĠRonald": 27788,
  "ica": 1220,
  "ĠMedia": 10533,
  "atifs": 10687,
  "ĠGreater": 24139,
  "ubiza": 17459,
  "Ġdeven": 18461,
  "ably": 3962,
  "isions": 4446,
  "emba": 4591,
  "Ġikindi": 8243,
  "Ġbunoze": 25126,
  "ĠComedy": 22599,
  "inqu": 14716,
  "Ġgukina": 2883,
  "ĠTechnology": 12959,
  "yp": 1441,
  "Ġkuy": 4114,
  "onto": 9585,
  "tions": 1826,
  "ĠLyon": 28522,
  "ĠIsh": 1451,
  "Ġinternationaux": 16144,
  "ĠBurkina": 14474,
  "Ġlibre": 18060,
  "indagurika": 11318,
  "Ġmwiza": 4135,
  "umed": 7652,
  "achim": 30614,
  "ËĪ": 17892,
  "ashyizweho": 13487,
  "ĠJapon": 26256,
  "ĠImigaragarire": 15826,
  "eston": 13131,
  "ĠFerr": 17025,
  "Ġdeputy": 29894,
  "Ġmit": 9482,
  "ĠUmuziki": 29708,
  "Ġhitwa": 23793,
  "Ġrif": 9020,
  "Ġgiturukiya": 8863,
  "Ġmigezi": 19139,
  "kub": 21176,
  "ĠBW": 28017,
  "ĠsystÃ¨mes": 12696,
  "Ġporter": 23301,
  "Ġntiya": 8947,
  "Ġniho": 8939,
  "Ġpractice": 8221,
  "abiri": 1078,
  "ĠgÃ©ographique": 25828,
  "Ġrocket": 17344,
  "abiligi": 11592,
  "Ġimyigaragambyo": 25561,
  "Ġfaculty": 27811,
  "Ġbikurikira": 11574,
  "Ġattor": 22162,
  "uca": 17955,
  "ĠBo": 2270,
  "Ġrunning": 5283,
  "igator": 22864,
  "Ġnabag": 31689,
  "illet": 11857,
  "ĠOthers": 20576,
  "ğ": 237,
  "ff": 939,
  "Ġrecommended": 14507,
  "Ġtandis": 24765,
  "Ġcraft": 27481,
  "04": 13570,
  "ĠBots": 7695,
  "yabitswe": 28997,
  "ĠFebruary": 3469,
  "Ġsa": 632,
  "âĢ": 324,
  "eranya": 31200,
  "ĠDuc": 23864,
  "Ġurukiko": 25146,
  "PA": 5992,
  "Ġtwist": 24515,
  "inction": 14463,
  "atory": 5953,
  "aled": 6371,
  "Ġyubuhanzi": 23542,
  "ĠÃ©tablis": 30051,
  "count": 4850,
  "ĠMen": 7653,
  "Ġglass": 11146,
  "Ġfold": 12988,
  "Ġspec": 1323,
  "Ġcompagn": 15331,
  "ayette": 28833,
  "arif": 12040,
  "Ġumudari": 4024,
  "emere": 15084,
  "ĠMontreal": 15209,
  "á¹": 25882,
  "Ġziribwa": 20018,
  "Ġkikaba": 7111,
  "unda": 1082,
  "uguzi": 19628,
  "ĠIhe": 29560,
  "à¤": 12410,
  "Ġmunani": 18778,
  "Ġvillages": 14666,
  "Ġatab": 19925,
  "achel": 9829,
  "Ġatte": 10021,
  "ori": 1698,
  "ĠImishinga": 26114,
  "Ġincidents": 23499,
  "Ġintwaro": 18208,
  "Ġkumut": 28276,
  "Ġpourrait": 12239,
  "Ġadap": 13973,
  "ĠIndivid": 27507,
  "ĠSimp": 8729,
  "ĠBris": 23983,
  "Ġsecondary": 13041,
  "Ġprograms": 12175,
  "ĠNan": 26640,
  "urikirane": 7711,
  "Ġtwelve": 11812,
  "Ġsubsidi": 21500,
  "ĠdurÃ©e": 15533,
  "Ġukuri": 17501,
  "utso": 31269,
  "AFA": 10230,
  "Ġfootage": 16697,
  "ĠexpÃ©rience": 28277,
  "Ġprotecting": 28318,
  "ifuzo": 27358,
  "Ġyakoraga": 6713,
  "Ġakinira": 10092,
  "Ġemergency": 16936,
  "Ġ1880": 15017,
  "Ġmonth": 2777,
  "Ġigiciro": 19006,
  "ĠprioritÃ©s": 19429,
  "ashimira": 28856,
  "stone": 9897,
  "ĠPitts": 20115,
  "Q": 66,
  "ubyin": 29107,
  "ĠBark": 18455,
  "room": 7768,
  "ĠHur": 6912,
  "astern": 4099,
  "xic": 15757,
  "rol": 6353,
  "Ġcruiser": 15553,
  "Ġnice": 5914,
  "inyigisho": 28232,
  "Ġabany": 30532,
  "Ġconnexes": 26456,
  "Ġstraight": 10923,
  "Ġplainte": 29299,
  "Ġushyira": 27573,
  "ĠAT": 16795,
  "Ġoffic": 2233,
  "Ġinjeniyeri": 21870,
  "yakoresha": 30704,
  "Ġiyambere": 31246,
  "Ġtoute": 5841,
  "Ġkanama": 26543,
  "Ġstruggle": 17187,
  "nÃ©es": 22379,
  "Ġbabayeho": 29505,
  "wani": 28678,
  "ĠSoci": 6959,
  "ding": 19513,
  "Ġahita": 17069,
  "ĠCold": 16806,
  "Ġmar": 1138,
  "ĠSammy": 17120,
  "ĠNavy": 5957,
  "flu": 14992,
  "Ġhashingiwe": 13435,
  "ambaye": 18699,
  "ĠList": 11103,
  "ĠByari": 23041,
  "ĠSil": 6001,
  "Ã©tait": 9451,
  "ĠIMF": 30125,
  "ĠNibwo": 26642,
  "amako": 23304,
  "Ġhanded": 14010,
  "ĠNyundo": 23012,
  "Ġirengero": 28215,
  "Ġashy": 5799,
  "Ġkuzi": 29611,
  "ĠGus": 3039,
  "umwihariko": 5066,
  "estions": 4637,
  "Ġhiding": 16787,
  "force": 17811,
  "where": 6447,
  "Ġdistributed": 16912,
  "Ġmico": 17648,
  "hodes": 8870,
  "ĠNyam": 3310,
  "Comm": 21557,
  "Ġannuel": 23516,
  "mar": 5339,
  "Ġprofessor": 18578,
  "ereki": 8949,
  "ĠKigeli": 29042,
  "ĠAlexand": 15214,
  "Ġamata": 11750,
  "Ġerupted": 30227,
  "ĠWA": 22928,
  "Ġkumena": 30842,
  "ovich": 31490,
  "Ġmolec": 18645,
  "Ġdelete": 12814,
  "Ġkubura": 6589,
  "ĠAegis": 31284,
  "Ġroutine": 30203,
  "ĠNap": 10204,
  "Ġheader": 21019,
  "ĠUmug": 3043,
  "Ġreportedly": 17576,
  "Ġfifth": 6924,
  "lon": 15564,
  "Ġicyar": 13620,
  "Ġrh": 31241,
  "ĠMarley": 22155,
  "orera": 2412,
  "Ġyitabiriye": 5560,
  "uan": 20479,
  "avan": 16012,
  "Ġbashobora": 6564,
  "atin": 5341,
  "ĠRound": 30708,
  "Ġnas": 28712,
  "Ġamid": 20574,
  "ĠCitizen": 28573,
  "ured": 3065,
  "Ġjama": 11477,
  "itabira": 11824,
  "ĠWomen": 7537,
  "Ġdehors": 28805,
  "ĠSek": 20198,
  "bor": 5363,
  "Ġclosing": 17560,
  "intÃ©gration": 20452,
  "Ġairing": 27538,
  "ĠSch": 4150,
  "ibiza": 15994,
  "ĠAbahinzi": 19150,
  "ĠFederal": 14517,
  "ĠIngero": 18028,
  "Ġryaba": 27411,
  "ĠHollywood": 10470,
  "ria": 8412,
  "Ġibit": 2002,
  "umat": 23807,
  "Ġexecutive": 11287,
  "Ġties": 22815,
  "Ġcalled": 1931,
  "Ġblocking": 28452,
  "Ġarizo": 24432,
  "ß": 173,
  "ĠParalymp": 15342,
  "Ġchart": 4702,
  "Ġwhales": 26728,
  "Ġspan": 23442,
  "Ġdispos": 4502,
  "Ġretreat": 14624,
  "angamurage": 19101,
  "ĠDonc": 24877,
  "Ġnest": 12110,
  "Ġruhago": 31774,
  "Ġ131": 29054,
  "ĠBav": 23829,
  "ĠNaivasha": 26876,
  "Ġchick": 14775,
  "world": 25876,
  "Ġitem": 9432,
  "exposition": 26824,
  "Ġbubiri": 15969,
  "ĠMasters": 18076,
  "Ġverb": 23150,
  "âĤ¬âĦ¢": 7712,
  "Ġbubasha": 31869,
  "Ġcertain": 4046,
  "Ġkwiteza": 19306,
  "Ġcompt": 16238,
  "Ġjudg": 23163,
  "ĠWad": 28102,
  "Ġmubak": 18523,
  "hos": 8410,
  "ĠFrom": 3210,
  "ĠCÃ´te": 28798,
  "Ġactivities": 9986,
  "Ġsongs": 3908,
  "atangajwe": 21458,
  "Ġcatal": 15874,
  "iliar": 14015,
  "inning": 3425,
  "Ġruin": 24150,
  "Ġutundi": 28242,
  "Ġyater": 21231,
  "ĠKohereza": 15606,
  "ungamubiri": 5907,
  "ĠLuther": 26417,
  "Ġeff": 1482,
  "ĠZa": 22546,
  "ĠURUPAPURO": 25268,
  "Ġmafi": 31204,
  "ozo": 7079,
  "Ġdoll": 4310,
  "Ġtended": 30315,
  "ĠYamenyekanye": 23908,
  "ĠMic": 5678,
  "Ġmemory": 10835,
  "Ġmutual": 27583,
  "Ġemphasized": 29311,
  "ĠNether": 15728,
  "ĠstratÃ©g": 7481,
  "Ġwimukiye": 28724,
  "Ġinzobere": 15076,
  "Ġfeel": 3085,
  "Ġteammates": 23509,
  "ĠZeal": 7997,
  "Ġnovel": 5382,
  "Ġpersp": 11218,
  "ibigori": 12997,
  "Ġencore": 7421,
  "Ġubutunzi": 23590,
  "onekerwa": 31983,
  "Ġkickoff": 30254,
  "Ġimiyoborere": 19912,
  "ĠPhilip": 11904,
  "Ġahahoze": 19131,
  "ĠThÃ©": 27430,
  "ĠUmuhanzi": 22955,
  "Ġsystems": 9271,
  "Ġumworozi": 28208,
  "idges": 15996,
  "78": 16966,
  "Ġkirimbuzi": 13654,
  "antic": 11846,
  "atana": 16771,
  "Ġcertaine": 25595,
  "inea": 13964,
  "Ġzar": 11955,
  "Ġknow": 2743,
  "Ġimpunzi": 13748,
  "Ġfavorable": 17364,
  "ĠDuring": 3046,
  "Ġbubbles": 24092,
  "Ġfilm": 1176,
  "Ġelaborate": 27835,
  "Ġentr": 7039,
  "Ġdelicate": 30781,
  "ulations": 7128,
  "ansion": 9361,
  "abama": 16997,
  "ĠprÃ©cis": 23627,
  "Ġgitera": 19701,
  "itanye": 4006,
  "Ġadm": 5332,
  "Ġhakorwa": 21407,
  "Ġfriendly": 9727,
  "Ġlimitations": 30110,
  "Ġgusukura": 20963,
  "Ġbegun": 16464,
  "Urukiko": 25248,
  "amis": 23303,
  "uinn": 29486,
  "Ġmurwa": 11344,
  "oth": 1198,
  "thing": 4178,
  "Ġpercnt": 21136,
  "iteye": 19926,
  "ĠIndustry": 16070,
  "umuco": 5227,
  "ĠDesert": 25676,
  "Ġyibi": 27252,
  "lace": 26497,
  "ĠMontrÃ©al": 30271,
  "ukoko": 5708,
  "Ġbivuga": 13531,
  "ss": 1165,
  "ĠMississipp": 15894,
  "Ġultimately": 9886,
  "Ġwamenya": 26370,
  "Ġbond": 19849,
  "ĠDeep": 22597,
  "Ġpapers": 20838,
  "Ġtreated": 16287,
  "Ġ3000": 12779,
  "Ġalternative": 14207,
  "riptions": 16093,
  "Ġexamination": 23174,
  "Ġijyanye": 17565,
  "urub": 27928,
  "Ġlap": 11437,
  "Ġdiyama": 22666,
  "Ġbase": 3359,
  "Ġkubis": 19623,
  "ĠJulius": 25597,
  "indura": 2740,
  "oh": 1057,
  "Ug": 17418,
  "ĠNothing": 31348,
  "ĠIbiranga": 22707,
  "ĠPast": 17248,
  "ĠSum": 7353,
  "Ġdeveloped": 4335,
  "ĠInside": 15311,
  "Ã©rieure": 11408,
  "Ġwib": 14398,
  "Ġissue": 6800,
  "ĠBu": 4711,
  "Ġhakoreshejwe": 9459,
  "Ġshore": 12230,
  "ĠTumenye": 28793,
  "feld": 26488,
  "ĠConservation": 16292,
  "p": 97,
  "ĠUbukungu": 17852,
  "isuri": 17907,
  "Ġabakuru": 31431,
  "Ġwished": 9552,
  "Ġpasses": 10365,
  "ĠvendorShortName": 25821,
  "Ġratification": 30973,
  "ĠeuropÃ©": 4089,
  "akozwe": 8799,
  "Ġwore": 16772,
  "ingamo": 28757,
  "lÃ©": 9877,
  "otsi": 16195,
  "ĠSunday": 16130,
  "ifumbire": 13733,
  "Ġbuhanga": 17209,
  "Ġumunyarwandakazi": 7322,
  "Ġguhagarara": 24116,
  "thel": 22804,
  "Ġrede": 22619,
  "ions": 853,
  "ĠJour": 9780,
  "Ġdossier": 22347,
  "Ġke": 13344,
  "utumwa": 2775,
  "Ġreinforced": 27068,
  "Ġincl": 11092,
  "Ġ97": 11386,
  "ĠDevil": 22289,
  "Ġtho": 2610,
  "Ġpartnership": 21122,
  "Ġcollabor": 6775,
  "ĠIfishi": 29943,
  "Ġinternal": 13525,
  "isible": 24794,
  "igs": 15445,
  "ĠÃī": 2760,
  "erekejwe": 21145,
  "ipl": 5634,
  "ĠSilver": 13551,
  "ĠrÃ©gionales": 22686,
  "Ġidentification": 27620,
  "Ġtere": 6300,
  "ĠHil": 18978,
  "enegihugu": 6881,
  "ians": 4262,
  "ĠSitasiyo": 20420,
  "ĠDangote": 22780,
  "Ġdetermine": 14512,
  "ĠFound": 6538,
  "Ġsuccessor": 19719,
  "ĠVladimir": 24219,
  "Ġterres": 24057,
  "aragaye": 2616,
  "ĠCamer": 20869,
  "Ġtradition": 4682,
  "Ġfinances": 26139,
  "Ġkuzigama": 27564,
  "ĠLove": 7407,
  "Ġseparately": 28439,
  "ĠHaven": 30463,
  "yarimana": 13271,
  "ĠIbyo": 6503,
  "Ġikurikira": 16413,
  "Ġconsiderably": 24124,
  "Ġkurandura": 20618,
  "ufact": 10281,
  "ĠIkimenyetso": 22137,
  "andatu": 3440,
  "ĠCarter": 13294,
  "Ġmenshi": 2700,
  "Ġhum": 2493,
  "ĠNyab": 5173,
  "ĠPeace": 15016,
  "ĠSM": 23821,
  "ĠÃ©c": 3861,
  "nesday": 27017,
  "ibikorwa": 3977,
  "Ġkubyimba": 29179,
  "ĠHearts": 26393,
  "ĠAthlet": 8138,
  "ĠBrothers": 21415,
  "ongeramusaruro": 24641,
  "ifashishije": 23109,
  "ĠUmusigiti": 2969,
  "ĠCooper": 16248,
  "Ġformal": 12684,
  "Ġreceives": 26217,
  "Amajyaruguru": 5642,
  "Ġkigizwe": 15162,
  "tones": 13036,
  "ĠLeban": 23468,
  "ĠÃ©tape": 30663,
  "Ġrwera": 31531,
  "ĠCouldn": 18055,
  "Ġliberal": 20027,
  "ibon": 5103,
  "Ġchapel": 23175,
  "Esp": 29454,
  "ĠMushiki": 27801,
  "Ġgifite": 3511,
  "Ġkag": 7081,
  "ashakanye": 9109,
  "ĠGih": 12038,
  "Ġstored": 20901,
  "ĠFlying": 21291,
  "atandukanye": 10329,
  "Ġgun": 3216,
  "Ġhunter": 24808,
  "Ġcellules": 30887,
  "ĠKilimanjaro": 25846,
  "Ġkr": 27220,
  "ĠLewis": 11706,
  "Ġgang": 22423,
  "endance": 25448,
  "Ġ156": 22168,
  "rum": 15565,
  "Ġpere": 22417,
  "mat": 15751,
  "Ġpraise": 16834,
  "ason": 1342,
  "EN": 7076,
  "ĠWel": 10210,
  "ariz": 12140,
  "Ġbyimbitse": 27318,
  "ĠStars": 10602,
  "Ġseas": 22502,
  "Ġverisiyo": 30031,
  "Ġexemple": 9713,
  "onjesha": 20079,
  "zamuka": 10895,
  "ba": 542,
  "Ġcommon": 4064,
  "este": 11749,
  "Ġkubana": 12775,
  "Ã©dÃ©ration": 26203,
  "ĠSweet": 22771,
  "ĠDouala": 30219,
  "amadorali": 19481,
  "Ġintensified": 19442,
  "Ġdemands": 23111,
  "man": 1716,
  "Ġcompeted": 18833,
  "ubucuruzi": 2151,
  "Ġmubagize": 21754,
  "Ġbizag": 21425,
  "Ġfossil": 27812,
  "Ġmaf": 16978,
  "Ġmigration": 20407,
  "Ġhearing": 15625,
  "Ġraporo": 7325,
  "Ġweak": 10033,
  "iyoboro": 7000,
  "ibiganiro": 23351,
  "ament": 3616,
  "ĠLock": 13120,
  "ĠAgaf": 31714,
  "Ġnotamment": 7285,
  "atanije": 8446,
  "ĠAfurika": 948,
  "iac": 30295,
  "uze": 1340,
  "ambi": 3691,
  "Ġbushya": 8927,
  "hag": 14544,
  "Ġcyigenga": 28834,
  "ĠsÃ»": 13928,
  "ĠLab": 9428,
  "oc": 516,
  "Ġprepare": 17611,
  "Ġsuivi": 14190,
  "ĠâĢĻ": 3982,
  "ĠDevelopment": 8263,
  "Ġmagnesium": 30270,
  "rais": 7627,
  "Ġurubura": 18612,
  "olog": 1538,
  "Ġapr": 5733,
  "Ö": 164,
  "Ġguhirika": 31552,
  "hemat": 17360,
  "Ġinkuru": 6895,
  "asting": 28927,
  "olph": 12543,
  "Ġishyirwa": 11796,
  "Ġgusoza": 19956,
  "itas": 27935,
  "ĠMinnesota": 15945,
  "ibiceri": 25190,
  "Ġbyavumbuwe": 28515,
  "ĠLeip": 28199,
  "Ġitar": 17950,
  "Ġultr": 29381,
  "ĠMia": 6106,
  "Ġbroadcast": 7370,
  "oreramo": 25148,
  "ĠMaya": 16495,
  "Ġbitandukanye": 2104,
  "Ġoverall": 7416,
  "rent": 12106,
  "Ġgatolika": 26885,
  "passed": 21897,
  "ĠReich": 18030,
  "ĠNyir": 5710,
  "Ġinstead": 4809,
  "Ġindependent": 9168,
  "Ġvict": 3499,
  "Ġbwubatsi": 27387,
  "),": 983,
  "Ġswamp": 29136,
  "ĠLang": 8577,
  "anca": 15127,
  "Ġcrise": 25537,
  "Ġdevient": 31749,
  "ĠBrazilian": 21125,
  "ince": 1641,
  "indo": 9498,
  "ãĤ": 9614,
  "Ġcontinuous": 25154,
  "ĠSenegal": 18089,
  "Ġlearned": 5035,
  "Ġwear": 6547,
  "ibice": 11450,
  "aider": 31818,
  "ope": 1711,
  "Ġpattern": 8707,
  "Ġsorry": 5184,
  "Ġfar": 2757,
  "Ġ?": 2519,
  "osa": 2911,
  "Ġasaga": 21676,
  "ivu": 5425,
  "anyarwanda": 3327,
  "imizi": 26573,
  "Ġnumukinnyi": 25316,
  "Ġregiments": 30678,
  "Ġdiffer": 2330,
  "Ġgarde": 21450,
  "Ġstudies": 10906,
  "aham": 12145,
  "Ġfright": 20650,
  "ĠBridge": 9651,
  "Ġamashyaka": 29798,
  "Ġrotation": 25748,
  "ĠSeriveri": 7934,
  "eno": 17651,
  "Ġore": 26513,
  "Ġuns": 6620,
  "Ġibitoki": 29099,
  "ista": 22088,
  "ubuke": 28297,
  "ihigo": 13372,
  "ele": 4573,
  "ation": 402,
  "ĠYes": 9362,
  "Ġzat": 23383,
  "Ġ=": 1567,
  "Ġbio": 20822,
  "ĠRequ": 19714,
  "ibyaha": 26625,
  "ora": 521,
  "Ġhiyongereyeho": 22849,
  "anyi": 1804,
  "hal": 27186,
  "Ġkak": 28728,
  "Ġnouv": 5427,
  "Ġphot": 6055,
  "Ġkub": 533,
  "ishw": 8847,
  "Ġbakavuga": 29760,
  "Ġslowly": 10993,
  "ĠFERWAFA": 22067,
  "Ġitemba": 26672,
  "Ġtravelling": 26871,
  "Ġdefinitely": 26376,
  "ereranije": 15172,
  "bag": 30286,
  "ĠKubungabunga": 18282,
  "Ãīt": 28399,
  "Je": 23726,
  "ĠMerc": 7404,
  "Inama": 14478,
  "Ġyag": 1129,
  "Ġsl": 1718,
  "utse": 784,
  "Ġbagamije": 26786,
  "approvision": 28204,
  "ado": 5325,
  "Ġubarizwa": 25436,
  "Ġallocate": 28181,
  "YAN": 20305,
  "Ġnortheast": 9932,
  "Ġheat": 14123,
  "Ġnext": 2571,
  "pected": 12854,
  "Ġgihembo": 23470,
  "Ġsatisfaction": 24142,
  "alous": 17916,
  "ĠKureba": 16385,
  "Ġuteg": 12249,
  "irimb": 5100,
  "ecut": 4483,
  "om": 326,
  "Ġinternationales": 13062,
  "Ġbwagize": 25692,
  "ĠAnto": 19649,
  "eng": 515,
  "Ġsuperm": 28243,
  "izamu": 8990,
  "illa": 4237,
  "Ġmbogamizi": 22747,
  "Ġhold": 4177,
  "ĠFinancial": 24216,
  "ously": 5801,
  "enamiterere": 8471,
  "Ġrepresented": 9743,
  "dah": 31166,
  "1999": 18836,
  "Ġpounds": 19681,
  "Ġfonctionnaires": 19764,
  "Ġbedroom": 23156,
  "ĠYa": 6221,
  "ĠMasjid": 17823,
  "Ġsuicide": 15356,
  "Ġvictimes": 17813,
  "Ġlikes": 12264,
  "inyongera": 16456,
  "ðĿĹ": 27839,
  "hera": 15563,
  "acyuho": 17239,
  "Ġbakora": 5374,
  "Ġyera": 14089,
  "ĠOctober": 2533,
  "Ġvoc": 5486,
  "Ġsequence": 10237,
  "ĠFell": 29646,
  "ulated": 6378,
  "Ġimages": 8241,
  "ĠIbikubiyemo": 8183,
  "IR": 13810,
  "ingiye": 3605,
  "oric": 29514,
  "Ġhan": 27246,
  "Itor": 25854,
  "ĠItegekongenga": 12966,
  "ĠUmut": 4474,
  "ĠSor": 22022,
  "Ġinstallations": 20726,
  "ĠHung": 10271,
  "Ġcow": 14557,
  "Ġruler": 27231,
  "ĠKonger": 30443,
  "hod": 3715,
  "Ġuniform": 14436,
  "iance": 6427,
  "Ã©poque": 29973,
  "Ġmembership": 25670,
  "Ġmushroom": 23579,
  "Ġwatsinze": 12863,
  "Ġafatanya": 29731,
  "Ġdire": 9122,
  "Ġeffet": 11061,
  "Ã©conom": 13871,
  "ĠGak": 17485,
  "Ð¸Ðº": 26351,
  "Ġumu": 5451,
  "ĠfÃ©dÃ©ral": 18099,
  "Ġapproaching": 19785,
  "eters": 18439,
  "ĠfranÃ§": 12251,
  "Ġtechn": 3018,
  "ĠLibrary": 16097,
  "±": 127,
  "Ġumwuka": 6316,
  "Neill": 27126,
  "andal": 24799,
  "Ġsandwich": 18852,
  "Ġmushya": 11793,
  "Ġgrain": 24993,
  "uhuko": 9899,
  "ĠpÃ¨re": 20508,
  "intsinzi": 28924,
  "Ġnineteenth": 27149,
  "Ġyak": 904,
  "Ġyaravukiye": 31083,
  "ĠLili": 27311,
  "Ġtherm": 15454,
  "Ġdriver": 11676,
  "Ġprize": 18309,
  "Ġshooting": 13556,
  "Ġliaison": 29419,
  "91": 21556,
  "glements": 19367,
  "ĠAbuja": 19960,
  "Ġirerekana": 27461,
  "Ġimari": 7385,
  "Ġgishy": 16788,
  "amakimbirane": 20054,
  "idae": 9318,
  "ĠMoore": 13879,
  "Ġaccording": 6049,
  "Ġscre": 10214,
  "iyaga": 1777,
  "Ġicyaha": 13433,
  "Ġcheered": 21812,
  "Ġinvite": 26851,
  "ĠIserukiramuco": 13759,
  "ĠMusa": 15170,
  "Ġaimed": 18105,
  "Ġmunyam": 23961,
  "Ġwarrant": 27521,
  "ĠRe": 2110,
  "Ġzabo": 6500,
  "ategeko": 1624,
  "ame": 591,
  "ommod": 17072,
  "igaruriye": 31977,
  "erereye": 2919,
  "ĠconfÃ©r": 15361,
  "wan": 6754,
  "cliff": 20610,
  "Ġjail": 26752,
  "Ġblood": 8748,
  "Ġingo": 14921,
  "Ġabih": 31428,
  "Ġtwice": 9974,
  "ĠRE": 8488,
  "Ġdutatu": 31871,
  "ubar": 27992,
  "Ġsequences": 24632,
  "Ġambigu": 27661,
  "Ġdreaming": 31981,
  "rehens": 20876,
  "Ġyafunguwe": 30015,
  "ĠJuan": 15927,
  "()": 17413,
  "imisha": 20181,
  "ter": 413,
  "Ġyagiranye": 17522,
  "itt": 945,
  "ĠDefault": 14811,
  "iÃ¨me": 7593,
  "Ġevery": 2047,
  "iziya": 5591,
  "Ġbigak": 22980,
  "Ġgutoza": 18207,
  "ĠAndrew": 9153,
  "Ġcur": 6034,
  "ikin": 5998,
  "Ġhapp": 1275,
  "Ġimid": 7473,
  "uki": 7837,
  "Ġexplosive": 30159,
  "ĠDa": 6146,
  "ĠLion": 19904,
  "heast": 5364,
  "Ġrarely": 16539,
  "lc": 26496,
  "Ġcyane": 642,
  "ĠSoftware": 31112,
  "opi": 10025,
  "ĠBot": 15993,
  "ĠMaastricht": 31132,
  "ĠAya": 10943,
  "umurongo": 20188,
  "ĠImp": 2624,
  "yekanye": 4047,
  "ouvoir": 18355,
  "Ġgukuraho": 10235,
  "ĠGeneral": 4285,
  "omereza": 10012,
  "Ġfemales": 15882,
  "human": 27887,
  "ĠVictoria": 6392,
  "ĠopÃ©ration": 15332,
  "order": 5727,
  "Ġwealthy": 17870,
  "Ġbizaba": 19395,
  "Ġquietly": 30997,
  "Ġhair": 7724,
  "Ġdollars": 8046,
  "Ġphotograph": 12004,
  "underst": 22083,
  "Ġmajyepfo": 3094,
  "Ġmyth": 25016,
  "ĠStalin": 23933,
  "ĠGouvernement": 16332,
  "Ġknew": 3925,
  "Ġguc": 2252,
  "fix": 18905,
  "Ã©ducation": 12530,
  "Ġclothes": 12342,
  "ĠItegeko": 13018,
  "Ġassassination": 30185,
  "Ġconcurrence": 18368,
  "Ġfled": 16864,
  "ĠStorm": 12785,
  "Ġirambye": 21763,
  "yers": 21975,
  "Ġefficient": 23644,
  "Ġverse": 17371,
  "ĠFranc": 4316,
  "arte": 20931,
  "agent": 22860,
  "Ġcheer": 18802,
  "Ġdensity": 22337,
  "Ġidafite": 19080,
  "Ġukwezi": 9583,
  "ĠCrosby": 24736,
  "Ġgatanu": 7522,
  "Ġbyashize": 21724,
  "ĠWigan": 28863,
  "Ġnubwo": 3133,
  "yarabu": 24987,
  "Ġumud": 3057,
  "Ġlive": 5469,
  "atus": 15428,
  "inaho": 24925,
  "Ġzu": 24886,
  "Ãªter": 28262,
  "37": 13209,
  "Ġclaims": 13785,
  "Ġmwe": 29495,
  "Ġracing": 16172,
  "ĠArena": 20629,
  "ĠOlymp": 6022,
  "80": 7718,
  "ungu": 1063,
  "ibik": 9702,
  "Ġkubanyeshuri": 28119,
  "ĠBaghd": 30976,
  "yeri": 25299,
  "aranira": 1998,
  "Ġkwangiza": 10414,
  "Ġaucune": 13668,
  "Ġwimyaka": 30346,
  "onekamo": 12613,
  "Ã©rique": 13641,
  "ibereho": 2388,
  "Ġrefers": 18589,
  "Ġrates": 16778,
  "ĠMetall": 29202,
  "Ġfill": 5583,
  "ĠMR": 27269,
  "Ġsous": 4936,
  "ĠCategory": 20124,
  "uellement": 10245,
  "Ġdirection": 6797,
  "Ġkidage": 30047,
  "Ġbucukuzi": 28703,
  "Ġpuis": 8523,
  "etts": 9315,
  "Ġbirah": 19533,
  "Ð°Ð¼": 24151,
  "gart": 29471,
  "cient": 24242,
  "ĠEventually": 16331,
  "ĠPerc": 16816,
  "Ġwent": 1703,
  "SR": 31157,
  "king": 20476,
  "Ġbabo": 6100,
  "ĠRodr": 15039,
  "Ġoperations": 7069,
  "wera": 25875,
  "BN": 13681,
  "ibarurishamibare": 31324,
  "amyabushobozi": 13881,
  "ĠPhil": 3806,
  "Ġcontin": 1713,
  "erekane": 9207,
  "Ġchronic": 28912,
  "Ã¼l": 30870,
  "Ġscholars": 19465,
  "Ġvigueur": 16962,
  "aseke": 26110,
  "Ġgrandfather": 23108,
  "yekane": 24037,
  "Ġengagement": 12815,
  "Ġinshinge": 25607,
  "ÙĤ": 20482,
  "Ġbwisanzuye": 25461,
  "ennes": 5253,
  "Ġpieces": 8511,
  "Ġlisting": 27540,
  "Ġpromotional": 21066,
  "ĠSett": 12128,
  "ĠRudahigwa": 21554,
  "ĠDisplay": 14192,
  "Ġfol": 4419,
  "acing": 6377,
  "Ġweapon": 17170,
  "olari": 4437,
  "iyongereyeho": 10762,
  "stein": 9814,
  "Ġkwik": 20594,
  "Ġgabo": 28759,
  "ĠStarr": 22119,
  "Ġrubanza": 23584,
  "ONG": 29157,
  "Ġkwishora": 30198,
  "Ġmembre": 13047,
  "achers": 29762,
  "angijwe": 6169,
  "Ġplast": 14767,
  "Ġbarumuna": 19686,
  "inters": 24762,
  "imironko": 29952,
  "ĠÃ©lectr": 16947,
  "Ġfurniture": 29392,
  "Ġenzymes": 25817,
  "tons": 14901,
  "Ġsouha": 19632,
  "ĠCEC": 17465,
  "ĠNazi": 18188,
  "Ġmaintenance": 19779,
  "yamo": 21324,
  "Ġcause": 5629,
  "Ġbuturuka": 28144,
  "Ġribanza": 20398,
  "ubura": 12763,
  "Ġyabigize": 31657,
  "Ġrand": 17910,
  "ĠPhilipp": 11072,
  "ĠIbyahiswemo": 28541,
  "orp": 2425,
  "arren": 12482,
  "Ġfragment": 24174,
  "Ġrecently": 11667,
  "Ġbirori": 6460,
  "ĠMur": 4997,
  "ĠPerezida": 2967,
  "ĠWelsh": 14529,
  "Ġcarried": 6154,
  "ĠCurt": 17466,
  "yabo": 31236,
  "ination": 2756,
  "ĠHits": 25991,
  "ESA": 17129,
  "amategeko": 3267,
  "umenya": 25527,
  "iest": 19187,
  "atiquement": 24439,
  "atique": 6504,
  "ĠStra": 24078,
  "Ġunc": 9958,
  "jya": 1715,
  "ri": 443,
  "ĠGabriel": 18633,
  "Ġcorn": 8274,
  "Ġroots": 16646,
  "gin": 4209,
  "Ġzirashobora": 24563,
  "Ġgisiga": 19390,
  "Ġriding": 18937,
  "echi": 28275,
  "Ġgauge": 29330,
  "Ġfights": 31862,
  "atsindiye": 4578,
  "Ġuko": 2053,
  "Ġentered": 7098,
  "ubwishingizi": 13168,
  "Ġnav": 7090,
  "Ġmock": 21981,
  "Ġibibazo": 3571,
  "uzuz": 19003,
  "Ġrepeatedly": 24171,
  "sho": 21580,
  "Ġsolutions": 17567,
  "Ġunex": 15667,
  "isitani": 9096,
  "Ġ900": 12349,
  "stant": 5013,
  "Ġchampionship": 8417,
  "Ã©mie": 29195,
  "Ġflo": 5190,
  "Ġvaluable": 19388,
  "ĠEagles": 22344,
  "Ġwatewe": 30348,
  "ĠSuÃ¨de": 29283,
  "ĠNational": 2905,
  "ĠCasablanca": 20094,
  "Ġlisten": 5904,
  "Ġturi": 14077,
  "Ġintumwa": 31498,
  "Ġsmallest": 29886,
  "Ġdirectory": 8089,
  "ĠAmajwi": 22300,
  "ĠmoitiÃ©": 25568,
  "Ġbyakozwe": 10508,
  "ĠKane": 15790,
  "ĠCity": 2745,
  "struction": 7932,
  "Ġdisappointed": 18889,
  "terwa": 4546,
  "ijwe": 1637,
  "itekerezo": 2235,
  "iko": 673,
  "rac": 20809,
  "ĠYork": 2203,
  "ĠGospel": 24872,
  "rief": 6390,
  "Ġbukoresha": 27511,
  "rist": 2028,
  "aur": 6978,
  "utÃ©s": 22007,
  "âĢĻ": 334,
  "cott": 20470,
  "Ġbuildings": 7043,
  "Ġipima": 26377,
  "igneur": 29232,
  "Ġdecade": 15672,
  "Ġkuw": 10404,
  "Ġdemocr": 18270,
  "umyo": 9076,
  "Ġfather": 4354,
  "Ġububabare": 15910,
  "Ġloin": 25526,
  "Ġyub": 2282,
  "Ġmeilleurs": 30982,
  "Ġassigned": 9047,
  "Ġzigera": 8006,
  "Ġibumoso": 17696,
  "mi": 7760,
  "ĠCanal": 16253,
  "Ġdigitale": 23227,
  "ROR": 25856,
  "Ġkurenga": 20962,
  "UE": 7823,
  "ĠKomeza": 19900,
  "Ġprodu": 4252,
  "Ġkurindwa": 26773,
  "west": 5549,
  "Ġariryo": 28133,
  "Ġubumwe": 6042,
  "ĠKiliziya": 12005,
  "ĠWald": 23399,
  "formÃ©ment": 31581,
  "Good": 27170,
  "Ġkuny": 5211,
  "ĠType": 10864,
  "Ġhot": 4720,
  "ifashishwa": 9598,
  "ĠSaxon": 21933,
  "Ur": 5441,
  "ĠRaja": 26394,
  "Ġumukinnyi": 1396,
  "ĠInternet": 8342,
  "Ġarr": 2016,
  "ĠUbwiza": 26761,
  "hob": 6611,
  "Ġscene": 5142,
  "Ġrele": 1511,
  "Ġasc": 15100,
  "ĠNyamag": 14342,
  "Ġcock": 24791,
  "ĠIrimo": 25051,
  "Ġnyine": 26094,
  "Ġzidasanzwe": 20074,
  "Ġbunyuranye": 26451,
  "verte": 26040,
  "ĠHonor": 19453,
  "Ġepinari": 23044,
  "imibonano": 14562,
  "amanywa": 27235,
  "Ġuyu": 2285,
  "ĠEh": 29665,
  "Ġplanning": 11911,
  "ĠSiy": 14568,
  "entially": 13354,
  "Ġyaguze": 26148,
  "ĠHam": 4371,
  "ĠrÃ©ception": 30637,
  "igifu": 30415,
  "Ġaunt": 28697,
  "Ġimihindagurikire": 6616,
  "raison": 30601,
  "icked": 11872,
  "ieut": 9580,
  "ahagije": 17258,
  "Ġbelieve": 8386,
  "ububanyi": 15405,
  "ĠPercy": 21152,
  "Ġsplit": 13667,
  "imbuto": 6194,
  "Ġdiffic": 4056,
  "Ġconsole": 18743,
  "Ġspot": 6771,
  "Ġafatanyije": 26097,
  "Ġsafe": 6096,
  "icut": 16792,
  "Ġpotentially": 20707,
  "inyama": 13769,
  "egek": 8292,
  "ĠMauritius": 30957,
  "Ġstop": 3368,
  "Ġgukorwa": 7916,
  "Ġzig": 1908,
  "ĠBurns": 19468,
  "ĠBott": 30433,
  "Ġcontraire": 27523,
  "Ġgutora": 16031,
  "Ã©ex": 29783,
  "Ġclothing": 18221,
  "iriza": 2840,
  "Ġzaba": 21289,
  "informations": 27139,
  "esipanyo": 18929,
  "wareness": 31795,
  "Ġguta": 19018,
  "Ġdangerous": 12844,
  "ĠUmwandiko": 6136,
  "osi": 6792,
  "ĠUy": 27307,
  "endre": 3896,
  "Ġtravaux": 9916,
  "Ġnewly": 11213,
  "Ġintara": 8290,
  "ĠMull": 24829,
  "error": 4642,
  "Ġinyamaswa": 6270,
  "Ġamadolari": 24170,
  "Ġashyiraho": 20382,
  "Ġugize": 29037,
  "ĠCoord": 22166,
  "ukirwa": 10072,
  "Ġways": 10395,
  "igaragarire": 14525,
  "Ġbikorera": 24772,
  "iyoborere": 10231,
  "ĠNshingwabikorwa": 24670,
  "Ġzera": 24887,
  "ĠBund": 19583,
  "ĠMall": 19239,
  "ikigabo": 30077,
  "oviyeti": 21332,
  "ĠUre": 27308,
  "ĠUshobora": 18323,
  "ĠOnce": 1665,
  "ĠVerisiyo": 16709,
  "Ġkiganiro": 12253,
  "ĠNyamasheke": 18818,
  "Ġaribo": 17973,
  "Ġkwiyongera": 6256,
  "Ġpurchasing": 30072,
  "ayi": 1669,
  "ĠcÃ´tÃ©": 20440,
  "ibag": 20874,
  "Ġdrink": 9098,
  "Ġoffs": 27452,
  "Ġcontemp": 7744,
  "Ġkuruh": 8402,
  "umuh": 4039,
  "Ġconsensus": 24473,
  "Ġtenure": 26923,
  "undana": 16412,
  "ĠLiban": 30855,
  "Ġbyubaka": 27317,
  "ĠNeg": 17476,
  "umbik": 13858,
  "ten": 1440,
  "ĠAaron": 18170,
  "ĠFarr": 24890,
  "erg": 1721,
  "Ġiterambere": 2578,
  "ĠBeaut": 18561,
  "ĠVul": 28138,
  "Ġguy": 21785,
  "ĠStates": 2406,
  "bar": 4570,
  "Ġprofile": 11892,
  "erekeye": 7630,
  "icyiciro": 6088,
  "Ġimibonano": 11461,
  "ĠPlanet": 23665,
  "FL": 13328,
  "Ġcyerekezo": 14758,
  "uven": 17726,
  "Ġprevent": 6667,
  "Ġminor": 5897,
  "Ġdifficulty": 15021,
  "Ġyatanze": 9849,
  "Ġdrive": 8697,
  "zimbere": 14714,
  "ĠStanford": 30081,
  "Ġinstalled": 10992,
  "Ġishobora": 3832,
  "Ġvente": 17951,
  "ĠIkinamico": 29763,
  "Ġsession": 5502,
  "ĠOrd": 18804,
  "abak": 2931,
  ";,": 9607,
  "Ġninth": 15395,
  "Ġgitsina": 8480,
  "idia": 21654,
  "Å": 147,
  "Ġpri": 2982,
  "Ġbarab": 19349,
  "Ġsans": 4956,
  "ader": 7655,
  "ĠJournal": 12847,
  "Ġnautical": 19280,
  "ĠWalker": 15231,
  "Ã©ri": 1632,
  "lessly": 26295,
  "Ġfinal": 2825,
  "ÄŁ": 11631,
  "Ġville": 11464,
  "ser": 6396,
  "ĠGraph": 23038,
  "Ġahanini": 4915,
  "umusaruro": 9164,
  "Ġtraveling": 23634,
  "esse": 13821,
  "ĠPist": 25999,
  "Ġzituma": 23505,
  "asohoka": 23524,
  "Ã©ro": 8278,
  "ĠSugar": 24338,
  "ĠDuck": 23865,
  "ĠIrani": 15863,
  "ĠArct": 18238,
  "Ġdiscussed": 15384,
  "Ġdinner": 10781,
  "ubw": 2007,
  "Ġbutuma": 17048,
  "Ġacted": 19352,
  "ĠCertain": 28015,
  "Ġ1917": 11896,
  "Ġclouds": 17620,
  "Ġvolume": 9662,
  "Ġmi": 3477,
  "Ġruling": 21532,
  "ĠCed": 21645,
  "uation": 2876,
  "andis": 19866,
  "ĠRw": 4265,
  "Ġanglais": 21942,
  "idge": 2622,
  "Ġracial": 24148,
  "jemo": 18907,
  "ading": 6911,
  "ĠGuteza": 24060,
  "Ã¨ve": 14440,
  "ĠPascal": 20786,
  "Ġindicates": 21076,
  "ĠNeigh": 30837,
  "Ġibitero": 29098,
  "ĠAB": 18168,
  "olly": 6410,
  "Ġconv": 3688,
  "ĠPapa": 13482,
  "annexe": 15421,
  "ingendo": 19552,
  "Ġvisited": 10449,
  "Ġumuby": 10273,
  "Ġigira": 7134,
  "amarushanwa": 19763,
  "enyutse": 19366,
  "oga": 4712,
  "izing": 6889,
  "ĠMacArthur": 26304,
  "Ġpiece": 7680,
  "Ġorganismes": 9982,
  "ĠWeather": 27551,
  "Ġretriev": 19973,
  "Ġconcerts": 19441,
  "Ġsque": 24290,
  "Ġmoyen": 10546,
  "agon": 5088,
  "Ġyes": 10784,
  "Ġbyibura": 24627,
  "Ġthough": 1846,
  "abol": 20183,
  "Ġnkombe": 6559,
  "Ġihuza": 13869,
  "ĠGet": 12655,
  "agaciro": 4968,
  "ĠFemale": 27815,
  "iel": 1442,
  "Ġsche": 10670,
  "Ġcaliber": 25633,
  "ual": 1605,
  "ĠVienne": 24412,
  "in": 275,
  "umbuzi": 13143,
  "Ġaccurate": 31053,
  "ĠStratÃ©gie": 26464,
  "Ġexpansion": 12921,
  "Ġuguk": 25011,
  "ĠTet": 25371,
  "ĠJon": 10146,
  "Ġsentenced": 25627,
  "Ġcirc": 3838,
  "Ġopp": 3428,
  "Afrique": 19794,
  "ĠMack": 15782,
  "Ġshaking": 24943,
  "Ġkonsolekalendar": 27856,
  "Ã©tranger": 23701,
  "âĢĻ,": 10068,
  "Ġyerekeje": 17119,
  "issent": 9091,
  "ĠNov": 2540,
  "iona": 24324,
  "iswi": 23775,
  "ĠÐ¿": 28393,
  "Ġalongside": 10445,
  "ĠBuc": 17933,
  "kuruza": 17197,
  "ĠBengal": 27817,
  "ÂŃ": 9239,
  "Ġlocated": 4807,
  "Ġzid": 6739,
  "Ġmati": 5209,
  "Ġkwerekanwa": 30557,
  "umugongo": 28299,
  "ĠInyandikoporogaramu": 26449,
  "Time": 25858,
  "ekereza": 24468,
  "Ġhorizontal": 21138,
  "Ġgro": 1306,
  "Ġaccounting": 29222,
  "anja": 2842,
  "Ġducks": 22733,
  "Ġbwubutaka": 15471,
  "ĠChristmas": 12584,
  "Ġgrab": 26805,
  "Ġryashyizweho": 25766,
  "Ġabah": 3987,
  "Ġmagi": 28311,
  "ĠShang": 29025,
  "Ġmiti": 14237,
  "ĠCS": 17232,
  "Ġfunding": 14688,
  "abira": 4183,
  "ĠYA": 27383,
  "Ġataz": 31416,
  "Ġdid": 1204,
  "Ġpollution": 21104,
  "ĠTP": 9772,
  "Ġjoke": 19635,
  "umekero": 15240,
  "Ġphases": 29948,
  "Ġmostly": 8336,
  "Ġbifitiye": 29926,
  "ĠOya": 8452,
  "herejwe": 14830,
  "ava": 5452,
  "Ġhard": 3686,
  "preneur": 26428,
  "11": 4897,
  "buk": 27874,
  "Ġ188": 4300,
  "ishimisha": 26303,
  "Ġexactly": 20422,
  "ĠWitt": 30516,
  "uille": 13218,
  "Ġkwagura": 8917,
  "Ġsaison": 22512,
  "Ġconspiracy": 31058,
  "Ġwish": 11431,
  "ĠIntsinzi": 24904,
  "atte": 21202,
  "ishy": 1745,
  "ĠPhel": 30476,
  "Ġdiab": 25118,
  "Ġyatek": 22851,
  "Ġjoy": 14778,
  "Ġyimikino": 25084,
  "Ġikungahaye": 20245,
  "Ġfruits": 19064,
  "ĠOseyaniya": 25442,
  "ĠAchol": 31793,
  "Ġ1887": 22665,
  "ĠPRO": 19909,
  "Ġuturuka": 26153,
  "ĠCur": 20200,
  "ĠBw": 14570,
  "ĠPhilos": 29972,
  "Ġalarm": 16616,
  "ĠJane": 5816,
  "ubushyuhe": 6021,
  "ugh": 669,
  "Ġntib": 3029,
  "Ġincreased": 6491,
  "Ġ1956": 11498,
  "Ġbyubatswe": 22904,
  "Ġships": 4201,
  "imibare": 10941,
  "jimye": 22800,
  "ĠSat": 22023,
  "ĠToutefois": 17188,
  "Ġhatandukanye": 16276,
  "umudage": 26588,
  "Ġyibasiwe": 31840,
  "Ġaccueill": 30700,
  "ĠShyira": 18541,
  "Ġpaintings": 22274,
  "Ġenvironment": 7640,
  "ahaye": 6535,
  "ĠGovern": 6695,
  "ĠGilbert": 19801,
  "more": 5731,
  "ĠArg": 29778,
  "Ġireme": 16047,
  "ĠMick": 19571,
  "Com": 27863,
  "Ġgus": 843,
  "ĠTexas": 6652,
  "Ġkwanga": 26740,
  "arizwamo": 23676,
  "Ġabakinnyi": 12083,
  "ĠDon": 4950,
  "ĠHitamo": 26654,
  "ĠUbushyuhe": 13264,
  "Ġamara": 21295,
  "era": 427,
  "Ġprotested": 30760,
  "Ġpresidential": 21095,
  "Ġigenzura": 21318,
  "ĠFlight": 18567,
  "Ġkinyam": 26202,
  "umurage": 19887,
  "Ġcivilians": 27067,
  "uire": 18668,
  "Ġinstances": 29087,
  "ombie": 14296,
  "Ġcreative": 13544,
  "Ġriots": 29324,
  "ĠAmakadiri": 25220,
  "Ġgishushanyo": 25348,
  "ĠItariki": 11963,
  "Ġwica": 28722,
  "Ġbihe": 4378,
  "ĠDÃ©partement": 30215,
  "Ġwu": 6122,
  "Ġaggreg": 22516,
  "atio": 17058,
  "onia": 10475,
  "ĠRoger": 14523,
  "Ġmuri": 391,
  "i": 90,
  "inkoko": 15254,
  "ĠSpring": 12012,
  "Ġnijoro": 14701,
  "ĠVill": 10505,
  "Ġtaken": 4174,
  "orous": 19860,
  "Ġumw": 951,
  "ĠrÃ©ussi": 30636,
  "ĠMbuganyuma": 16924,
  "Ġbitemewe": 17052,
  "atse": 5500,
  "Ġdouble": 7706,
  "orry": 3725,
  "ĠDec": 2488,
  "Äį": 18671,
  "itational": 31217,
  "Ġcrit": 2297,
  "ambod": 23048,
  "enz": 2395,
  "uhaye": 14662,
  "Ġhegitari": 5097,
  "ĠEsther": 28520,
  "atiques": 8077,
  "ĠBobby": 15724,
  "wiye": 4013,
  "Ġamap": 24383,
  "enas": 31209,
  "ĠRidge": 18970,
  "Ġconclud": 7733,
  "isen": 18148,
  "´": 130,
  "Ġver": 5328,
  "ĠDublin": 19604,
  "Ġuruhande": 25557,
  "ĠCros": 23138,
  "ĠYuhi": 27384,
  "ĠToutes": 30779,
  "ired": 2147,
  "Ġkilled": 4728,
  "Ġintroduce": 26293,
  "Ġproceed": 12553,
  "Ġicons": 17743,
  "hin": 14227,
  "ĠAriel": 18845,
  "urinda": 12860,
  "Ġoriginal": 3052,
  "ĠImpamyabushobozi": 20334,
  "ĠPlayStation": 13326,
  "ĠUmuh": 6222,
  "Ġrwak": 17299,
  "umwuga": 9450,
  "Ġntego": 7512,
  "po": 6298,
  "acye": 22454,
  "ĠLoi": 9027,
  "Ã°r": 31072,
  "Ġibinure": 17388,
  "Ġkimaze": 14725,
  "vens": 17203,
  "ĠMinistre": 24122,
  "omm": 912,
  "Ġaur": 21189,
  "Ġkidasanzwe": 27007,
  "ĠChar": 2841,
  "Ġduty": 13432,
  "Ġbuzwi": 18091,
  "zobere": 6770,
  "ĠCr": 2916,
  "Ġcommentaires": 24083,
  "Ġproduces": 27484,
  "Ġadmissibles": 30234,
  "warimu": 21426,
  "Ġmeant": 7586,
  "Ġgoods": 18574,
  "ĠRevolutionary": 27734,
  "Ġarose": 25305,
  "inkori": 29035,
  "Ġkinini": 3355,
  "ĠMz": 28785,
  ",\"": 3214,
  "Ġnyoni": 5189,
  "gram": 5163,
  "Ġfirm": 13265,
  "urity": 7497,
  "ĠNyabugogo": 18618,
  "uzz": 11854,
  "Ġfed": 21219,
  "ifiÃ©es": 27020,
  "tu": 2091,
  "Ġvale": 7910,
  "ĠSultan": 14100,
  "Ġbateye": 27206,
  "Ġtugize": 15727,
  "FP": 22793,
  "Ġmaintenir": 23638,
  "ihinga": 16402,
  "Ġdub": 16776,
  "arurira": 18143,
  "ulÃ©": 12999,
  "Ġchorus": 15408,
  "ishishwa": 14119,
  "ID": 4669,
  "aik": 30283,
  "ĠBelg": 8960,
  "ĠFamily": 14214,
  "ĠSimpsons": 14057,
  "SINDA": 25835,
  "Ġfut": 4746,
  "flower": 28284,
  "Ġreun": 23407,
  "Ġkuruta": 7194,
  "es": 289,
  "ĠrÃ©serves": 25087,
  "Ġwarships": 24505,
  "ĠMaine": 23816,
  "ibut": 2604,
  "ĠLomb": 25990,
  "cks": 25288,
  "ĠByabonetse": 13115,
  "Ġrelax": 21352,
  "Ġyarav": 20992,
  "Ġlesquelles": 22101,
  "Ġfaire": 3685,
  "ĠFour": 8284,
  "oreshe": 2114,
  "Ġcalm": 18600,
  "Ġlot": 5665,
  "Ġuniversity": 8683,
  "Ġbabiri": 6636,
  "Ġoffshore": 24464,
  "Ġnahandi": 24719,
  "irondoro": 25918,
  "Ġnervous": 19827,
  "igiseli": 24145,
  "Ġmachine": 8261,
  "fond": 25863,
  "Ġexpelled": 29836,
  "Ġpariki": 9718,
  "ĠGri": 16198,
  "Ġrwe": 4899,
  "Ġbreakfast": 25686,
  "Ġstoryline": 13773,
  "Ġholes": 27963,
  "ĠSpringfield": 22319,
  "ploy": 3320,
  "Ġunexpectedly": 31060,
  "ĠDocumentation": 10382,
  "Ġrwego": 1732,
  "Ġnkumukinnyi": 18762,
  "/": 32,
  "Ġsentences": 29156,
  "ikorwar": 18203,
  "ĠMo": 2098,
  "Ġmboga": 19486,
  "Ġgray": 15839,
  "Ġwind": 1949,
  "ĠrÃ©vision": 29305,
  "Ġ''": 22917,
  "Ġzak": 13483,
  "Ġs": 293,
  "ĠIbin": 31503,
  "urem": 10776,
  "Ġmaboko": 18677,
  "Ġdefined": 9973,
  "enregistr": 27931,
  "idents": 6407,
  "Ġfarmer": 16491,
  "Ġrifasha": 29286,
  "utation": 11728,
  "Ġmay": 2159,
  "Ġped": 13236,
  "ĠBrighton": 28580,
  "urikijwe": 11240,
  "anzemo": 29001,
  "ĠSuz": 14099,
  "Ã©chelle": 23714,
  "ĠAR": 13586,
  "Ġitsinze": 27432,
  "asc": 4910,
  "Ġmandat": 12610,
  "ĠAppro": 27684,
  "Ġrisk": 11324,
  "Look": 11006,
  "Ġwings": 11827,
  "Ġlieutenant": 20511,
  "%.": 6512,
  "Ġrigamije": 21056,
  "amed": 1358,
  "Ġwise": 14722,
  "ĠvÃ©rifier": 22296,
  "Ġporte": 16477,
  "ĠJennings": 25756,
  "Ġrevol": 13520,
  "Ġsubvention": 26830,
  "Ġimmigr": 20727,
  "Ġibidukikije": 1866,
  "Ġdemon": 8593,
  "Ġproperly": 18877,
  "Ġchanging": 17123,
  "Ġbored": 27925,
  "urengerazuba": 2014,
  "Ĕ": 226,
  "Ġbayobozi": 17999,
  "Ġziva": 11128,
  "Ġreverse": 17267,
  "ĠChand": 19950,
  "ĠRog": 8199,
  "Ġmainland": 18556,
  "Ġpainting": 10124,
  "Ġrem": 1034,
  "Ikoranabuhanga": 25635,
  "aved": 16821,
  "ĠImizi": 14448,
  "ette": 1617,
  "Ġhospital": 8929,
  "Ġmore": 1124,
  "Ġenzy": 19008,
  "ĠDivision": 3924,
  "Ġvingt": 24885,
  "Ġkunyura": 22261,
  "agarike": 14994,
  "ombye": 16035,
  "Ġtowel": 28771,
  "EC": 4793,
  "Ġcirconstances": 25841,
  "Frw": 24236,
  "Ġcour": 2281,
  "Ġicyo": 2009,
  "Ġcontemporary": 9540,
  "Ġwood": 5047,
  "ĠAlain": 24447,
  "isebe": 19035,
  "ĠKIGEZWEHO": 5858,
  "ires": 3935,
  "Ġcontroversy": 12730,
  "Ġkwinjiza": 10958,
  "ĠAgashushondanga": 11713,
  "irane": 5774,
  "Ġvac": 14942,
  "Ġbaby": 6997,
  "able": 880,
  "Ġmeilleur": 21112,
  "Ġpayer": 24303,
  "ĠMargar": 18248,
  "Ġparent": 13494,
  "Ġmodified": 15346,
  "arishya": 28710,
  "Ġtoday": 8317,
  "Ġkurinda": 4962,
  "Ġinfant": 23110,
  "Ġrulers": 29353,
  "ĠYahoze": 26334,
  "Ġreader": 29158,
  "odesha": 19297,
  "Ġburasirazuba": 5498,
  "iales": 25485,
  "Ġattributes": 22317,
  "umni": 31898,
  "ipt": 28113,
  "umiza": 16588,
  "Ġfault": 21033,
  "Ġinganda": 6024,
  "bone": 11628,
  "iyah": 19323,
  "uvr": 15652,
  "Ġmissed": 13542,
  "ĠGlas": 19396,
  "Ġimitwe": 16921,
  "Ã§on": 29899,
  "Ġfoc": 5504,
  "ĠWWE": 13488,
  "ĠÂµ": 30664,
  "Ġzip": 26821,
  "Ġguverinoma": 3173,
  "Ġproviding": 12477,
  "Ġmicro": 9401,
  "bere": 534,
  "version": 26265,
  "ichi": 22109,
  "Ġkuyobora": 8067,
  "Ġanimaux": 26723,
  "Ġparuwasi": 28161,
  "Ġkuva": 1248,
  "amagufa": 28246,
  "Ġtre": 3943,
  "Ġaccum": 16664,
  "Ġimirasire": 17126,
  "Ġmuryango": 2890,
  "ĠKra": 31329,
  "ĠliÃ©": 31947,
  "Ġyavumbuwe": 30736,
  "ĠBuk": 12878,
  "abakobwa": 8011,
  "Ġincluded": 2945,
  "strong": 31645,
  "Ġconver": 10588,
  "Ġhers": 6930,
  "ĠOpp": 23884,
  "unz": 23325,
  "Ġdiscover": 15023,
  "Ġrishya": 12867,
  "Ġwhom": 7410,
  "Ġchlor": 28911,
  "ĠKanama": 2795,
  "Ġikikije": 30542,
  "ĠAkamaro": 29049,
  "ĠReform": 28328,
  "Ġold": 2023,
  "Ġthrough": 1651,
  "Ġbeam": 23895,
  "impanuka": 26859,
  "ucike": 22478,
  "Ġkugura": 7621,
  "ĠMulder": 18957,
  "ĠSeattle": 18026,
  "16": 5879,
  "Ġwagon": 22672,
  "Ġdefend": 11972,
  "ĠËĪ": 24263,
  "66": 18901,
  "impeshyi": 27524,
  "ĠPorogaramu": 6145,
  "Ġyashinze": 7418,
  "ĠAmaj": 9200,
  "Ġadvantage": 12819,
  "Ġbigaragazwa": 25489,
  "ĠLost": 25407,
  "etch": 9559,
  "ĠFilime": 3292,
  "uty": 14256,
  "ĠMouse": 27272,
  "Ġprec": 5723,
  "ī": 249,
  "ĠMÃ©t": 28787,
  "ĠBank": 6661,
  "Ġadvertising": 19805,
  "rite": 27192,
  "Ġnaked": 28715,
  "Ġâŀ¢": 14033,
  "ĠRWANDA": 27819,
  "ĠPitt": 15796,
  "ĠOld": 7024,
  "Ġhence": 23663,
  "ĠW": 458,
  "<|result|>": 16,
  "ĠBase": 12765,
  "ĠSet": 9077,
  "ds": 16971,
  "ĠJun": 24903,
  "RAS": 23096,
  "ec": 369,
  "Ġcross": 3881,
  "Ġdepression": 8836,
  "ĠRikuru": 11947,
  "Ġumub": 5632,
  "ad": 377,
  "Ġmumico": 31670,
  "Ġbacked": 20647,
  "ST": 13090,
  "Ġraids": 22734,
  "ĠLom": 22896,
  "ĠMega": 23817,
  "Ġaritwo": 30256,
  "ision": 1222,
  "ĠSalt": 20536,
  "Ġ1903": 19404,
  "ivant": 22891,
  "Ġhus": 10261,
  "Ġconduc": 5411,
  "Ġgluc": 25608,
  "Ġnabak": 13876,
  "Ġignored": 22727,
  "ĠKI": 4754,
  "into": 21720,
  "Ġmemories": 21463,
  "Ġstroke": 22921,
  "ĠBright": 15150,
  "Ġsongwrit": 14469,
  "ous": 617,
  "Ġlivestock": 27733,
  "ĠrÃ©sultat": 25147,
  "Ġkubora": 27381,
  "ignant": 23457,
  "Ġcontinent": 28295,
  "Ġaccordance": 28507,
  "eless": 8777,
  "ost": 756,
  "Ġsized": 25324,
  "ichie": 22509,
  "ĠNyabihu": 17587,
  "ĠIbihugu": 8791,
  "intÃ©rieur": 19314,
  "arah": 4762,
  "nolds": 29478,
  "ĠMuseum": 9933,
  "obanuro": 3343,
  "Ġprocedures": 27782,
  "abel": 11731,
  "zÃ©": 28682,
  "ĠrÃ©c": 10293,
  "ombya": 5433,
  "iv": 393,
  "Ġnoir": 22082,
  "ĠdÃ©r": 28182,
  "<|": 304,
  "ĠAlpha": 21346,
  "Ġsame": 2177,
  "ch": 525,
  "ĠAddition": 12950,
  "oteyine": 11924,
  "Ġinterior": 16852,
  "jection": 23736,
  "ĠHak": 13837,
  "Ġrelig": 5476,
  "akoreshwa": 10200,
  "Ġhop": 4192,
  "Ġdoors": 23958,
  "Ġcontr": 1585,
  "Ġphilosoph": 20425,
  "ina": 569,
  "Ġalph": 30533,
  "Ġchaque": 7596,
  "Ġpraised": 6163,
  "Ġeagle": 24725,
  "Ġabahungu": 18607,
  "works": 16687,
  "fore": 1322,
  "Ġremoval": 19766,
  "action": 2702,
  "Ġown": 1972,
  "Ġniyo": 5529,
  "ĠCore": 28012,
  "ĠAbd": 6191,
  "Ġdepl": 31325,
  "Ġmill": 1717,
  "ĠGod": 5154,
  "acyo": 5604,
  "Ã©ment": 3953,
  "Ġconstruc": 3112,
  "Ġbikwiye": 15137,
  "aku": 12425,
  "mod": 17890,
  "owers": 4397,
  "ħ": 245,
  "part": 13214,
  "Ġantagon": 26235,
  "Ġ15": 1189,
  "Ġnganda": 7750,
  "istol": 10660,
  "Ġfaites": 22641,
  "ugomero": 12034,
  "break": 10319,
  "Ġadventures": 18625,
  "KI": 9334,
  "Ġsuppression": 28245,
  "Ġniyi": 17262,
  "ĠIbidukikije": 8792,
  "Ġngo": 1015,
  "ĠHyd": 20553,
  "merika": 3095,
  "Ġkwim": 4238,
  "ĠAmaz": 6381,
  "ĠSpot": 9383,
  "oral": 15261,
  "Ġcame": 2102,
  "ĠpÃ©riode": 7271,
  "ĠIkir": 7703,
  "ishyaka": 14274,
  "Ġdoute": 23959,
  "aturiye": 25905,
  "ually": 1990,
  "ĠCrow": 17931,
  "Ġrequis": 27556,
  "res": 852,
  "ĠIbisobanuro": 6341,
  "angiza": 1574,
  "ĠDow": 31382,
  "Ġdushobora": 19134,
  "Ġallows": 12582,
  "Ġwam": 9181,
  "Ġikabije": 18748,
  "Ġyasubiye": 18033,
  "Ġsolid": 13780,
  "Ġguhatanira": 16237,
  "Ġubuhamya": 27728,
  "Ġna": 417,
  "Ġ176": 16462,
  "Ġsouhait": 17978,
  "Ġfl": 1090,
  "ĠTurkish": 16315,
  "ount": 5597,
  "Ġded": 8569,
  "ĠHen": 3914,
  "xts": 15963,
  "Ġrundi": 17663,
  "Ġprofessional": 7679,
  "Ġimportante": 16489,
  "Ġngoma": 13156,
  "aho": 2754,
  "idikanywaho": 23209,
  "icle": 2971,
  "Ġlengthy": 27662,
  "Ġnyampinga": 17121,
  "Ġsustained": 14885,
  "Ġmechanism": 27737,
  "zero": 21183,
  "rop": 2932,
  "asa": 3037,
  "urugero": 9685,
  "amafi": 9183,
  "Ġturya": 24547,
  "ng": 10710,
  "uri": 357,
  "Ð¾": 8972,
  "Ġplann": 5245,
  "Ġdecre": 13755,
  "Ġrailroad": 17590,
  "vin": 9611,
  "inc": 1270,
  "ĠThailand": 30602,
  "Ġye": 1699,
  "Ġrepresenting": 17816,
  "Ġactors": 13631,
  "Ġyiga": 7767,
  "Ġcomes": 8940,
  "ĠErie": 28099,
  "Ġguide": 13282,
  "ised": 2338,
  "urikagurisha": 13986,
  "ĠprÃ©sente": 8915,
  "ashakashatsi": 12603,
  "ontin": 17738,
  "Ġsucc": 14981,
  "Ġbypass": 14113,
  "ĠTrad": 26178,
  "amazu": 12673,
  "Ġubunyobwa": 21293,
  "ashire": 30509,
  "Ġadopt": 9990,
  "Ġfocuses": 24107,
  "Ġwarfare": 25036,
  "ĠMid": 5367,
  "ĠBugesera": 8051,
  "iganiro": 2912,
  "Ġinzozi": 20176,
  "Ġcru": 18253,
  "ĠRailroad": 23173,
  "utamo": 20180,
  "Ġgenu": 25629,
  "Ġizag": 27459,
  "ĠCub": 27288,
  "Ġprotagonist": 20783,
  "ĠKB": 14751,
  "atiye": 20165,
  "Ġguhana": 19329,
  "Ġkwimukira": 11517,
  "Ġstrateg": 9448,
  "ĠMed": 3163,
  "Ġperspective": 15406,
  "Ġneighbor": 12954,
  "Ġmeza": 5258,
  "arura": 4659,
  "ĠCor": 7693,
  "Ġplayground": 30598,
  "Ġcolleges": 28571,
  "Ġajya": 7868,
  "Ġdominant": 18638,
  "2002": 15701,
  "Ġsh": 690,
  "Ġguides": 27499,
  "Ġryigisha": 27397,
  "Ġeasily": 12734,
  "ĠKoreans": 26319,
  "ĠfrontiÃ¨res": 28414,
  "Ġki": 11829,
  "ĠDev": 7614,
  "Ġ1865": 27009,
  "Ġrelatives": 8745,
  "ĠJinja": 23893,
  "quÃ©e": 22464,
  "ĠmatÃ©riel": 19815,
  "acre": 25396,
  "ovsky": 26084,
  "Ġgutwika": 13080,
  "ĠPierce": 21496,
  "ĠDisney": 13065,
  "Ġbakorera": 15828,
  "orkor": 28963,
  "ĠRegister": 24070,
  "imico": 23798,
  "Ġeaux": 23863,
  "Ġigisubizo": 13795,
  "amador": 11401,
  "Ġhipp": 23308,
  "Ġkubyimb": 19742,
  "reedom": 12380,
  "ĠBujumbura": 18385,
  "ubizwa": 31293,
  "icya": 6520,
  "Ġintersection": 11413,
  "ibanga": 27296,
  "ĠGard": 8490,
  "ĠInkingi": 9664,
  "ĠPrussi": 22574,
  "zerere": 17312,
  "Ġmasegonda": 25080,
  "uvuzi": 3088,
  "BAR": 5109,
  "yeg": 23322,
  "ĠsÃ©jour": 28525,
  "ororokere": 13807,
  "Z": 75,
  "arire": 9410,
  "iop": 14710,
  "Ġcounsel": 28366,
  "Ġstere": 19919,
  "ishimiye": 13543,
  "Ġshelter": 22318,
  "ĠÃ©tait": 4978,
  "augmentation": 27134,
  "ĠDans": 5117,
  "Ġmanywa": 29081,
  "Ġopened": 3786,
  "Ġamaj": 5059,
  "Ġunusually": 30137,
  "Ġagizwe": 20601,
  "ĠOu": 12666,
  "Ġpositioned": 26934,
  "Ġig": 560,
  "Ġbitanga": 7580,
  "Ġdemocracy": 27820,
  "ĠDark": 10795,
  "Ġihamye": 29824,
  "Ġjuge": 24425,
  "Ġabad": 17264,
  "Ġeditorial": 28531,
  "abazi": 7253,
  "abategarugori": 27262,
  "Ġibyuma": 11316,
  "Ġbon": 10004,
  "Ġimisoro": 15388,
  "Ġmub": 898,
  "well": 6247,
  "ĠAly": 25945,
  "Ġhills": 19877,
  "ĠTotal": 18113,
  "gebra": 15326,
  "ĠWinc": 26703,
  "Ġbattl": 10174,
  "ĠWorks": 18353,
  "ĠEmily": 20676,
  "amoko": 9784,
  "ANI": 31784,
  "umuyobozi": 3231,
  "unganye": 29671,
  "akkar": 25387,
  "apper": 30627,
  "int": 661,
  "Ġikanyura": 22090,
  "ĠTsh": 17674,
  "Ġigitekerezo": 7254,
  "Ġngingo": 7956,
  "unyamabanga": 19160,
  "Ġkuzimira": 25606,
  "Ġgoaltender": 31128,
  "mbo": 1684,
  "Ġamikoro": 27351,
  "ĠNgo": 21658,
  "ĠLogan": 27755,
  "observation": 31068,
  "Ġwebs": 9256,
  "ulum": 28823,
  "ĠDol": 26008,
  "ĠIk": 871,
  "oro": 773,
  "Ã¢ce": 11590,
  "ĠNyamara": 10176,
  "Ġvig": 23381,
  "ĠreÃ§": 8849,
  "Ġbyatangiye": 13601,
  "banje": 22674,
  "Ġubwoko": 3212,
  "ĠShelley": 21131,
  "Ġmerged": 21533,
  "ĠFranÃ§": 14982,
  "con": 6030,
  "Ubudage": 14461,
  "Ġwanduye": 23286,
  "ĠConsult": 26993,
  "ĠMountain": 10628,
  "Ġ186": 6085,
  "Ġ1896": 24074,
  "Ġsilly": 14503,
  "alth": 3019,
  "Ġfood": 4530,
  "Ġruva": 24301,
  "Ġnab": 1719,
  "Ãª": 1350,
  "Ġisanzwe": 7355,
  "ĠDjibouti": 16544,
  "ĠÃ©tabli": 17380,
  "utigali": 29553,
  "Ġmain": 1642,
  "Ġik": 514,
  "urugo": 20159,
  "Ġyiswe": 11937,
  "rosa": 27294,
  "ubunyobwa": 19236,
  "Ġubw": 1831,
  "Ġ1894": 20703,
  "ĠAfrica": 3583,
  "Ġproj": 3716,
  "Ġteen": 16653,
  "¸": 134,
  "Ġempire": 18069,
  "avubi": 14430,
  "umus": 3969,
  "ĠUmugabane": 28381,
  "Ġdefining": 31650,
  "ĠKibeho": 21474,
  "child": 23903,
  "oci": 1497,
  "rary": 7897,
  "Ġselile": 30752,
  "abanyamahanga": 23639,
  "teko": 3801,
  "Ġbigabanya": 12341,
  "ricanes": 27489,
  "front": 7131,
  "Ġunits": 6621,
  "ĠYouT": 13413,
  "ĠBuholandi": 11801,
  "Ġchurch": 6866,
  "Ġtuba": 21188,
  "akura": 12647,
  "Ġclever": 15009,
  "Ġpermanently": 23652,
  "Ġbreeds": 21483,
  "iteg": 3752,
  "ĠCoch": 30429,
  "ĠUbuh": 14139,
  "Ġpulas": 14531,
  "Ġ1920": 8285,
  "intu": 1397,
  "ĠPur": 16391,
  "yabonetse": 12790,
  "Ġbiteza": 21416,
  "Ġgatandatu": 9656,
  "Ġ1885": 22664,
  "ĠTimbuktu": 28613,
  "KU": 16967,
  "iramo": 3707,
  "Ġassistance": 11607,
  "ographic": 13429,
  "erageje": 17144,
  "Ġlangue": 15200,
  "Ġyu": 3588,
  "irus": 24795,
  "abatuye": 14671,
  "oreza": 23899,
  "expl": 28256,
  "Ġperd": 18243,
  "amac": 19548,
  "fs": 7558,
  "Ġils": 6508,
  "Ac": 29449,
  "Ġcompilation": 14450,
  "akaga": 13592,
  "Ġleague": 7386,
  "Ġmembres": 4243,
  "Ġumunani": 8127,
  "ĠToul": 21410,
  "Ġmugongo": 30661,
  "Ġbitab": 24939,
  "ĠSoviet": 7597,
  "Ġnitsinda": 19536,
  "icyorezo": 20316,
  "ĠGround": 23855,
  "Ġpron": 16832,
  "ĠCav": 24845,
  "Ġrecevoir": 25812,
  "ĠpiÃ¨ces": 24710,
  "Ġbatting": 17337,
  "oss": 2366,
  "imiti": 11355,
  "uriramo": 29507,
  "Ġactuellement": 16057,
  "gh": 26489,
  "Ġzishobora": 5147,
  "Ġvampire": 28843,
  "Ġshowing": 10898,
  "izz": 22093,
  "Ġjud": 6188,
  "ins": 1148,
  "ĠClassic": 22302,
  "Ġdiss": 6759,
  "kinson": 31172,
  "Urwego": 22752,
  "Ġexprim": 27391,
  "Ġhang": 11017,
  "Ġtransmit": 29837,
  "Ġ1913": 14827,
  "Ġtourists": 29181,
  "ĠKevin": 11842,
  "Ġsubur": 22178,
  "Ġlistening": 20387,
  "ungahaye": 7222,
  "Ġhashize": 15896,
  "internet": 31195,
  ":)": 24742,
  "Ġpalette": 18850,
  "ĠYatsindiye": 6664,
  "Ġ63": 6742,
  "ologists": 19986,
  "Ġsiyansi": 8875,
  "intama": 30572,
  "ungurusumu": 21952,
  "Ġparade": 22528,
  "Ãĩ": 15965,
  "Ġabap": 23404,
  "Ã¨t": 23439,
  "Ġqualified": 23101,
  "Ġdise": 9442,
  "Ġsurvive": 21461,
  "Ġane": 14280,
  "yard": 9238,
  "Ġconvient": 16502,
  "Ġtrad": 3373,
  "TI": 7339,
  "Ġconcurr": 10110,
  "ugabutumwa": 22863,
  "Ġbiteg": 10730,
  "Ġstreak": 22920,
  "Ġextrem": 12595,
  "ĠFrench": 3070,
  "Ġversions": 11399,
  "anyu": 30563,
  "ĠLiberiya": 17818,
  "ĠParadise": 28628,
  "UniversitÃ©": 24084,
  "Ġmumar": 26852,
  "ĠHarriet": 30262,
  "pped": 5373,
  "ugs": 22861,
  "Ġ1943": 9976,
  "ĠSalus": 25115,
  "Ġastronom": 22328,
  "ĠGisagara": 12830,
  "He": 19834,
  "ĠâĤ": 26514,
  "ĠCaptain": 9599,
  "ĠAmah": 5248,
  "Ġunder": 1553,
  "ĠEkw": 24899,
  "Ġabahohotewe": 26222,
  "Ġbakuze": 20965,
  "affirm": 31806,
  "Ġbre": 2357,
  "Ġmwinshi": 7753,
  "ĠIbihe": 15654,
  "Ġmubutaka": 21753,
  "ergy": 5070,
  "Ġheure": 22931,
  "Ġcrime": 10815,
  "ĠBlo": 22595,
  "Ġcome": 3699,
  "omie": 31266,
  "oneye": 12049,
  "Ġ1961": 8501,
  "ĠDiv": 3051,
  "Ġrefresh": 30154,
  "wah": 10650,
  "Ġwoman": 6240,
  "Ġrir": 5223,
  "Ġaffair": 26255,
  "Ġbitaga": 26757,
  "sey": 4861,
  "Ġbise": 16351,
  "ĠGrÃ¢ce": 31665,
  "Ġpaper": 6322,
  "abuye": 28768,
  "Ġsimilar": 3437,
  "This": 18853,
  "Ġeducated": 25707,
  "Ġevening": 12700,
  "ude": 3010,
  "Ġbookmark": 28334,
  "ushya": 3369,
  "Ġibiny": 23872,
  "Ġlo": 1053,
  "ĠStories": 22532,
  "ĠSuperman": 21040,
  "Ġphen": 13703,
  "ĠcommunautÃ©s": 20391,
  "aide": 8922,
  "Ġrugendo": 15689,
  "Ġkwimakaza": 24596,
  "Ġ550": 26101,
  "Ubuhinzi": 16865,
  "Ã©ra": 10069,
  "Ġcyatangiye": 19910,
  "Ġnyirakuru": 21885,
  "Ġuhuriweho": 30766,
  "apu": 27356,
  "gae": 23466,
  "Ġabsorbed": 29403,
  "Ġrat": 8614,
  "ĠVenice": 20091,
  "atangaza": 30012,
  "Ġtherapy": 31342,
  "uyu": 7428,
  "Ġruto": 16170,
  "Ġflag": 6362,
  "ĠFall": 9952,
  "Ġpartir": 11571,
  "Ġmubidukikije": 30619,
  "Ġyarak": 12687,
  "ĠIkiranga": 16938,
  "ibumbye": 3624,
  "<|system|>": 6,
  "ubuto": 7569,
  "eps": 31488,
  "ongenga": 12883,
  "Ġapplic": 11899,
  "ĠIbik": 6150,
  "81": 27166,
  "Ġrumaze": 21997,
  "ĠAI": 19883,
  "cha": 19621,
  "Ā": 206,
  "Ġubu": 1351,
  "etical": 26578,
  "pire": 7642,
  "Ġu": 314,
  "Ġvisibility": 26905,
  "Ġ(Â«": 28041,
  "ĠKDE": 19587,
  "Ġmubihugu": 10608,
  "urana": 10644,
  "Ġabimukira": 28874,
  "Ġbiny": 28701,
  "ures": 1546,
  "aux": 1710,
  "ashak": 5243,
  "ĠOriginally": 21944,
  "ĠTheater": 24865,
  "session": 29485,
  "Ġthings": 3248,
  "ĠDeux": 24517,
  "Ġdiscovery": 20059,
  "erst": 4547,
  "ĠKoresha": 14418,
  "fare": 16550,
  "Ġbatagira": 31558,
  "Â»,": 20710,
  "Ġsteam": 10458,
  "omereka": 24319,
  "Ġishyirwaho": 16913,
  "Ġitself": 6008,
  "Ġsea": 5755,
  "rupt": 14050,
  "Ġihabwa": 19360,
  "Ġplanes": 25086,
  "Urw": 13330,
  "Ġattending": 26147,
  "Ġriherereye": 13189,
  "ignes": 14786,
  "ĠSalaam": 17463,
  "Ġusanga": 5232,
  "ĠEst": 8897,
  "ĠCast": 6218,
  "Ġmiryango": 9735,
  "atanzwe": 5055,
  "umugabane": 13409,
  "Ġajo": 17207,
  "Ġ75": 5685,
  "Ġeby": 4690,
  "ĠÂ°": 3114,
  "ĠChange": 11762,
  "wirakwi": 29970,
  "ukikije": 1103,
  "ĠproposÃ©": 19099,
  "Ġcoffee": 19310,
  "Ġproduct": 8861,
  "ibarafu": 24126,
  "ĠVanessa": 25725,
  "Ġhumid": 29123,
  "ĠGatolika": 10461,
  "ibara": 6815,
  "oked": 13967,
  "Ġpublisher": 27120,
  "Ġlanguage": 6340,
  "ĠHabyarimana": 13443,
  "utaka": 1512,
  "bing": 29466,
  "Ġbuilt": 3274,
  "Ġscientifique": 24642,
  "akwiye": 18457,
  "Ġishyigikira": 31834,
  "Ġapproche": 17782,
  "umaze": 11288,
  "encing": 20984,
  "oporogaramu": 26045,
  "ĠvisÃ©": 28348,
  "estin": 27344,
  "Ġbyugarije": 26657,
  "Åĵur": 25112,
  "Ġkurusha": 6459,
  "isti": 28116,
  "ĠDr": 2137,
  "cream": 27879,
  "mon": 5270,
  "Ġensemble": 14508,
  "Ġumbr": 26660,
  "ĠvÃ©": 9577,
  "ner": 2822,
  "ĠCamp": 7278,
  "Ġtough": 22014,
  "ĠIh": 1877,
  "ĠDem": 2302,
  "Ġju": 5474,
  "__": 9754,
  "Ġremains": 7142,
  "umubyeyi": 22751,
  "ĠAziya": 5424,
  "Ġproceeded": 22938,
  "Ġseapl": 26732,
  "amababa": 21045,
  "Ġits": 812,
  "Ġbreeding": 13074,
  "ĠBatt": 4061,
  "Ġcinq": 14870,
  "Ġhas": 855,
  "Ġrecall": 27417,
  "Ġgovern": 2359,
  "gayi": 18135,
  "ĠUbu": 4163,
  "isconsin": 20039,
  "hanol": 26340,
  "Ġcomponents": 20280,
  "Ġpicnic": 22359,
  "aliya": 5170,
  "osing": 7987,
  "ĠChal": 30586,
  "Ġurugomero": 14647,
  "Ġpresents": 26863,
  "heric": 23925,
  "Ġprop": 3062,
  "Ġmpuzandengo": 29028,
  "Ġyemera": 24644,
  "wic": 26509,
  "Ġumuhanda": 8757,
  "yemeje": 19089,
  "Ġbeats": 24905,
  "Ġsleeve": 30069,
  "Ġwart": 20500,
  "Ġsufficient": 12946,
  "amadorari": 17626,
  "ĠVis": 12894,
  "ĠJenny": 17493,
  "Ġgre": 6760,
  "Ġworked": 4714,
  "Ġleurs": 4213,
  "igali": 18447,
  "Ġ70": 4096,
  "ibilitÃ©": 7856,
  "2018": 11901,
  "Ġcred": 6155,
  "ĠLand": 7909,
  "Ġstrongly": 13300,
  "Ġhosp": 30381,
  "ĠCag": 25965,
  "MD": 23728,
  "Ġadds": 27515,
  "ĠLoni": 24864,
  "ĠCzech": 24212,
  "Ġcontrib": 13042,
  "Ġprincipes": 15199,
  "MO": 18902,
  "cher": 5354,
  "acts": 16647,
  "ĠAnn": 5984,
  "ĠrÃ©v": 10356,
  "Ġyagerageje": 23972,
  "irize": 26707,
  "erageza": 6134,
  "Ġyiyemeje": 15438,
  "ĠBrigade": 9972,
  "ĠRing": 23839,
  "Ġbitaramo": 20949,
  "ĠcollectivitÃ©": 30914,
  "Ġarm": 3450,
  "ĠEmpire": 8703,
  "Ġtraf": 6991,
  "Ġwr": 3406,
  "Ġbwemewe": 17354,
  "ĠCI": 19247,
  "ĠKirimo": 25395,
  "ĠInstit": 5892,
  "Ġmasezerano": 5290,
  "Ġabahanzi": 17143,
  "ja": 4467,
  "abimukira": 25940,
  "inian": 21740,
  "ench": 2491,
  "ĠAtalant": 29432,
  "Ġbec": 944,
  "embera": 10961,
  "ook": 8056,
  "Ġigiti": 6965,
  "ĠRevolution": 9395,
  "Ġpasiporo": 30671,
  "igori": 6000,
  "ĠUdushushondanga": 25206,
  "ĠNko": 28816,
  "ime": 573,
  "ĠParmi": 28271,
  "Ġbwagaragaye": 30038,
  "ĠUrb": 28221,
  "Ġbimeze": 9178,
  "Ġbiboneka": 13642,
  "andukana": 7666,
  "Ġperforming": 12174,
  "Ġexha": 18495,
  "Ġcompagnies": 26419,
  "bro": 14707,
  "ĠOlympia": 31922,
  "Ġubwinshi": 15688,
  "Ġifite": 1835,
  "emen": 10946,
  "ĠDepression": 23617,
  "yamakuru": 7623,
  "Ġplayoffs": 21141,
  "ard": 557,
  "Ġmugenzi": 11773,
  "Ġzunze": 10085,
  "AD": 8654,
  "Ġruns": 4584,
  "aragara": 1614,
  "aille": 18235,
  "Ġyitabira": 12373,
  "heure": 16163,
  "iminary": 23603,
  "ĠGuatem": 26877,
  "agatifu": 8226,
  "Can": 9407,
  "aÃ±": 30284,
  "hiswe": 4770,
  "pin": 17424,
  "imetero": 10547,
  "Ġheavily": 11807,
  "Ġmanufact": 11675,
  "Ġconcerns": 14494,
  "ĠOrchestra": 28332,
  "Ġmai": 14957,
  "anjaro": 25570,
  "itari": 3498,
  "bak": 24751,
  "akaje": 17724,
  "Ġjeune": 29102,
  "Ġaccidentally": 16940,
  "atwa": 2687,
  "ĠNay": 29606,
  "Ġnayo": 4447,
  "Ġles": 576,
  "ariro": 14912,
  "mph": 14899,
  "ĠLet": 7438,
  "ĠAngelou": 28457,
  "grad": 13276,
  "Ġhandle": 11063,
  "uled": 6885,
  "Ġcoins": 16427,
  "Ġsituations": 18088,
  "Ġhighway": 5948,
  "Ġibyuya": 28077,
  "Ġleader": 5179,
  "ĠGisa": 30465,
  "Đ": 222,
  "Ġ1931": 15694,
  "Ġmusaza": 29059,
  "ĠIKIMENYETSO": 30272,
  "ĠRico": 18969,
  "ĠIgaraga": 18528,
  "avutse": 8623,
  "Ġrecherche": 6162,
  "ikunze": 28767,
  "ĠâĢ¦": 20256,
  "Ġmagare": 19997,
  "Ġdivisions": 13770,
  "Ġranking": 18360,
  "ĠDenis": 19456,
  "Ġikigabo": 27700,
  "Ġkorari": 27672,
  "Ġbigaragaza": 20265,
  "ibona": 11552,
  "ĠUmus": 2283,
  "ĠIbyerekeye": 27627,
  "ukora": 12310,
  "Ġarchitecture": 16724,
  "Ġzirenze": 29142,
  "Ġcontributions": 12833,
  "Ġ1863": 27008,
  "ĠKorea": 13899,
  "ĠQueens": 16512,
  "):": 6542,
  "ĠVita": 10351,
  "entretien": 28789,
  "abasore": 31914,
  "ĠName": 11648,
  "Ġthreats": 22889,
  "Ġconfigure": 30080,
  "Ġheures": 13258,
  "Ġfederasiyo": 20397,
  "oloni": 6961,
  "Ġigaragaza": 10878,
  "uguay": 21321,
  "ĠSud": 2548,
  "Ġuzwiho": 26943,
  "Ġbronze": 9377,
  "iriwe": 3986,
  "merera": 11971,
  "Ġhous": 6306,
  "amura": 14732,
  "Ġumukono": 9261,
  "Ġactiv": 2712,
  "Ġutemba": 29803,
  "ĠLeonard": 20766,
  "Ġencouraged": 16303,
  "Ġdusanga": 28484,
  "Ġcinema": 18694,
  "ois": 6927,
  "iu": 27187,
  "ĠDaddy": 15545,
  "Ġdescended": 26992,
  "ĠReview": 12710,
  "Ġpubli": 24493,
  "Ġatmos": 14276,
  "Ġcompositions": 20348,
  "andikisha": 14036,
  "Ġkumanuka": 29055,
  "Ġ1937": 13169,
  "ensis": 12461,
  "Ġpopulated": 26865,
  "ĠCaesar": 29424,
  "ĠEdgar": 26224,
  "Ġikaba": 2938,
  "Ġexpired": 29835,
  "rian": 6173,
  "Ġdisturb": 18302,
  "Ġungana": 20585,
  "ovak": 26082,
  "Ġelle": 5164,
  "Ġconsulter": 31105,
  "adow": 9188,
  "Ġavuye": 10098,
  "ĠEnergy": 13504,
  "ĠprÃ©paration": 23080,
  "aqu": 21168,
  "ubyi": 15443,
  "Ġrestaur": 10522,
  "ĠBomb": 16185,
  "imeny": 2466,
  "Ġbish": 7562,
  "stra": 30523,
  "chestre": 27768,
  "ĠInyubako": 16678,
  "Ġshows": 6594,
  "Ġcaution": 24211,
  "arengeje": 9820,
  "Ġconsac": 13749,
  "Ġnuc": 6909,
  "inguished": 25162,
  "at": 291,
  "abag": 3217,
  "Ġasking": 15915,
  "ĠOMS": 22481,
  "Ġsciences": 20956,
  "Ġpro": 500,
  "avuga": 6311,
  "Ġhabitats": 28513,
  "Ġconsomm": 11490,
  "ĠIharanaira": 29868,
  "Ġemerge": 31706,
  "Ġtrio": 26961,
  "ibution": 5228,
  "ĠCov": 13246,
  "ĠRice": 27305,
  "Ġifata": 11299,
  "Ġgetting": 9764,
  "enye": 19854,
  "indira": 11277,
  "Ġ1938": 11589,
  "ĠJustin": 28448,
  "Ġlanc": 14403,
  "Ġliqu": 13707,
  "Ġmang": 27918,
  "ranean": 15232,
  "ĠHull": 23853,
  "ujya": 19342,
  "ific": 1269,
  "ace": 781,
  "Ġkuri": 660,
  "Ġreleased": 2246,
  "Ġrepres": 3534,
  "ĠCannot": 6764,
  "Ġkizaba": 24602,
  "ĠMuyobozi": 21344,
  "ĠConstruction": 15495,
  "EAC": 26474,
  "eraga": 8142,
  "ashyantare": 3027,
  "athers": 15678,
  "ologiques": 20995,
  "imbs": 28201,
  "aniya": 2448,
  "Ġanthem": 30789,
  "Ġpouvait": 26322,
  "ubare": 2601,
  "uthor": 3153,
  "lo": 3323,
  "ĠPortland": 16286,
  "ĠWa": 13732,
  "ĠSchwar": 23126,
  "Ġmajonjora": 15145,
  "Ġdocumentation": 14657,
  "Ġson": 1937,
  "ĠLeop": 26784,
  "ritann": 15480,
  "Ġibiza": 16011,
  "umunsi": 10442,
  "Ġyara": 11019,
  "Ġbasin": 22557,
  "otte": 17013,
  "Ġlegend": 21832,
  "Ġrecorded": 4164,
  "Ġranks": 17911,
  "Ġprotest": 17323,
  "emn": 14416,
  "Ġconvoy": 17570,
  "ĠLich": 30457,
  "ale": 931,
  "Ġoverseas": 30223,
  "ĠGikondo": 28560,
  "Ġlinear": 23074,
  "ĠArchitect": 29249,
  "ĠLithu": 18468,
  "zwa": 1208,
  "ĠSib": 23823,
  "Ġblocked": 25683,
  "Ġih": 1336,
  "Ġtour": 3799,
  "Ã©tÃ©": 5460,
  "ĠPierre": 10921,
  "ors": 985,
  "ĠRoberts": 16915,
  "ubita": 15591,
  "Ġrot": 9486,
  "ĠSouthampton": 26248,
  "Ġeverybody": 27545,
  "min": 2067,
  "Ġuba": 7091,
  "Ġisabukuru": 26663,
  "Ġdisappoint": 13555,
  "Ġgain": 11834,
  "ukuri": 7801,
  "Ä": 146,
  "elling": 5265,
  "umukozi": 18953,
  "ĠIgitabo": 10467,
  "Ġniveaux": 16296,
  "Ġposthum": 28240,
  "ĠLeft": 22996,
  "ĠFinally": 10052,
  "ĠSABC": 25208,
  "Ġbikabije": 18533,
  "Ġyatijwe": 26798,
  "Ġingingo": 8081,
  "ĠTry": 26604,
  "Ġfrigate": 24200,
  "Ġhaz": 7874,
  "Ġstrain": 29009,
  "Ġ1886": 26965,
  "Ġlie": 19874,
  "amugaye": 26557,
  "Ġconfidence": 26220,
  "ĠIll": 8830,
  "mane": 23737,
  "Ġsign": 1744,
  "assing": 31523,
  "ĠState": 4054,
  "Ġrefused": 7452,
  "bur": 2496,
  "Ġzerekeye": 24888,
  "yoboke": 19029,
  "Ġell": 30311,
  "ĠDutch": 10796,
  "itegeko": 14242,
  "ĠBand": 12538,
  "06": 14222,
  "ĠMunyaneza": 26413,
  "Ã©sion": 22521,
  "Ġconclus": 16016,
  "Ġbukorwa": 31658,
  "ayers": 24876,
  "El": 20794,
  "primer": 24944,
  "warwa": 15704,
  "inent": 10001,
  "ufficient": 23921,
  "ĠOdd": 30514,
  "Ġoutcome": 22989,
  "DG": 28649,
  "Ġconceived": 26022,
  "Ġyagezweho": 26610,
  "Ġfan": 10937,
  "Ġshoes": 16041,
  "Ġstronger": 18596,
  "ukerarugendo": 19577,
  "Ġflood": 7320,
  "ĠMind": 19888,
  "any": 604,
  "ĠTerre": 27027,
  "Ġdense": 19545,
  "Ġumwuga": 2140,
  "Ġmazu": 28164,
  "ĠMart": 4800,
  "Ġasabwa": 26017,
  "iÃ©": 11168,
  "ĠJohannes": 11581,
  "ĠUmwarimu": 25471,
  "Ġentir": 11053,
  "ĠDesign": 20046,
  "urikizwa": 13752,
  "Ġbuto": 18761,
  "ijimana": 27423,
  "Ġayant": 9470,
  "ĠLear": 31356,
  "ĠREG": 23180,
  "Ġyatangaje": 6439,
  "ĠBeat": 8254,
  "angu": 9687,
  "ĠBlake": 25569,
  "jugunya": 24683,
  "fully": 12573,
  "ĠFerdinand": 25269,
  "Ġyangiza": 15774,
  "ĠSolange": 22567,
  "ĠHudd": 31365,
  "ĠNy": 1182,
  "zi": 379,
  "folk": 16551,
  "igious": 31298,
  "erve": 4977,
  "agamo": 15590,
  "ĠdÃ©p": 4414,
  "ĠGeneve": 23211,
  "ĠKal": 4999,
  "angamira": 10375,
  "Ġasohora": 31399,
  "urerure": 18619,
  "hendutse": 14380,
  "chie": 5507,
  "Ġquel": 5329,
  "Ġ140": 11311,
  "Ġfc": 21616,
  "Ġfund": 6954,
  "uye": 630,
  "ĠentiÃ¨rement": 30652,
  "<|search|>": 10,
  "Ġbuhanitse": 29945,
  "idugudu": 28803,
  "Afrika": 30978,
  "Ġenemies": 11666,
  "ĠVir": 3744,
  "Ġcandy": 14851,
  "Ġyifashishwa": 26569,
  "ĠJapanese": 4681,
  "ĠYat": 8684,
  "alu": 30383,
  "ĠRubaya": 29605,
  "Ġburn": 9286,
  "atuma": 4519,
  "ĠKakam": 31334,
  "Ġborough": 23274,
  "Ġbyas": 9642,
  "Ġstrik": 12571,
  "Ġparten": 9441,
  "Abayahudi": 25732,
  "Ġdescent": 24396,
  "Ġpositively": 27803,
  "Ġziyongereye": 31619,
  "antes": 4972,
  "alin": 17666,
  "Ġproposal": 11898,
  "Ġkwihaza": 26966,
  "ans": 529,
  "Ġ80": 4228,
  "ĠÃ©vol": 27699,
  "onza": 12980,
  "ungana": 7311,
  "ouan": 29008,
  "Ġelegitoroniki": 21536,
  "Ġtwe": 15967,
  "Ġremote": 14455,
  "ĠrÃ©se": 9848,
  "ĠIsezerano": 18379,
  "400": 16965,
  "ĠAnti": 26985,
  "uje": 3528,
  "TY": 29463,
  "reens": 25390,
  "VP": 20799,
  "ĠRW": 18185,
  "Ġyatwaye": 12911,
  "Ġvitamini": 11907,
  "Ġwagiye": 27639,
  "Ġbigiye": 19646,
  "ubyiruko": 2865,
  "stitution": 9004,
  "Ġmaint": 7066,
  "asade": 18152,
  "Ġrenouvel": 25810,
  "Ã©taires": 26819,
  "orph": 21201,
  "ubutegetsi": 7860,
  "Ġigish": 28129,
  "mediate": 21081,
  "ĠYashinzwe": 16416,
  "ĠÃ©lect": 10986,
  "zona": 17426,
  "ihariye": 4320,
  "Ġconsent": 19675,
  "ĠImage": 22537,
  "igihingwa": 23674,
  "Ġagencies": 22515,
  "Ġakomoka": 10880,
  "uringaniye": 26133,
  "Ġrendering": 31937,
  "ÃŃ": 4982,
  "ĠEight": 23886,
  "xyde": 14511,
  "Ġmacro": 23190,
  "ĠAdm": 9454,
  "bank": 24752,
  "ĠForces": 14317,
  "andimwe": 10572,
  "ĠChronicle": 22348,
  "Ġzinc": 22064,
  "irir": 7691,
  "ĠRenaissance": 19167,
  "Ġfailing": 25742,
  "DD": 22792,
  "Ġahitamo": 17295,
  "uhira": 21694,
  "Ġparticipate": 15881,
  "impfu": 26858,
  "Ġliver": 30379,
  "Ġivu": 28739,
  "Ġkuko": 1197,
  "Ġumunsi": 7170,
  "Ġleave": 7093,
  "Ġcolonies": 19782,
  "Ġfert": 28742,
  "position": 8798,
  "Ġpip": 23785,
  "Ġ///": 25726,
  "ĠTour": 5348,
  "lÄ±": 26498,
  "Abadepite": 30145,
  "Ġnaryo": 21895,
  "Ġsk": 2390,
  "ĠAngle": 22213,
  "ims": 7216,
  "ĠPhiladelphia": 11716,
  "ĠTun": 6081,
  "Ġmilieux": 31603,
  "Ġbugira": 14818,
  "Ġpregnant": 25814,
  "Ġenvoy": 15544,
  "Ġyize": 3984,
  "inyamanswa": 13173,
  "weto": 10712,
  "ĠHels": 24356,
  "Ġcreating": 10378,
  "ĠLay": 25987,
  "elic": 28795,
  "ator": 2020,
  "Ġnarrow": 14369,
  "izabukuru": 16715,
  "Ġzikungahaye": 26868,
  "ĠGang": 25414,
  "Ġreferee": 31094,
  "ĠThese": 4341,
  "ĠBooth": 29902,
  "Ġbukangurambaga": 26179,
  "ĠInz": 11363,
  "soft": 18211,
  "Ġturning": 14650,
  "Ġgutangwa": 18206,
  "erge": 27916,
  "Ġjumps": 27041,
  "Ġvolleyball": 12267,
  "ivent": 5484,
  "Ġpeteroli": 7685,
  "Ġflooding": 12839,
  "ĠChad": 27412,
  "ay": 409,
  "Ġgenet": 22223,
  "ĠIjwi": 17838,
  "uffy": 12269,
  "ĠWar": 2524,
  "Ġannounced": 4613,
  "ĠFried": 15801,
  "Ġlocomotives": 23693,
  "Ġpeu": 9043,
  "Ġashing": 14269,
  "Ġconfir": 6230,
  "ĠHas": 21274,
  "ĠIngingo": 8640,
  "Uyu": 26478,
  "ĠPeter": 4949,
  "Ġaspect": 19776,
  "Ġ280": 30804,
  "ĠCEO": 22288,
  "ĠKamere": 18564,
  "itiki": 4730,
  "ĠRas": 19902,
  "ĠÒ": 18673,
  "uccess": 12042,
  "Ġgishinwa": 27746,
  "Ġinhabited": 28558,
  "ĠECO": 28100,
  "Ġcin": 7346,
  "Ġmoral": 11524,
  "Ġryatewe": 28915,
  "Ġyombi": 12207,
  "Ġbeauty": 18080,
  "ĠThanks": 28955,
  "ĠmarchÃ©": 7893,
  "Ġsil": 4327,
  "ĠSac": 20197,
  "--": 9935,
  "iev": 21704,
  "ikinamico": 11730,
  "Ġaddresses": 26347,
  "umutima": 8809,
  "Ġgito": 4679,
  "ĠSpike": 30713,
  "Ġrelationships": 16927,
  "eganijwe": 5721,
  "ĠFriday": 22558,
  "Ġkisilamu": 22405,
  "Ġdescribed": 3125,
  "heje": 5661,
  "Ġishwagara": 28987,
  "Ġryab": 8945,
  "Ġfondamentaux": 29374,
  "eni": 4136,
  "Ġfaced": 9696,
  "zanye": 27902,
  "Ġngenderwaho": 18543,
  "Ġuterwa": 21221,
  "Ġtaxi": 29203,
  "ĠmatÃ©riaux": 31012,
  "ĠKaiser": 25262,
  "Ġkwandika": 7677,
  "Ġreligious": 8181,
  "ĠEthiop": 21134,
  "Abarabu": 10975,
  "indu": 12143,
  "Ġappropriate": 19796,
  "yamana": 22105,
  "Ġsup": 1190,
  "Africa": 19795,
  "ĠPl": 1915,
  "inama": 6578,
  "formes": 29779,
  "Ġzifatika": 22277,
  "Ġalco": 14278,
  "ayis": 21284,
  "Ġkugereranya": 26063,
  "Ġhamwe": 849,
  "Ġbombard": 23153,
  "ĠWu": 31412,
  "Ġmajor": 2573,
  "ĠAkagari": 24495,
  "ugize": 29568,
  "Ġpleased": 19126,
  "ĠâĢĺâĢĺ": 31835,
  "Ġkubw": 12335,
  "Ã²": 31185,
  "ĠadÃ©qu": 28174,
  "ĠNepal": 31052,
  "Ġhash": 4886,
  "ĠOpt": 27355,
  "ĠAmin": 19311,
  "Ġresulting": 9272,
  "C": 52,
  "Ġamatungo": 11237,
  "ĠIrilande": 15864,
  "fu": 4231,
  "Ġbout": 20262,
  "ĠNt": 2231,
  "ĠJr": 12551,
  "Ġkuruhande": 13558,
  "Ġtext": 3759,
  "asy": 5377,
  "inted": 22522,
  "Ġdirt": 19975,
  "Ġpoems": 23969,
  "ĠvÃ©rifi": 30971,
  "Ġtrois": 7549,
  "izigo": 25458,
  "Ġubanza": 26690,
  "Ġspa": 20259,
  "ujy": 6333,
  "oba": 18911,
  "ikinyejana": 7458,
  "ijana": 24437,
  "Ľ": 267,
  "ĠdÃ©terminer": 16530,
  "Ġdeparted": 17602,
  "Ġsurviv": 17831,
  "ĠCode": 14104,
  "ĠRyan": 11702,
  "ĠImashini": 28967,
  "Ġ48": 6284,
  "Ġtrack": 2681,
  "Ġumuyoboro": 11703,
  "ks": 3438,
  "ĠEuc": 23885,
  "utabire": 16363,
  "ĠRough": 30709,
  "Ġmil": 1118,
  "ĠGill": 13122,
  "Ġcoupled": 26994,
  "Ġgukama": 28154,
  "Ġknowledge": 11989,
  "Ġcrops": 19373,
  "Ġmasse": 29920,
  "ahara": 4312,
  "ibic": 9426,
  "Ġibihugu": 4127,
  "Ġportra": 17546,
  "Ġnortheastern": 27057,
  "Ġkwibanda": 19430,
  "oli": 4029,
  "waga": 8524,
  "ĠMontgom": 20043,
  "Ġyakoreshejwe": 15833,
  "rec": 21972,
  "Ġinterchange": 11382,
  "ĠnÃ©gociations": 19476,
  "aris": 19856,
  "Ġnotes": 7991,
  "arde": 29700,
  "ĠMilitary": 20715,
  "periment": 30757,
  "iyongereye": 7151,
  "Ġurwego": 5252,
  "ashed": 12755,
  "Ġsamples": 18423,
  "Ġentrer": 31954,
  "ĠChart": 10096,
  "ĠPink": 28058,
  "phine": 28270,
  "elled": 5431,
  "Ġcandidate": 13195,
  "ĠIbisubizo": 30856,
  "ĠYaso": 31455,
  "uruhare": 19420,
  "Ġwhether": 6184,
  "ĠToday": 10700,
  "Ġkunoza": 12388,
  "Ġgenerous": 27558,
  "Ġartists": 12074,
  "Ġmodifications": 15348,
  "Ġumuyaga": 15025,
  "ĠKanda": 15999,
  "Ġus": 813,
  "rap": 1867,
  "absence": 24690,
  "Ġitandatu": 9833,
  "abanyamuryango": 14201,
  "Ø¯": 8879,
  "angiriza": 25902,
  "ements": 1420,
  "uguke": 12033,
  "Ġcoal": 10093,
  "Ġkwibuka": 16517,
  "Ġtug": 5271,
  "Ġorganizations": 13650,
  "Ġwriters": 10679,
  "ĠBarnes": 25789,
  "Ġindeed": 23459,
  "amas": 2587,
  "odo": 20246,
  "icular": 30394,
  "util": 7215,
  "ÑĢ": 7599,
  "ĠRid": 20546,
  "Ġhomeless": 30895,
  "annes": 7515,
  "ubaha": 29569,
  "ĠAfro": 18768,
  "ĠIsaac": 16739,
  "Afurika": 3509,
  "<|/result|>": 17,
  "Ġunusual": 14218,
  "avandimwe": 15620,
  "ĠGodwin": 31895,
  "ĠMarge": 18247,
  "od": 518,
  "Ġuturere": 11392,
  "Ġdespite": 6445,
  "ĠTanzania": 14489,
  "Ġlaboratory": 21105,
  "anderb": 24095,
  "exportation": 23713,
  "Ġcosts": 15725,
  "hogo": 11839,
  "Ġbee": 19291,
  "ufatanyabikorwa": 22352,
  "indiro": 15306,
  "ĠSelection": 29981,
  "unyira": 26894,
  "Ġbiba": 4369,
  "ject": 1502,
  "ĠHolmes": 25653,
  "aching": 22135,
  "ko": 505,
  "Ġusing": 3467,
  "riture": 25492,
  "ĠnÃ©cessaire": 11409,
  "ushyitsi": 28227,
  "ĠHowever": 2612,
  "Ġuhuza": 8503,
  "Ġphenomenon": 22782,
  "ĠGU": 16007,
  "ĠLus": 18730,
  "Ġlady": 10260,
  "ohora": 5687,
  "Ġamabati": 30796,
  "ĠR": 381,
  "ĠUMUN": 27081,
  "iant": 5806,
  "nÃ©": 15249,
  "ĠrÃ©fÃ©r": 22548,
  "ĠBetty": 31318,
  "ĠVietn": 9280,
  "ĠKabiri": 10269,
  "ĠUmukino": 21854,
  "ĠCorr": 22027,
  "Ġnanone": 8192,
  "Ġrural": 11638,
  "Ġclock": 13972,
  "Ġcentres": 13634,
  "ubahiro": 6118,
  "Ġigis": 6487,
  "abanyamerika": 29074,
  "Ġfever": 26145,
  "ĠjournÃ©e": 26276,
  "Ġumusaruro": 2482,
  "ĠMickey": 29397,
  "udence": 30540,
  "Ġdirty": 16872,
  "erer": 2295,
  "ĠOrange": 18572,
  "Ġcomprend": 18825,
  "ĠVeronica": 21462,
  "Ġ51": 9090,
  "Ġcreatures": 17319,
  "ĠChallenge": 25827,
  "ĠBavuga": 26619,
  "Ġndege": 18205,
  "Ġaccompagn": 21482,
  "anor": 21977,
  "ihingwa": 18478,
  "Ġhind": 24313,
  "ibutso": 6748,
  "ĠBab": 15599,
  "Ġauthorities": 10990,
  "Ġx": 4828,
  "Ġincomp": 25026,
  "Ġquand": 9253,
  "ĠIkosa": 7629,
  "Ġengagements": 19816,
  "Ġmumuryango": 17099,
  "ĠGray": 15352,
  "!\"": 1958,
  "uzuye": 3443,
  "Ġaujourd": 14236,
  "Ġpoem": 14459,
  "ock": 1043,
  "ingabo": 6657,
  "ĠAmend": 16632,
  "Ġurupapuro": 29029,
  "ĠREC": 24857,
  "ĠWil": 4485,
  "ĠSanders": 25716,
  "Ġherself": 7207,
  "Ġthankful": 27758,
  "Ġnibura": 7709,
  "uburayi": 20523,
  "unywa": 14820,
  "inette": 25885,
  "Ġpass": 1686,
  "Abibumbye": 10362,
  "Ġmarked": 10531,
  "ĠBritish": 2142,
  "ĠÃ©vent": 18220,
  "Ġseemed": 11525,
  "Ġishingiye": 7362,
  "\\\\": 12194,
  "Ġbattlecruis": 30993,
  "Ġavailability": 30864,
  "Ġrated": 13234,
  "ĠOctob": 2514,
  "Ġbear": 5263,
  "Ġdet": 2492,
  "ĠUmubarendanga": 29444,
  "urt": 8357,
  "Ġlangues": 16102,
  "Ġorgani": 21075,
  "Ġakurikirana": 31479,
  "akara": 8672,
  "ĠIV": 9888,
  "Ġexplos": 13415,
  "Ġro": 918,
  "upa": 15810,
  "Ġfisc": 13823,
  "adows": 26629,
  "oys": 20296,
  "ĠDefence": 17861,
  "Est": 22368,
  "Ġheadquarters": 12367,
  "iracy": 25917,
  "Ġabandoned": 11707,
  "ĠEN": 20234,
  "Ġurus": 3849,
  "ĠUpper": 22888,
  "hinduwe": 9326,
  "ologies": 30710,
  "jiya": 25865,
  "Ġconsist": 4503,
  "ĠInv": 18198,
  "Ġassists": 17763,
  "Ġlocations": 11307,
  "Ġkubyimbirwa": 21949,
  "igis": 8365,
  "arere": 943,
  "ukungu": 10073,
  "ĠMata": 2854,
  "Ġovert": 23001,
  "ĠTay": 8775,
  "Ġarrow": 18756,
  "Ġkandi": 547,
  "ĠSe": 1936,
  "Ġelectrical": 20357,
  "ukije": 24839,
  "arurwa": 11346,
  "ĠAddis": 19767,
  "banga": 13813,
  "Ġprovenant": 24507,
  "igaragaza": 20192,
  "ĠdÃ¨s": 15977,
  "Ġhaterwa": 29547,
  "tre": 1582,
  "Ġbeer": 28873,
  "D": 53,
  "amanota": 25336,
  "Paul": 31154,
  "ĠAmaze": 8457,
  "Ġemerg": 7175,
  "ĠdÃ©mocratique": 24707,
  "vamo": 23264,
  "Ġcontrolled": 12961,
  "urikiraho": 18535,
  "Amahoro": 23057,
  "wood": 3842,
  "Ġguhinga": 6893,
  "ā": 207,
  "ĠDÃ©": 10018,
  "ĠNine": 18727,
  "Ġshould": 2444,
  "ĠâĢľ%": 26886,
  "uriki": 5977,
  "Ġsear": 16030,
  "otho": 17244,
  "Ġgusetsa": 13978,
  "Ġmubiri": 4400,
  "ĠCe": 5796,
  "Ġyemeza": 22698,
  "Ġcob": 25325,
  "Ġeux": 12139,
  "Ġnit": 15572,
  "ingura": 18705,
  "ocaust": 24704,
  "Ġakiri": 7257,
  "enter": 16183,
  "related": 30958,
  "ĠJeux": 31697,
  "operative": 6750,
  "Ġ1914": 12705,
  "wobo": 12331,
  "ĠBolton": 22717,
  "Ġballs": 18045,
  "Ġkujya": 4733,
  "Ġretali": 28252,
  "Ġ1981": 7195,
  "Ġisesengura": 24367,
  "ut": 328,
  "Ġmadorari": 27921,
  "ĠBak": 7250,
  "Ġeval": 16655,
  "Ġamavuta": 9634,
  "Ġubuziranenge": 12550,
  "ĠMam": 23329,
  "Ġibyaha": 15714,
  "Ġones": 11459,
  "Ġimaze": 6172,
  "Ġwalked": 6727,
  "Ġmarque": 20294,
  "Ġcamp": 2801,
  "ashanyarazi": 29660,
  "Ġdict": 24299,
  "Ġworking": 5065,
  "ands": 5840,
  "ĠCamii": 13205,
  "atoire": 9730,
  "irwamo": 11091,
  "41": 18124,
  "unezero": 25004,
  "andara": 27953,
  "ĠTrans": 4489,
  "Ġside": 3013,
  "ĠMINI": 19472,
  "Ġbakinnyi": 7954,
  "Ġ1968": 7171,
  "Ġleaders": 12173,
  "instein": 24764,
  "Ġvalid": 10117,
  "MT": 29460,
  "Ġyabyo": 12357,
  "Ġnumwe": 18926,
  "yongera": 11085,
  "Ġachieved": 12836,
  "ĠTang": 9125,
  "Ġrecover": 17503,
  "sequ": 3994,
  "Ġako": 5599,
  "ĠDrama": 21816,
  "Ġcomp": 875,
  "ĠBald": 27290,
  "Ġrwose": 9456,
  "ĠMuj": 20613,
  "Ġgreatest": 11598,
  "ĠLit": 18467,
  "ĠBut": 1607,
  "Ġvehicles": 12397,
  "Ġbitandatu": 17727,
  "igifaransa": 18449,
  "Ġmillions": 8429,
  "Ġexecute": 24140,
  "apes": 8782,
  "ĠSomething": 24699,
  "Ġflank": 17081,
  "ĉ": 215,
  "Ġgikubiyemo": 20667,
  "Ġdo": 920,
  "yab": 916,
  "Ġbikungahaye": 22555,
  "Ġexcav": 27571,
  "ebwa": 29834,
  "baye": 1583,
  "andy": 15575,
  "ĠAnna": 4271,
  "ĠPant": 19274,
  "Ġyagiye": 3834,
  "Ġforward": 6738,
  "meje": 26756,
  "ibirayi": 20542,
  "aru": 27215,
  "Ġmemb": 2057,
  "leep": 17474,
  "ĠCommod": 28279,
  "F": 55,
  "ĠRwe": 22456,
  "Ġteammate": 25044,
  "ĠNY": 6480,
  "Ġlaw": 3658,
  "Ġbya": 666,
  "ran": 9609,
  "duc": 879,
  "Ġdent": 27951,
  "rw": 337,
  "ĠIniti": 9781,
  "anyijwe": 5688,
  "Ġlandfall": 16677,
  "Ġclause": 30592,
  "clud": 1046,
  "Ġtheaters": 25764,
  "Ġbug": 1999,
  "ĠDevelop": 6896,
  "Ġnubushobozi": 29134,
  "Ġntiyab": 25743,
  "Ġyavugaga": 21002,
  "Ġnouvelle": 9062,
  "Ġvictorious": 26941,
  "Ġyimvura": 20688,
  "amira": 14401,
  "Ġwid": 3857,
  "ĠDrum": 29109,
  "amakinamico": 23140,
  "Ġexpensive": 15153,
  "Ġwuzuye": 16773,
  "ĠRose": 9354,
  "Ġpopulaire": 31690,
  "Ġbakeneye": 11378,
  "Ġbabone": 17096,
  "þ": 204,
  "ĠCape": 6479,
  "not": 23739,
  "ĠMoses": 25684,
  "uraho": 9434,
  "Ġpermet": 10620,
  "Ġbatek": 18922,
  "ĠWr": 7575,
  "Ġwickets": 16570,
  "ĠKigaragara": 13994,
  "enderwaho": 13955,
  "observ": 19011,
  "ushoboka": 23066,
  "Ġbalance": 13445,
  "ĠVincent": 14535,
  "ĠAbabiligi": 29768,
  "Ġimvange": 30923,
  "Ķ": 260,
  "ĠWallace": 21894,
  "Ġabashyitsi": 15312,
  "Ġbiryo": 19666,
  "ĠLux": 15089,
  "ĠCameron": 22783,
  "ĠJose": 5188,
  "Ġ145": 26853,
  "umana": 4051,
  "Ġpeter": 7380,
  "don": 12018,
  "omerera": 15775,
  "tery": 19277,
  "Ġincorpor": 8252,
  "ĠAndi": 18562,
  "Ġ55": 6285,
  "su": 10640,
  "ĠUrs": 22556,
  "ĠFK": 27335,
  "eda": 18935,
  "ĠGandhi": 31101,
  "effic": 13196,
  "empl": 4408,
  "Ġcas": 2869,
  "ĠUwase": 21857,
  "ĠSolar": 21479,
  "Ġbiranga": 18524,
  "Ġait": 17432,
  "ļ": 266,
  "ek": 1002,
  "ĠÃªtes": 17550,
  "ĠMarie": 6158,
  "Ġouts": 28183,
  "Ġdisrup": 30611,
  "yamamaza": 22956,
  "SIN": 22200,
  "Ğ": 236,
  "Ġ1916": 13884,
  "Ġwilling": 21001,
  "ĠAst": 16366,
  "ĠLen": 24353,
  "herche": 29721,
  "Ġ1889": 26297,
  "enerali": 25021,
  "abazungu": 27128,
  "Ġmafaranga": 13693,
  "Ġbranch": 10433,
  "ayu": 4971,
  "Ġarea": 2479,
  "OT": 13329,
  "ĠIc": 1560,
  "Ontario": 18655,
  "Ġcous": 19541,
  "ĸ": 262,
  "ĠCateg": 18963,
  "Ġblame": 29819,
  "Ġkuzenguruka": 18038,
  "Ġpreparing": 25800,
  "Ġages": 24424,
  "Ġkirusiya": 26910,
  "wick": 10642,
  "Ġwihariye": 22395,
  "ĠBeng": 17680,
  "aminisitiri": 10219,
  "impamvu": 15158,
  "inst": 17895,
  "ĠWii": 22483,
  "ubutayu": 10748,
  "Ġzandurira": 24889,
  "ĠIgice": 7364,
  "Ġbadly": 16907,
  "Ġairl": 15968,
  "ĠCurtis": 20454,
  "ĠRising": 28814,
  "Ġunit": 9136,
  "Ã¨rent": 15647,
  "yapolitiki": 8468,
  "Ġzagize": 21892,
  "uburumbuke": 30930,
  "lang": 303,
  "19": 1682,
  "Ġlik": 2473,
  "ĠMemb": 15986,
  "Ġdirectories": 31703,
  "imigano": 20057,
  "egetsi": 4141,
  "Ġbitanu": 11204,
  "Ġeveryone": 6874,
  "igar": 8450,
  "ĠÃªtre": 2643,
  "Ġ89": 12792,
  "AT": 4706,
  "anwa": 1039,
  "ĠAllemagne": 30751,
  "ĠKyle": 28030,
  "omena": 29551,
  "Ġemissions": 28308,
  "ĠSina": 20534,
  "ĠBurke": 20999,
  "Ġbavugako": 22205,
  "ĠBunny": 24687,
  "aves": 4094,
  "ubai": 18225,
  "ungur": 23890,
  "ĠSORAS": 31045,
  "ĠJoh": 1454,
  "ĠPublic": 10272,
  "ĠImirongo": 16723,
  "Ġrounds": 17519,
  "Ġcyas": 17041,
  "Ġtril": 26739,
  "Ġblack": 4224,
  "Ġlargement": 29180,
  "Ġhit": 4686,
  "ĠLil": 21662,
  "Ġakomeza": 11475,
  "Ġlibert": 12941,
  "ospital": 7007,
  "Ġpard": 31248,
  "ders": 24753,
  "Iv": 15560,
  "Ġcyenda": 19276,
  "ĠOrig": 10527,
  "ubiligi": 4784,
  "Ġjoue": 21839,
  "ĠOrle": 23062,
  "ĠKitazwi": 27724,
  "wir": 2991,
  "back": 6236,
  "Ġexter": 23422,
  "Ġcries": 24792,
  "inyab": 1959,
  "Ġagreed": 5833,
  "Ġafterwards": 17752,
  "asobwa": 9073,
  "Ġrepresents": 22236,
  "Ġeager": 24363,
  "Ġifatanije": 30626,
  "Ġentreprise": 16684,
  "mill": 22377,
  "Ġvolunt": 25088,
  "Ġhyper": 23179,
  "Umuryango": 6856,
  "Ġstyles": 16014,
  "Ġpanel": 15921,
  "ĠWolf": 16406,
  "Ġstarr": 11848,
  "ĠYves": 29695,
  "inge": 11178,
  "Ġpratique": 16227,
  "Ġamounts": 20394,
  "scop": 24577,
  "Ġtoward": 11643,
  "ĠSerge": 14832,
  "umenyi": 1352,
  "ashobora": 2040,
  "imyanda": 11691,
  "anijwe": 2188,
  "Ġtang": 30314,
  "ĠUmwuzure": 9805,
  "inganda": 5186,
  "ĠBened": 24513,
  "ufi": 3897,
  "Ġinformed": 15366,
  "Ġkika": 26542,
  "Ġplac": 20927,
  "Ġagerageza": 23923,
  "Ġibya": 3679,
  "Ġwithd": 7310,
  "Ġtested": 18918,
  "ĠPalestine": 22350,
  "Ġyavukiye": 4260,
  "ikh": 11020,
  "Ġrimaze": 20835,
  "Ġicyari": 17101,
  "andukaniro": 10291,
  "amenyo": 18587,
  "Ġmoteur": 31080,
  "atts": 31222,
  "ĠKibungo": 25710,
  "Ġkitarenze": 25238,
  "Ġabsolute": 25221,
  "Ġgusimbuza": 31550,
  "Ġryiswe": 31480,
  "Ġcity": 2698,
  "Ġschools": 11325,
  "Ġnoises": 20919,
  "ĠFunga": 19285,
  "Ġbwinshi": 4777,
  "imenya": 20516,
  "imbaraga": 14617,
  "Ġrecognized": 11802,
  "ĠImirimo": 26774,
  "Ġundo": 26926,
  "Ġstom": 24893,
  "Ġupon": 1625,
  "arin": 25899,
  "Ġmanager": 6872,
  "GA": 7338,
  "Ġmosque": 13203,
  "Ġpercent": 6178,
  "Ġjurisdiction": 19497,
  "amba": 1913,
  "ĠCla": 8379,
  "Ġapartment": 18274,
  "Ġmubijyanye": 12907,
  "Ġgusubiramo": 29276,
  "ĠTool": 13054,
  "Ġumuhanga": 12659,
  "Ġterrit": 4896,
  "Ġintellectual": 20432,
  "Ġdestroyed": 6651,
  "Ġigomba": 11756,
  "abil": 2365,
  "ayer": 4594,
  "ĠGuhindura": 6948,
  "ĠLah": 26649,
  "ĠJuly": 2918,
  "Ġmuyobozi": 20844,
  "Ġchange": 4988,
  "Ġ1932": 13878,
  "Ġkuyig": 28421,
  "Ġcommenced": 20277,
  "inyam": 2261,
  "ĠPage": 18981,
  "ienne": 5901,
  "Ġmagana": 14004,
  "ricane": 4334,
  "Ġremained": 4207,
  "Ġlobby": 31066,
  "Ã¢": 2185,
  "iskopi": 16942,
  "Ġbagah": 16859,
  "Ġwitabiriye": 29914,
  "Ġdrank": 29818,
  "QUE": 23243,
  "Ġpa": 5600,
  "eney": 26796,
  "umo": 6983,
  "ĠAziz": 26587,
  "Ġsettle": 31828,
  "ĠFoot": 6977,
  "Ġdrawings": 23606,
  "Ġinzoga": 10753,
  "Ġ5": 712,
  "Ġolempike": 21527,
  "Icy": 11336,
  "ĠAkadomo": 18383,
  "Ġbyigihugu": 29624,
  "Ġwa": 468,
  "kuva": 20804,
  "ĠFitz": 18988,
  "Ġability": 8786,
  "enches": 30659,
  "ĠexaminÃ©": 28498,
  "Ġbane": 11539,
  "Ġbigatuma": 6383,
  "ĠGuc": 10341,
  "Ġsurvey": 14519,
  "ikibazo": 11729,
  "ĠGasabo": 9331,
  "uziranenge": 8652,
  "Ġpotasiyumu": 30858,
  "ĠSha": 14794,
  "Ġnomm": 23764,
  "Ġmid": 3064,
  "ĠHu": 19905,
  "ind": 434,
  "son": 1754,
  "ĠOmar": 24385,
  "Ġ37": 5264,
  "Ġboy": 2449,
[...]
